{
  "version": "1.0",
  "truncation": null,
  "padding": null,
  "added_tokens": [
    {
      "id": 0,
      "content": "[PAD]",
      "single_word": false,
      "lstrip": false,
      "rstrip": false,
      "normalized": false,
      "special": true
    },
    {
      "id": 1,
      "content": "[UNK]",
      "single_word": false,
      "lstrip": false,
      "rstrip": false,
      "normalized": false,
      "special": true
    },
    {
      "id": 2,
      "content": "[CLS]",
      "single_word": false,
      "lstrip": false,
      "rstrip": false,
      "normalized": false,
      "special": true
    },
    {
      "id": 3,
      "content": "[SEP]",
      "single_word": false,
      "lstrip": false,
      "rstrip": false,
      "normalized": false,
      "special": true
    },
    {
      "id": 4,
      "content": "[MASK]",
      "single_word": false,
      "lstrip": false,
      "rstrip": false,
      "normalized": false,
      "special": true
    }
  ],
  "normalizer": {
    "type": "BertNormalizer",
    "clean_text": true,
    "handle_chinese_chars": true,
    "strip_accents": null,
    "lowercase": true
  },
  "pre_tokenizer": {
    "type": "BertPreTokenizer"
  },
  "post_processor": {
    "type": "TemplateProcessing",
    "single": [
      {
        "SpecialToken": {
          "id": "[CLS]",
          "type_id": 0
        }
      },
      {
        "Sequence": {
          "id": "A",
          "type_id": 0
        }
      },
      {
        "SpecialToken": {
          "id": "[SEP]",
          "type_id": 0
        }
      }
    ],
    "pair": [
      {
        "SpecialToken": {
          "id": "[CLS]",
          "type_id": 0
        }
      },
      {
        "Sequence": {
          "id": "A",
          "type_id": 0
        }
      },
      {
        "SpecialToken": {
          "id": "[SEP]",
          "type_id": 0
        }
      },
      {
        "Sequence": {
          "id": "B",
          "type_id": 1
        }
      },
      {
        "SpecialToken": {
          "id": "[SEP]",
          "type_id": 1
        }
      }
    ],
    "special_tokens": {
      "[CLS]": {
        "id": "[CLS]",
        "ids": [
          2
        ],
        "tokens": [
          "[CLS]"
        ]
      },
      "[SEP]": {
        "id": "[SEP]",
        "ids": [
          3
        ],
        "tokens": [
          "[SEP]"
        ]
      }
    }
  },
  "decoder": {
    "type": "WordPiece",
    "prefix": "##",
    "cleanup": true
  },
  "model": {
    "type": "WordPiece",
    "unk_token": "[UNK]",
    "continuing_subword_prefix": "##",
    "max_input_chars_per_word": 100,
    "vocab": {
      "[PAD]": 0,
      "[UNK]": 1,
      "[CLS]": 2,
      "[SEP]": 3,
      "[MASK]": 4,
      "(": 5,
      ")": 6,
      "*": 7,
      "+": 8,
      "-": 9,
      ".": 10,
      "/": 11,
      "0": 12,
      "1": 13,
      "2": 14,
      "3": 15,
      "4": 16,
      "5": 17,
      "6": 18,
      "7": 19,
      "8": 20,
      "9": 21,
      ":": 22,
      "=": 23,
      "[": 24,
      "]": 25,
      "a": 26,
      "b": 27,
      "c": 28,
      "d": 29,
      "e": 30,
      "f": 31,
      "h": 32,
      "i": 33,
      "k": 34,
      "l": 35,
      "m": 36,
      "n": 37,
      "o": 38,
      "p": 39,
      "r": 40,
      "s": 41,
      "t": 42,
      "u": 43,
      "w": 44,
      "y": 45,
      "«": 46,
      "»": 47,
      "½": 48,
      "،": 49,
      "؛": 50,
      "؟": 51,
      "ء": 52,
      "ا": 53,
      "ب": 54,
      "ة": 55,
      "ت": 56,
      "ث": 57,
      "ج": 58,
      "ح": 59,
      "خ": 60,
      "د": 61,
      "ذ": 62,
      "ر": 63,
      "ز": 64,
      "س": 65,
      "ش": 66,
      "ص": 67,
      "ض": 68,
      "ط": 69,
      "ظ": 70,
      "ع": 71,
      "غ": 72,
      "ف": 73,
      "ق": 74,
      "ل": 75,
      "م": 76,
      "ن": 77,
      "ه": 78,
      "و": 79,
      "ي": 80,
      "٫": 81,
      "پ": 82,
      "چ": 83,
      "ژ": 84,
      "ک": 85,
      "گ": 86,
      "ی": 87,
      "…": 88,
      "##م": 89,
      "##د": 90,
      "##ت": 91,
      "##ا": 92,
      "##س": 93,
      "##ن": 94,
      "##ی": 95,
      "##پ": 96,
      "##و": 97,
      "##ش": 98,
      "##ل": 99,
      "##ق": 100,
      "##ک": 101,
      "##ه": 102,
      "##ح": 103,
      "##ط": 104,
      "##گ": 105,
      "##ج": 106,
      "##ر": 107,
      "##ذ": 108,
      "##ف": 109,
      "##ز": 110,
      "##خ": 111,
      "##ب": 112,
      "##ع": 113,
      "##ض": 114,
      "##ص": 115,
      "##5": 116,
      "##0": 117,
      "##غ": 118,
      "##چ": 119,
      "##r": 120,
      "##t": 121,
      "##u": 122,
      "##f": 123,
      "##e": 124,
      "##d": 125,
      "##6": 126,
      "##ظ": 127,
      "##ي": 128,
      "##a": 129,
      "##1": 130,
      "##4": 131,
      "##o": 132,
      "##b": 133,
      "##ژ": 134,
      "##ث": 135,
      "##ة": 136,
      "##p": 137,
      "##i": 138,
      "##s": 139,
      "##h": 140,
      "##k": 141,
      "##3": 142,
      "##8": 143,
      "##2": 144,
      "##9": 145,
      "##n": 146,
      "##c": 147,
      "##l": 148,
      "##ء": 149,
      "##ید": 150,
      "##یم": 151,
      "را": 152,
      "می": 153,
      "##ان": 154,
      "##ار": 155,
      "##رد": 156,
      "##ای": 157,
      "##ست": 158,
      "به": 159,
      "در": 160,
      "##ری": 161,
      "##از": 162,
      "با": 163,
      "##ند": 164,
      "بر": 165,
      "##ود": 166,
      "ان": 167,
      "##ین": 168,
      "##اد": 169,
      "رو": 170,
      "تا": 171,
      "از": 172,
      "##ور": 173,
      "##اف": 174,
      "##شت": 175,
      "##ام": 176,
      "یک": 177,
      "##یر": 178,
      "اب": 179,
      "##خت": 180,
      "##ها": 181,
      "گو": 182,
      "##نید": 183,
      "##نیم": 184,
      "شد": 185,
      "میک": 186,
      "کرد": 187,
      "اش": 188,
      "##اش": 189,
      "##لا": 190,
      "##نج": 191,
      "##های": 192,
      "##رم": 193,
      "##زی": 194,
      "است": 195,
      "روی": 196,
      "اض": 197,
      "اضاف": 198,
      "نم": 199,
      "کنید": 200,
      "اضافه": 201,
      "که": 202,
      "دا": 203,
      "##لو": 204,
      "دو": 205,
      "##هی": 206,
      "##اب": 207,
      "برنج": 208,
      "مر": 209,
      "میکنیم": 210,
      "هم": 211,
      "کم": 212,
      "##گی": 213,
      "پخت": 214,
      "##وب": 215,
      "##لی": 216,
      "این": 217,
      "##ریز": 218,
      "قاش": 219,
      "گوشت": 220,
      "قاشق": 221,
      "شده": 222,
      "##فر": 223,
      "##عد": 224,
      "مو": 225,
      "پی": 226,
      "گرم": 227,
      "کرده": 228,
      "##وری": 229,
      "ام": 230,
      "نمک": 231,
      "##رف": 232,
      "یا": 233,
      "##که": 234,
      "##ذار": 235,
      "##وی": 236,
      "##لف": 237,
      "##گذار": 238,
      "پیاز": 239,
      "بعد": 240,
      "##اه": 241,
      "##وان": 242,
      "##رار": 243,
      "عد": 244,
      "##اده": 245,
      "کمی": 246,
      "سی": 247,
      "##شید": 248,
      "مواد": 249,
      "خرد": 250,
      "شود": 251,
      "##رخ": 252,
      "##انه": 253,
      "##ازم": 254,
      "برای": 255,
      "##لفل": 256,
      "فلفل": 257,
      "لازم": 258,
      "##جه": 259,
      "##غن": 260,
      "##وش": 261,
      "عدد": 262,
      "تهی": 263,
      "##تی": 264,
      "روغن": 265,
      "##نا": 266,
      "##دار": 267,
      "تهیه": 268,
      "سو": 269,
      "مق": 270,
      "##قی": 271,
      "خور": 272,
      "##فت": 273,
      "##ذا": 274,
      "##ازه": 275,
      "سوپ": 276,
      "##قه": 277,
      "پیم": 278,
      "##شد": 279,
      "##رز": 280,
      "##خوری": 281,
      "گوجه": 282,
      "پیمانه": 283,
      "##تر": 284,
      "##پس": 285,
      "##ون": 286,
      "##یده": 287,
      "بی": 288,
      "حرار": 289,
      "مرغ": 290,
      "مقدار": 291,
      "حرارت": 292,
      "سب": 293,
      "##ات": 294,
      "##یز": 295,
      "##خل": 296,
      "میریز": 297,
      "میگذار": 298,
      "سبزی": 299,
      "سپس": 300,
      "غذا": 301,
      "##ال": 302,
      "داخل": 303,
      "پخته": 304,
      "باد": 305,
      "داغ": 306,
      "شک": 307,
      "ظرف": 308,
      "کو": 309,
      "کام": 310,
      "##با": 311,
      "سرخ": 312,
      "##مر": 313,
      "##پز": 314,
      "##گر": 315,
      "##00": 316,
      "##ورت": 317,
      "دوغ": 318,
      "ارد": 319,
      "میش": 320,
      "طرز": 321,
      "##نگی": 322,
      "##اند": 323,
      "دست": 324,
      "لی": 325,
      "##تاب": 326,
      "کاملا": 327,
      "##مین": 328,
      "میریزیم": 329,
      "میگذاریم": 330,
      "تخ": 331,
      "رب": 332,
      "##رو": 333,
      "##فرنگی": 334,
      "گوجهفرنگی": 335,
      "تخم": 336,
      "دقی": 337,
      "##شته": 338,
      "سیر": 339,
      "کی": 340,
      "##دا": 341,
      "##شک": 342,
      "##ره": 343,
      "خورشید": 344,
      "##سط": 345,
      "میز": 346,
      "##اره": 347,
      "##ستم": 348,
      "شکر": 349,
      "بریز": 350,
      "کار": 351,
      "##اع": 352,
      "##نگ": 353,
      "##یس": 354,
      "سیستم": 355,
      "دقیقه": 356,
      "##رب": 357,
      "##انی": 358,
      "دار": 359,
      "مخ": 360,
      "##سته": 361,
      "باید": 362,
      "کیلو": 363,
      "بریزید": 364,
      "بپز": 365,
      "ری": 366,
      "##توان": 367,
      "##لم": 368,
      "زرد": 369,
      "میده": 370,
      "##پزی": 371,
      "باشد": 372,
      "##خته": 373,
      "اشپزی": 374,
      "اند": 375,
      "بز": 376,
      "مد": 377,
      "نع": 378,
      "میتوان": 379,
      "میشود": 380,
      "لیوان": 381,
      "نعنا": 382,
      "جو": 383,
      "شم": 384,
      "##را": 385,
      "##نده": 386,
      "##وبه": 387,
      "تم": 388,
      "ملا": 389,
      "##جان": 390,
      "##چوبه": 391,
      "##لوط": 392,
      "##اعت": 393,
      "مخلوط": 394,
      "اس": 395,
      "دی": 396,
      "کتاب": 397,
      "##ته": 398,
      "##ساز": 399,
      "##له": 400,
      "سوپخوری": 401,
      "ملایم": 402,
      "اگر": 403,
      "خلا": 404,
      "قب": 405,
      "نیم": 406,
      "##مجان": 407,
      "##امل": 408,
      "بادمجان": 409,
      "ریخته": 410,
      "فر": 411,
      "مت": 412,
      "ما": 413,
      "نخ": 414,
      "وق": 415,
      "##وز": 416,
      "اماده": 417,
      "بپزد": 418,
      "زردچوبه": 419,
      "خلال": 420,
      "بگذار": 421,
      "جوش": 422,
      "پساز": 423,
      "##سی": 424,
      "##په": 425,
      "##هید": 426,
      "##خو": 427,
      "##به": 428,
      "##عفر": 429,
      "وقتی": 430,
      "تفت": 431,
      "خیس": 432,
      "زعفر": 433,
      "##لت": 434,
      "##افی": 435,
      "##مرغ": 436,
      "تخممرغ": 437,
      "میدهیم": 438,
      "نخود": 439,
      "بگذارید": 440,
      "خم": 441,
      "لکه": 442,
      "چند": 443,
      "کا": 444,
      "##صورت": 445,
      "میب": 446,
      "بهه": 447,
      "انها": 448,
      "شدن": 449,
      "زعفران": 450,
      "خمیر": 451,
      "تو": 452,
      "جع": 453,
      "خوب": 454,
      "شو": 455,
      "لپه": 456,
      "مح": 457,
      "کره": 458,
      "##کی": 459,
      "##فری": 460,
      "##یمو": 461,
      "مربا": 462,
      "مدت": 463,
      "جعفری": 464,
      "تزی": 465,
      "زی": 466,
      "شیر": 467,
      "شرب": 468,
      "صورت": 469,
      "مای": 470,
      "پو": 471,
      "##فاده": 472,
      "##اشد": 473,
      "استفاده": 474,
      "تزیین": 475,
      "شربت": 476,
      "زمین": 477,
      "قرار": 478,
      "##سب": 479,
      "##نند": 480,
      "##صف": 481,
      "##امه": 482,
      "کردن": 483,
      "پوست": 484,
      "ال": 485,
      "تر": 486,
      "دهید": 487,
      "ست": 488,
      "ساعت": 489,
      "نش": 490,
      "نصف": 491,
      "هر": 492,
      "پر": 493,
      "چرخ": 494,
      "##وسط": 495,
      "##کو": 496,
      "##بر": 497,
      "##50": 498,
      "##رین": 499,
      "یکی": 500,
      "##وبی": 501,
      "متوسط": 502,
      "بد": 503,
      "بخ": 504,
      "جا": 505,
      "زم": 506,
      "سه": 507,
      "نیز": 508,
      "##ایی": 509,
      "برگ": 510,
      "املت": 511,
      "خورش": 512,
      "قبل": 513,
      "##خواه": 514,
      "خشک": 515,
      "دم": 516,
      "قاب": 517,
      "کافی": 518,
      "بهاند": 519,
      "انرا": 520,
      "سیب": 521,
      "بادام": 522,
      "اندازه": 523,
      "بزنید": 524,
      "میباشد": 525,
      "ستاره": 526,
      "او": 527,
      "حل": 528,
      "خود": 529,
      "رنده": 530,
      "سر": 531,
      "مع": 532,
      "هوی": 533,
      "پلو": 534,
      "##می": 535,
      "##اید": 536,
      "##شن": 537,
      "##جوش": 538,
      "##گیری": 539,
      "اینکه": 540,
      "کوکو": 541,
      "میزنیم": 542,
      "دیگر": 543,
      "هویج": 544,
      "100": 545,
      "بل": 546,
      "بود": 547,
      "ته": 548,
      "زیر": 549,
      "سا": 550,
      "سرد": 551,
      "فی": 552,
      "نو": 553,
      "کشید": 554,
      "##فز": 555,
      "بهصورت": 556,
      "میکنند": 557,
      "امد": 558,
      "دستور": 559,
      "میزان": 560,
      "ماهی": 561,
      "10": 562,
      "اج": 563,
      "خوری": 564,
      "دل": 565,
      "رنگ": 566,
      "قد": 567,
      "من": 568,
      "ور": 569,
      "##اس": 570,
      "##ایل": 571,
      "غذاخوری": 572,
      "##لمه": 573,
      "لکههای": 574,
      "بهاندازه": 575,
      "تازه": 576,
      "داده": 577,
      "لیمو": 578,
      "نب": 579,
      "وی": 580,
      "##گیر": 581,
      "##ایید": 582,
      "ابت": 583,
      "##نجان": 584,
      "مقداری": 585,
      "##مراه": 586,
      "میتوانید": 587,
      "بههمراه": 588,
      "زیاد": 589,
      "قابلمه": 590,
      "اندازهگیری": 591,
      "دلخواه": 592,
      "اد": 593,
      "ات": 594,
      "افز": 595,
      "تق": 596,
      "جدا": 597,
      "ریز": 598,
      "سف": 599,
      "شی": 600,
      "نک": 601,
      "نفر": 602,
      "هست": 603,
      "گرف": 604,
      "##دی": 605,
      "##الی": 606,
      "##نم": 607,
      "##نی": 608,
      "##وم": 609,
      "##زمین": 610,
      "##بی": 611,
      "##چی": 612,
      "میپ": 613,
      "##اری": 614,
      "##اییم": 615,
      "##ودر": 616,
      "##فته": 617,
      "بیشت": 618,
      "کوفته": 619,
      "بادمجانها": 620,
      "کاچی": 621,
      "سیبزمین": 622,
      "ماهیتاب": 623,
      "ابتدا": 624,
      "سیبزمینی": 625,
      "بک": 626,
      "رشته": 627,
      "عامل": 628,
      "لع": 629,
      "منا": 630,
      "##شان": 631,
      "##رک": 632,
      "##غز": 633,
      "##ظر": 634,
      "##این": 635,
      "روش": 636,
      "تابه": 637,
      "##ویه": 638,
      "مرغها": 639,
      "دارد": 640,
      "تمایل": 641,
      "مایه": 642,
      "ماهیتابه": 643,
      "لعاب": 644,
      "تعد": 645,
      "حد": 646,
      "خو": 647,
      "شع": 648,
      "مغز": 649,
      "پسته": 650,
      "پودر": 651,
      "چه": 652,
      "چگ": 653,
      "کف": 654,
      "##طر": 655,
      "##هایی": 656,
      "نمایید": 657,
      "مرت": 658,
      "خورشیدی": 659,
      "شما": 660,
      "شوند": 661,
      "نشود": 662,
      "بخش": 663,
      "شیرین": 664,
      "تعداد": 665,
      "شعله": 666,
      "300": 667,
      "دور": 668,
      "سین": 669,
      "عم": 670,
      "غلی": 671,
      "فنجان": 672,
      "لوبی": 673,
      "کنیم": 674,
      "کشک": 675,
      "گشن": 676,
      "##فنا": 677,
      "##عم": 678,
      "##عامل": 679,
      "##چین": 680,
      "مینم": 681,
      "##رده": 682,
      "بهتر": 683,
      "##ندوز": 684,
      "##ودی": 685,
      "انار": 686,
      "داشته": 687,
      "##شده": 688,
      "سیستمعامل": 689,
      "اسفنا": 690,
      "شوید": 691,
      "ترش": 692,
      "زمان": 693,
      "نوع": 694,
      "ویندوز": 695,
      "اتش": 696,
      "سفید": 697,
      "گرفته": 698,
      "حدود": 699,
      "غلیظ": 700,
      "گشنیز": 701,
      "اسفناج": 702,
      "200": 703,
      "ای": 704,
      "بین": 705,
      "تره": 706,
      "حب": 707,
      "خام": 708,
      "خوش": 709,
      "داد": 710,
      "زد": 711,
      "سس": 712,
      "سط": 713,
      "قو": 714,
      "قرم": 715,
      "مخت": 716,
      "نرم": 717,
      "هل": 718,
      "ولی": 719,
      "پا": 720,
      "پرد": 721,
      "پیر": 722,
      "##اي": 723,
      "##ساعت": 724,
      "##نامه": 725,
      "##ول": 726,
      "##کش": 727,
      "##کان": 728,
      "##طوری": 729,
      "میرز": 730,
      "##ستان": 731,
      "کردها": 732,
      "نمود": 733,
      "##ابی": 734,
      "##وبات": 735,
      "عدس": 736,
      "##ونگی": 737,
      "میریزند": 738,
      "کوچ": 739,
      "لیتر": 740,
      "بزر": 741,
      "نعناع": 742,
      "دیگ": 743,
      "توجه": 744,
      "کشیده": 745,
      "##اسمی": 746,
      "افزود": 747,
      "چگونگی": 748,
      "لوبیا": 749,
      "حبوبات": 750,
      "سطح": 751,
      "قوام": 752,
      "قرمز": 753,
      "میرزا": 754,
      "250": 755,
      "ایر": 756,
      "بار": 757,
      "بجوش": 758,
      "بگیر": 759,
      "جرم": 760,
      "حرک": 761,
      "سای": 762,
      "سفر": 763,
      "طل": 764,
      "طب": 765,
      "قاسمی": 766,
      "نظر": 767,
      "چای": 768,
      "کرف": 769,
      "گرد": 770,
      "گاز": 771,
      "گند": 772,
      "##تد": 773,
      "##تان": 774,
      "##اخ": 775,
      "##ونیم": 776,
      "##لیمو": 777,
      "##کس": 778,
      "##هم": 779,
      "##جی": 780,
      "##عث": 781,
      "##ژی": 782,
      "درص": 783,
      "درون": 784,
      "باعث": 785,
      "##ندر": 786,
      "برنامه": 787,
      "##ورتی": 788,
      "یکونیم": 789,
      "##اشکی": 790,
      "##گیرد": 791,
      "اموز": 792,
      "سیاه": 793,
      "##بالو": 794,
      "کاربر": 795,
      "دارچین": 796,
      "ماست": 797,
      "محلی": 798,
      "البالو": 799,
      "بدون": 800,
      "قبلاز": 801,
      "فیلم": 802,
      "قدری": 803,
      "ادویه": 804,
      "##ومه": 805,
      "بیشتر": 806,
      "مناسب": 807,
      "مینماییم": 808,
      "بجوشد": 809,
      "چایخوری": 810,
      "کرفس": 811,
      "گندم": 812,
      "##ورتیکه": 813,
      "اموزش": 814,
      "150": 815,
      "ار": 816,
      "بم": 817,
      "بن": 818,
      "حبه": 819,
      "خامه": 820,
      "زر": 821,
      "سفت": 822,
      "سرو": 823,
      "فض": 824,
      "قار": 825,
      "مث": 826,
      "نی": 827,
      "ها": 828,
      "چی": 829,
      "کن": 830,
      "کب": 831,
      "گلا": 832,
      "گذا": 833,
      "##ما": 834,
      "##تق": 835,
      "##اط": 836,
      "##اص": 837,
      "##اور": 838,
      "##اسط": 839,
      "##هان": 840,
      "##رنگ": 841,
      "##غور": 842,
      "##ظه": 843,
      "میپز": 844,
      "##انیم": 845,
      "باشید": 846,
      "برشته": 847,
      "##ادل": 848,
      "تاب": 849,
      "##افتد": 850,
      "ابکش": 851,
      "ابلیمو": 852,
      "##زیک": 853,
      "استو": 854,
      "##ابر": 855,
      "مرک": 856,
      "##ترش": 857,
      "بیاید": 858,
      "میگذارند": 859,
      "غذاهای": 860,
      "##اله": 861,
      "اندا": 862,
      "شماره": 863,
      "تمام": 864,
      "تمیز": 865,
      "لکهها": 866,
      "زمانی": 867,
      "معادل": 868,
      "بلغور": 869,
      "امدن": 870,
      "منظ": 871,
      "هستند": 872,
      "مرتب": 873,
      "سینه": 874,
      "پیراشکی": 875,
      "بزرگ": 876,
      "قارچ": 877,
      "گلاب": 878,
      "11": 879,
      "اص": 880,
      "افت": 881,
      "اطر": 882,
      "بو": 883,
      "برد": 884,
      "بست": 885,
      "بوی": 886,
      "بسته": 887,
      "زود": 888,
      "طعم": 889,
      "قط": 890,
      "قیم": 891,
      "له": 892,
      "مک": 893,
      "مید": 894,
      "نار": 895,
      "نور": 896,
      "هنگ": 897,
      "وسط": 898,
      "پن": 899,
      "چلو": 900,
      "کند": 901,
      "##مو": 902,
      "##مان": 903,
      "##تری": 904,
      "##تها": 905,
      "##تون": 906,
      "##او": 907,
      "##یری": 908,
      "##پی": 909,
      "##وه": 910,
      "##وص": 911,
      "##وند": 912,
      "##واع": 913,
      "##کم": 914,
      "##کن": 915,
      "##هد": 916,
      "##حله": 917,
      "##گرم": 918,
      "##رس": 919,
      "##رژی": 920,
      "میگ": 921,
      "##انند": 922,
      "##ارهای": 923,
      "##ایند": 924,
      "بهم": 925,
      "درست": 926,
      "##ریبا": 927,
      "##ازد": 928,
      "باق": 929,
      "انواع": 930,
      "انرژی": 931,
      "مرحله": 932,
      "همه": 933,
      "کمتر": 934,
      "##قیه": 935,
      "شکل": 936,
      "میشوی": 937,
      "سیستمهای": 938,
      "کیلوگرم": 939,
      "شمسی": 940,
      "کاس": 941,
      "بههم": 942,
      "مایع": 943,
      "الب": 944,
      "برگرد": 945,
      "حلقه": 946,
      "ساخت": 947,
      "اجازه": 948,
      "تقریبا": 949,
      "نکته": 950,
      "چهار": 951,
      "پرداز": 952,
      "کردهایم": 953,
      "کوچک": 954,
      "طلایی": 955,
      "منظومه": 956,
      "اطراف": 957,
      "هنگام": 958,
      "پنیر": 959,
      "اخ": 960,
      "الو": 961,
      "بش": 962,
      "باز": 963,
      "بسی": 964,
      "تب": 965,
      "حا": 966,
      "حاف": 967,
      "حال": 968,
      "خی": 969,
      "سن": 970,
      "سری": 971,
      "سال": 972,
      "شست": 973,
      "صبر": 974,
      "طرف": 975,
      "عو": 976,
      "قل": 977,
      "مج": 978,
      "ماه": 979,
      "ماده": 980,
      "نگ": 981,
      "نسب": 982,
      "چغ": 983,
      "چون": 984,
      "چنگ": 985,
      "چرب": 986,
      "چوبی": 987,
      "کنده": 988,
      "##در": 989,
      "##دست": 990,
      "##تز": 991,
      "##یل": 992,
      "##پر": 993,
      "##ولی": 994,
      "##شیم": 995,
      "##شند": 996,
      "##قت": 997,
      "##کا": 998,
      "##هر": 999,
      "##هها": 1000,
      "##ههای": 1001,
      "##حا": 1002,
      "##طور": 1003,
      "##گانه": 1004,
      "##رت": 1005,
      "##خی": 1006,
      "##صات": 1007,
      "##صوص": 1008,
      "##یمی": 1009,
      "میلی": 1010,
      "##انید": 1011,
      "##اریم": 1012,
      "##ایر": 1013,
      "درشت": 1014,
      "انگ": 1015,
      "##ینی": 1016,
      "##افز": 1017,
      "یکدست": 1018,
      "##هاست": 1019,
      "گوس": 1020,
      "##هایت": 1021,
      "نمی": 1022,
      "##لیل": 1023,
      "مورد": 1024,
      "##اهد": 1025,
      "بیافتد": 1026,
      "میشوند": 1027,
      "##انده": 1028,
      "جوشید": 1029,
      "قبلا": 1030,
      "زمینی": 1031,
      "اواسط": 1032,
      "ساطوری": 1033,
      "فیزیک": 1034,
      "جداگانه": 1035,
      "مختصات": 1036,
      "بگیرید": 1037,
      "حرکت": 1038,
      "بنابر": 1039,
      "زرشک": 1040,
      "کنار": 1041,
      "گذاشته": 1042,
      "##تقال": 1043,
      "زمانیکه": 1044,
      "افتاد": 1045,
      "قیمه": 1046,
      "میشوییم": 1047,
      "البته": 1048,
      "بسیار": 1049,
      "حافظه": 1050,
      "خیلی": 1051,
      "چغندر": 1052,
      "چنگال": 1053,
      "بنابراین": 1054,
      "12": 1055,
      "25": 1056,
      "500": 1057,
      "اخت": 1058,
      "بقیه": 1059,
      "تغ": 1060,
      "خط": 1061,
      "خار": 1062,
      "خرو": 1063,
      "شسته": 1064,
      "صاف": 1065,
      "صورتیکه": 1066,
      "نس": 1067,
      "ناز": 1068,
      "نبا": 1069,
      "های": 1070,
      "وز": 1071,
      "پید": 1072,
      "پای": 1073,
      "کوب": 1074,
      "گل": 1075,
      "گر": 1076,
      "##دت": 1077,
      "##اق": 1078,
      "##یط": 1079,
      "##پری": 1080,
      "##قدر": 1081,
      "##حی": 1082,
      "##گاه": 1083,
      "##جای": 1084,
      "##جود": 1085,
      "##جاد": 1086,
      "##جات": 1087,
      "##بای": 1088,
      "##بند": 1089,
      "##باره": 1090,
      "##چسب": 1091,
      "##ظت": 1092,
      "##ثر": 1093,
      "ران": 1094,
      "میگیر": 1095,
      "میاور": 1096,
      "بهخ": 1097,
      "بهطور": 1098,
      "درجه": 1099,
      "برش": 1100,
      "انقدر": 1101,
      "##وره": 1102,
      "##شتن": 1103,
      "یکساعت": 1104,
      "میکند": 1105,
      "میکنید": 1106,
      "##زیع": 1107,
      "استکان": 1108,
      "نماي": 1109,
      "دوم": 1110,
      "دوباره": 1111,
      "مربای": 1112,
      "کمکم": 1113,
      "پیتز": 1114,
      "##غناط": 1115,
      "##ناسی": 1116,
      "##قیق": 1117,
      "##فتد": 1118,
      "گوجهها": 1119,
      "بیفتد": 1120,
      "سبزیجات": 1121,
      "ظرفی": 1122,
      "اردبی": 1123,
      "مخصوص": 1124,
      "بپزند": 1125,
      "زرده": 1126,
      "میدهند": 1127,
      "مدیری": 1128,
      "نیمی": 1129,
      "##خورد": 1130,
      "نخودها": 1131,
      "توزیع": 1132,
      "محیط": 1133,
      "نشان": 1134,
      "پرتقال": 1135,
      "بخار": 1136,
      "دمای": 1137,
      "ستارهها": 1138,
      "سرع": 1139,
      "ورقه": 1140,
      "ورودی": 1141,
      "لیموترش": 1142,
      "میپاش": 1143,
      "بکشید": 1144,
      "بکشد": 1145,
      "خواهد": 1146,
      "ایجاد": 1147,
      "خوشرنگ": 1148,
      "زدن": 1149,
      "پاک": 1150,
      "افزوده": 1151,
      "ایران": 1152,
      "طبخ": 1153,
      "درصد": 1154,
      "ارام": 1155,
      "بماند": 1156,
      "فضا": 1157,
      "مثل": 1158,
      "مرکز": 1159,
      "انداخت": 1160,
      "سریع": 1161,
      "شستن": 1162,
      "انگشت": 1163,
      "تغی": 1164,
      "خروجی": 1165,
      "نباید": 1166,
      "پیدا": 1167,
      "##چسبد": 1168,
      "میاوریم": 1169,
      "##غناطیس": 1170,
      "مدیریت": 1171,
      "اه": 1172,
      "اید": 1173,
      "بشک": 1174,
      "ببر": 1175,
      "بطوری": 1176,
      "بخورد": 1177,
      "تن": 1178,
      "تل": 1179,
      "تیر": 1180,
      "تاری": 1181,
      "جهان": 1182,
      "حت": 1183,
      "حین": 1184,
      "حلو": 1185,
      "حدا": 1186,
      "دیس": 1187,
      "دلیل": 1188,
      "رد": 1189,
      "رص": 1190,
      "رقیق": 1191,
      "زا": 1192,
      "سخت": 1193,
      "ساده": 1194,
      "شل": 1195,
      "صافی": 1196,
      "طی": 1197,
      "طول": 1198,
      "غل": 1199,
      "غذ": 1200,
      "فع": 1201,
      "فرو": 1202,
      "لای": 1203,
      "لین": 1204,
      "مم": 1205,
      "مس": 1206,
      "مش": 1207,
      "مغناطیس": 1208,
      "ند": 1209,
      "نه": 1210,
      "نذ": 1211,
      "نگیرد": 1212,
      "نهایت": 1213,
      "هید": 1214,
      "وب": 1215,
      "وجود": 1216,
      "پاید": 1217,
      "کلم": 1218,
      "یخ": 1219,
      "##مید": 1220,
      "##دان": 1221,
      "##تا": 1222,
      "##ترین": 1223,
      "##سم": 1224,
      "##سیم": 1225,
      "##نان": 1226,
      "##نوز": 1227,
      "##یچ": 1228,
      "##یانه": 1229,
      "##پوش": 1230,
      "##وا": 1231,
      "##وتر": 1232,
      "##وکس": 1233,
      "##شم": 1234,
      "##شناسی": 1235,
      "##قع": 1236,
      "##کار": 1237,
      "##حال": 1238,
      "##جام": 1239,
      "##راه": 1240,
      "##زو": 1241,
      "##خش": 1242,
      "##بولی": 1243,
      "##ضی": 1244,
      "##چه": 1245,
      "##ژن": 1246,
      "رایانه": 1247,
      "میافز": 1248,
      "##ارن": 1249,
      "##ارات": 1250,
      "##ایست": 1251,
      "بهد": 1252,
      "##ازی": 1253,
      "##ازهی": 1254,
      "باقی": 1255,
      "برمید": 1256,
      "انکه": 1257,
      "انجام": 1258,
      "ابش": 1259,
      "میکشیم": 1260,
      "کردید": 1261,
      "##زیکی": 1262,
      "استان": 1263,
      "داشت": 1264,
      "همان": 1265,
      "همجوش": 1266,
      "همراه": 1267,
      "موقع": 1268,
      "سیاره": 1269,
      "کامپی": 1270,
      "دستگاه": 1271,
      "##روژن": 1272,
      "دقیق": 1273,
      "دارید": 1274,
      "دارند": 1275,
      "ریش": 1276,
      "میتواند": 1277,
      "میتوانیم": 1278,
      "نیمساعت": 1279,
      "فرایند": 1280,
      "مرباخوری": 1281,
      "زیتون": 1282,
      "خودش": 1283,
      "معمو": 1284,
      "بلکه": 1285,
      "بودن": 1286,
      "زیرا": 1287,
      "کشیدگی": 1288,
      "اجر": 1289,
      "نبرد": 1290,
      "نبات": 1291,
      "نباشد": 1292,
      "زیادی": 1293,
      "ادامه": 1294,
      "تقسیم": 1295,
      "ریزه": 1296,
      "نکات": 1297,
      "میپوش": 1298,
      "کوفتهها": 1299,
      "مناط": 1300,
      "دوره": 1301,
      "عمانی": 1302,
      "زده": 1303,
      "مختلف": 1304,
      "پاپری": 1305,
      "دیگری": 1306,
      "ایرانی": 1307,
      "سایت": 1308,
      "گردو": 1309,
      "درصورتیکه": 1310,
      "کبابی": 1311,
      "میپزیم": 1312,
      "میپزند": 1313,
      "تابش": 1314,
      "استوای": 1315,
      "بوته": 1316,
      "بویون": 1317,
      "قطع": 1318,
      "کاسه": 1319,
      "ساختار": 1320,
      "پردازش": 1321,
      "اخر": 1322,
      "سنتی": 1323,
      "عوض": 1324,
      "نگینی": 1325,
      "گوساله": 1326,
      "خارج": 1327,
      "نازک": 1328,
      "میگیریم": 1329,
      "نمايیم": 1330,
      "پیتزا": 1331,
      "اردبیل": 1332,
      "تغییر": 1333,
      "اهسته": 1334,
      "تیره": 1335,
      "حتما": 1336,
      "فعالی": 1337,
      "لینوکس": 1338,
      "ممکن": 1339,
      "نذری": 1340,
      "هیدروژن": 1341,
      "میافزاییم": 1342,
      "برمیداریم": 1343,
      "همجوشی": 1344,
      "کامپیوتر": 1345,
      "معمولا": 1346,
      "پاپریکا": 1347,
      "15": 1348,
      "13": 1349,
      "50": 1350,
      "750": 1351,
      "اغ": 1352,
      "الی": 1353,
      "اوی": 1354,
      "بع": 1355,
      "بیر": 1356,
      "بصورت": 1357,
      "بایست": 1358,
      "تک": 1359,
      "تح": 1360,
      "تز": 1361,
      "تند": 1362,
      "جد": 1363,
      "جوی": 1364,
      "حض": 1365,
      "خالی": 1366,
      "خاص": 1367,
      "ده": 1368,
      "دیر": 1369,
      "دانه": 1370,
      "دیده": 1371,
      "دودی": 1372,
      "دایر": 1373,
      "زح": 1374,
      "سح": 1375,
      "سان": 1376,
      "سور": 1377,
      "سما": 1378,
      "شب": 1379,
      "شامل": 1380,
      "شاخ": 1381,
      "شهر": 1382,
      "طرا": 1383,
      "عس": 1384,
      "عر": 1385,
      "غیر": 1386,
      "غرب": 1387,
      "فو": 1388,
      "فل": 1389,
      "فق": 1390,
      "قا": 1391,
      "قمر": 1392,
      "قلم": 1393,
      "قسم": 1394,
      "قزو": 1395,
      "مط": 1396,
      "مص": 1397,
      "مری": 1398,
      "ماز": 1399,
      "مانند": 1400,
      "نشده": 1401,
      "هسته": 1402,
      "هنوز": 1403,
      "پنج": 1404,
      "پرو": 1405,
      "پوره": 1406,
      "پخش": 1407,
      "چشم": 1408,
      "کد": 1409,
      "کل": 1410,
      "کاه": 1411,
      "گلو": 1412,
      "گرو": 1413,
      "گاو": 1414,
      "##تن": 1415,
      "##تبه": 1416,
      "##است": 1417,
      "##اهی": 1418,
      "##اوی": 1419,
      "##یی": 1420,
      "##یاب": 1421,
      "##یکه": 1422,
      "##پلو": 1423,
      "##وس": 1424,
      "##شاز": 1425,
      "##لام": 1426,
      "##قلی": 1427,
      "##کتر": 1428,
      "##کلت": 1429,
      "##کرده": 1430,
      "##کثر": 1431,
      "##هاد": 1432,
      "##حت": 1433,
      "##طلا": 1434,
      "##ران": 1435,
      "##رسی": 1436,
      "##فاو": 1437,
      "##زه": 1438,
      "##زمان": 1439,
      "##خص": 1440,
      "##خور": 1441,
      "##خیر": 1442,
      "##خوان": 1443,
      "##بار": 1444,
      "##بلی": 1445,
      "##ضر": 1446,
      "##صر": 1447,
      "##يین": 1448,
      "##ژگی": 1449,
      "##یدن": 1450,
      "##یمای": 1451,
      "راست": 1452,
      "راحت": 1453,
      "میان": 1454,
      "میتر": 1455,
      "میخواه": 1456,
      "میجوش": 1457,
      "میگیرد": 1458,
      "میرس": 1459,
      "میچسبد": 1460,
      "##ارد": 1461,
      "##ارید": 1462,
      "##ردن": 1463,
      "بهن": 1464,
      "بهتری": 1465,
      "بهجای": 1466,
      "دراین": 1467,
      "درپوش": 1468,
      "باهم": 1469,
      "باشند": 1470,
      "##ندی": 1471,
      "##ندگی": 1472,
      "##ندازد": 1473,
      "بره": 1474,
      "بریده": 1475,
      "برخی": 1476,
      "انت": 1477,
      "انتی": 1478,
      "انتها": 1479,
      "##ینگ": 1480,
      "##هاید": 1481,
      "شدند": 1482,
      "کردستان": 1483,
      "##لاگ": 1484,
      "استخوان": 1485,
      "دوست": 1486,
      "##ابه": 1487,
      "همدان": 1488,
      "همزمان": 1489,
      "پختن": 1490,
      "##لیات": 1491,
      "موج": 1492,
      "پیشن": 1493,
      "امنی": 1494,
      "امکان": 1495,
      "##رفی": 1496,
      "##ویید": 1497,
      "##ویند": 1498,
      "##اهم": 1499,
      "سیخ": 1500,
      "سیارات": 1501,
      "برایاین": 1502,
      "تهیهی": 1503,
      "بیفز": 1504,
      "بیندازد": 1505,
      "##الم": 1506,
      "شکسته": 1507,
      "دسته": 1508,
      "دستهای": 1509,
      "##روف": 1510,
      "کیهان": 1511,
      "کارد": 1512,
      "کارب": 1513,
      "دارای": 1514,
      "##راک": 1515,
      "اسم": 1516,
      "اساس": 1517,
      "اسمان": 1518,
      "اسلام": 1519,
      "اسکلت": 1520,
      "##سازی": 1521,
      "فرنی": 1522,
      "فراهم": 1523,
      "متفاو": 1524,
      "وقتیکه": 1525,
      "##افیکی": 1526,
      "چندین": 1527,
      "بههمین": 1528,
      "خمیرترش": 1529,
      "توسط": 1530,
      "##کیب": 1531,
      "ترکیب": 1532,
      "پرک": 1533,
      "چرخکرده": 1534,
      "بدهید": 1535,
      "قابل": 1536,
      "بهاندازهی": 1537,
      "اول": 1538,
      "اواخ": 1539,
      "سرکه": 1540,
      "نوشت": 1541,
      "اجاق": 1542,
      "قدرت": 1543,
      "نبود": 1544,
      "ویژگی": 1545,
      "افزار": 1546,
      "هستهای": 1547,
      "##دیل": 1548,
      "میپیچ": 1549,
      "بیشتری": 1550,
      "رشتهها": 1551,
      "خورده": 1552,
      "شیرینپلو": 1553,
      "سینی": 1554,
      "عمل": 1555,
      "خامی": 1556,
      "خاموش": 1557,
      "دادن": 1558,
      "هلیم": 1559,
      "پردازه": 1560,
      "نمودار": 1561,
      "افزودن": 1562,
      "حرکات": 1563,
      "ساییده": 1564,
      "سفرهی": 1565,
      "مناسبی": 1566,
      "بمدت": 1567,
      "مثلا": 1568,
      "نیست": 1569,
      "چیپس": 1570,
      "کباب": 1571,
      "استوایی": 1572,
      "مرکزی": 1573,
      "انداخته": 1574,
      "اصیل": 1575,
      "بردارید": 1576,
      "زودتر": 1577,
      "نارنج": 1578,
      "میگرد": 1579,
      "میگویند": 1580,
      "باقیم": 1581,
      "برگردانید": 1582,
      "ساختارهای": 1583,
      "پردازنده": 1584,
      "هنگامیکه": 1585,
      "بشویید": 1586,
      "تبخیر": 1587,
      "تبدیل": 1588,
      "حالا": 1589,
      "قلقلی": 1590,
      "جوشیده": 1591,
      "زمینیها": 1592,
      "افتادن": 1593,
      "وزن": 1594,
      "پایان": 1595,
      "گرافیکی": 1596,
      "بهخوبی": 1597,
      "سرعت": 1598,
      "میپاشیم": 1599,
      "انداختن": 1600,
      "بشکنید": 1601,
      "بطوریکه": 1602,
      "تلخی": 1603,
      "حداکثر": 1604,
      "رصد": 1605,
      "زاویه": 1606,
      "غلظت": 1607,
      "غذای": 1608,
      "مغناطیسی": 1609,
      "وبلاگ": 1610,
      "پایداری": 1611,
      "میپوشانیم": 1612,
      "مناطق": 1613,
      "اویشن": 1614,
      "بعضی": 1615,
      "بیرون": 1616,
      "تزيین": 1617,
      "حضرت": 1618,
      "زحل": 1619,
      "سحابی": 1620,
      "سوراخ": 1621,
      "سماوی": 1622,
      "طراحی": 1623,
      "عسلی": 1624,
      "عرض": 1625,
      "قاچ": 1626,
      "قمرهای": 1627,
      "قزوین": 1628,
      "مازندر": 1629,
      "پرونده": 1630,
      "گلوله": 1631,
      "میترا": 1632,
      "میخواهید": 1633,
      "دراینصورت": 1634,
      "پیشنهاد": 1635,
      "برایاینکه": 1636,
      "بیفزایید": 1637,
      "کیهانشناسی": 1638,
      "اسلامبولی": 1639,
      "متفاوتی": 1640,
      "اواخر": 1641,
      "میپیچیم": 1642,
      "20": 1643,
      "21": 1644,
      "400": 1645,
      "mi": 1646,
      "اط": 1647,
      "اذ": 1648,
      "اور": 1649,
      "اشت": 1650,
      "اهد": 1651,
      "اپر": 1652,
      "اثر": 1653,
      "بذار": 1654,
      "بتوان": 1655,
      "بخواه": 1656,
      "بگیرد": 1657,
      "ببند": 1658,
      "تس": 1659,
      "توی": 1660,
      "توان": 1661,
      "ترخ": 1662,
      "تمر": 1663,
      "ثاب": 1664,
      "ثانی": 1665,
      "جم": 1666,
      "جن": 1667,
      "جذ": 1668,
      "جان": 1669,
      "جری": 1670,
      "جلو": 1671,
      "جوان": 1672,
      "حس": 1673,
      "حفر": 1674,
      "حتی": 1675,
      "خن": 1676,
      "خیر": 1677,
      "دقت": 1678,
      "ذغ": 1679,
      "ذاي": 1680,
      "رس": 1681,
      "ردی": 1682,
      "رقیه": 1683,
      "زه": 1684,
      "زنجان": 1685,
      "زاي": 1686,
      "سازم": 1687,
      "شش": 1688,
      "شام": 1689,
      "شرو": 1690,
      "شرک": 1691,
      "شیمی": 1692,
      "ضل": 1693,
      "ضرب": 1694,
      "طوری": 1695,
      "عط": 1696,
      "عمر": 1697,
      "عرو": 1698,
      "عصر": 1699,
      "فری": 1700,
      "فور": 1701,
      "فارن": 1702,
      "قان": 1703,
      "قوی": 1704,
      "لح": 1705,
      "مه": 1706,
      "مب": 1707,
      "مست": 1708,
      "مشت": 1709,
      "موب": 1710,
      "ماند": 1711,
      "مسی": 1712,
      "مهم": 1713,
      "مزه": 1714,
      "نج": 1715,
      "نز": 1716,
      "نظ": 1717,
      "نان": 1718,
      "نیر": 1719,
      "نوب": 1720,
      "نریز": 1721,
      "نوی": 1722,
      "ندار": 1723,
      "نشد": 1724,
      "نهایی": 1725,
      "نچسبد": 1726,
      "هفت": 1727,
      "هندی": 1728,
      "وا": 1729,
      "ول": 1730,
      "ورز": 1731,
      "ونم": 1732,
      "واسط": 1733,
      "پس": 1734,
      "په": 1735,
      "پشت": 1736,
      "چک": 1737,
      "چیده": 1738,
      "چرا": 1739,
      "چنان": 1740,
      "کرم": 1741,
      "کلو": 1742,
      "کلف": 1743,
      "کنند": 1744,
      "گذ": 1745,
      "گاه": 1746,
      "گودی": 1747,
      "گیل": 1748,
      "گاهی": 1749,
      "یاد": 1750,
      "##مه": 1751,
      "##مز": 1752,
      "##مدی": 1753,
      "##ده": 1754,
      "##ددا": 1755,
      "##دیمی": 1756,
      "##تهای": 1757,
      "##تظر": 1758,
      "##الا": 1759,
      "##اطر": 1760,
      "##استان": 1761,
      "##سر": 1762,
      "##سان": 1763,
      "##سوی": 1764,
      "##نایی": 1765,
      "##یت": 1766,
      "##یار": 1767,
      "##پودر": 1768,
      "##پیمای": 1769,
      "##وط": 1770,
      "##وع": 1771,
      "##وشت": 1772,
      "##واره": 1773,
      "##شی": 1774,
      "##شود": 1775,
      "##لید": 1776,
      "##لیم": 1777,
      "##لای": 1778,
      "##للی": 1779,
      "##قب": 1780,
      "##کرو": 1781,
      "##کشان": 1782,
      "##کینگ": 1783,
      "##هانی": 1784,
      "##طقه": 1785,
      "##گز": 1786,
      "##گرد": 1787,
      "##جا": 1788,
      "##ریم": 1789,
      "##روی": 1790,
      "##رات": 1791,
      "##فق": 1792,
      "##فند": 1793,
      "##خاب": 1794,
      "##خانه": 1795,
      "##بان": 1796,
      "##عا": 1797,
      "##عین": 1798,
      "##عبی": 1799,
      "##صومه": 1800,
      "##غذ": 1801,
      "##tu": 1802,
      "##ed": 1803,
      "##يیده": 1804,
      "##ثیر": 1805,
      "میل": 1806,
      "میشد": 1807,
      "میاید": 1808,
      "میافتد": 1809,
      "میوه": 1810,
      "میایند": 1811,
      "میخور": 1812,
      "مینایی": 1813,
      "##انهی": 1814,
      "##انوس": 1815,
      "##انسوی": 1816,
      "##ارش": 1817,
      "##ارام": 1818,
      "##ردازد": 1819,
      "##ایش": 1820,
      "##اییر": 1821,
      "##ایجان": 1822,
      "##ستانی": 1823,
      "بهع": 1824,
      "بهترین": 1825,
      "درخ": 1826,
      "درب": 1827,
      "درعین": 1828,
      "##ریش": 1829,
      "##ریف": 1830,
      "بالا": 1831,
      "##ندیم": 1832,
      "برود": 1833,
      "برابر": 1834,
      "بررسی": 1835,
      "##ادی": 1836,
      "##ادف": 1837,
      "##ادگی": 1838,
      "روز": 1839,
      "تاج": 1840,
      "تاثیر": 1841,
      "##افظت": 1842,
      "یکسان": 1843,
      "ابی": 1844,
      "ابجوش": 1845,
      "##ختی": 1846,
      "##هایم": 1847,
      "شدت": 1848,
      "کردیم": 1849,
      "کهکش": 1850,
      "کهکشان": 1851,
      "##ابق": 1852,
      "##ابله": 1853,
      "همچ": 1854,
      "همین": 1855,
      "همرف": 1856,
      "هماه": 1857,
      "همانند": 1858,
      "کمک": 1859,
      "##گیل": 1860,
      "پختند": 1861,
      "##لیه": 1862,
      "##عدد": 1863,
      "اما": 1864,
      "پیازها": 1865,
      "پیازدا": 1866,
      "پیازچه": 1867,
      "بعداز": 1868,
      "##وانی": 1869,
      "خردشده": 1870,
      "##رخشد": 1871,
      "##داری": 1872,
      "مقاله": 1873,
      "مقارن": 1874,
      "مقابله": 1875,
      "بیاد": 1876,
      "بیاند": 1877,
      "بیبی": 1878,
      "بیاور": 1879,
      "بیشاز": 1880,
      "بیکینگ": 1881,
      "##اتور": 1882,
      "سبزیها": 1883,
      "##الب": 1884,
      "بادنجان": 1885,
      "کوهی": 1886,
      "سرخشده": 1887,
      "اردستانی": 1888,
      "##اندن": 1889,
      "##اندهی": 1890,
      "##اندهاید": 1891,
      "دسترس": 1892,
      "##مینان": 1893,
      "ربع": 1894,
      "کیهانی": 1895,
      "میزنند": 1896,
      "بریزیم": 1897,
      "کارت": 1898,
      "کاری": 1899,
      "کارتها": 1900,
      "##ربایجان": 1901,
      "##انیک": 1902,
      "ریخت": 1903,
      "##لمهای": 1904,
      "میدهد": 1905,
      "اندکی": 1906,
      "بزند": 1907,
      "بزنیم": 1908,
      "شمالی": 1909,
      "شمارش": 1910,
      "اسان": 1911,
      "قبولی": 1912,
      "فرانسوی": 1913,
      "##وزد": 1914,
      "##پهر": 1915,
      "خیساندهاید": 1916,
      "کاغذ": 1917,
      "میبریم": 1918,
      "میبندیم": 1919,
      "تولید": 1920,
      "لپهها": 1921,
      "محل": 1922,
      "محکم": 1923,
      "محمدی": 1924,
      "محافظت": 1925,
      "شیراز": 1926,
      "شیرازی": 1927,
      "مایکرو": 1928,
      "زمینه": 1929,
      "پوستش": 1930,
      "الکتر": 1931,
      "ترجی": 1932,
      "ستارهای": 1933,
      "هرگز": 1934,
      "بدست": 1935,
      "بدهد": 1936,
      "بدقت": 1937,
      "اورده": 1938,
      "خودشان": 1939,
      "معروف": 1940,
      "معصومه": 1941,
      "پلویی": 1942,
      "بلبلی": 1943,
      "بوده": 1944,
      "بودید": 1945,
      "تهران": 1946,
      "سايیده": 1947,
      "سردست": 1948,
      "فیزیکی": 1949,
      "کشیدن": 1950,
      "امده": 1951,
      "امدهاست": 1952,
      "اجرا": 1953,
      "رنگش": 1954,
      "قدیمی": 1955,
      "منتظر": 1956,
      "منطقه": 1957,
      "لیموعم": 1958,
      "اتم": 1959,
      "تقدیمی": 1960,
      "سفیده": 1961,
      "نکنید": 1962,
      "گرفت": 1963,
      "##دیگ": 1964,
      "میپردازد": 1965,
      "بیشترین": 1966,
      "عاملها": 1967,
      "خوردن": 1968,
      "چگالی": 1969,
      "مرتبا": 1970,
      "مرتبه": 1971,
      "بخشی": 1972,
      "بخشهای": 1973,
      "شیرینی": 1974,
      "دورههای": 1975,
      "عملیات": 1976,
      "مینمود": 1977,
      "سیستمعاملهای": 1978,
      "نوعی": 1979,
      "بینالم": 1980,
      "خوشمز": 1981,
      "کردهاید": 1982,
      "نموده": 1983,
      "کوچکی": 1984,
      "بزرگی": 1985,
      "بگیرند": 1986,
      "سفره": 1987,
      "سفرهها": 1988,
      "سفرههای": 1989,
      "طلاییر": 1990,
      "طبقه": 1991,
      "گازی": 1992,
      "##کسپی": 1993,
      "برنامهها": 1994,
      "کاربران": 1995,
      "زرچوبه": 1996,
      "فضایی": 1997,
      "نیو": 1998,
      "نیاز": 1999,
      "چیتی": 2000,
      "گذاشتن": 2001,
      "##اصل": 2002,
      "تابستان": 2003,
      "اصلی": 2004,
      "اصطلا": 2005,
      "بردا": 2006,
      "زودپز": 2007,
      "مکزیکی": 2008,
      "مکعبی": 2009,
      "مکانیک": 2010,
      "میدان": 2011,
      "میداریم": 2012,
      "میدرخشد": 2013,
      "نارگیل": 2014,
      "##موعا": 2015,
      "باقالا": 2016,
      "همهجای": 2017,
      "برگردانده": 2018,
      "برگرداندن": 2019,
      "حلقههای": 2020,
      "چهارم": 2021,
      "بشق": 2022,
      "حاضر": 2023,
      "سالهای": 2024,
      "عوامل": 2025,
      "مجددا": 2026,
      "مجموعا": 2027,
      "ماهگی": 2028,
      "نگه": 2029,
      "نسبتا": 2030,
      "نسبتبه": 2031,
      "نسبیت": 2032,
      "چربی": 2033,
      "گوسفند": 2034,
      "نمیک": 2035,
      "نمیشود": 2036,
      "جوشیدن": 2037,
      "زمینیهای": 2038,
      "اخترفی": 2039,
      "خطوط": 2040,
      "نسل": 2041,
      "نسخ": 2042,
      "پایین": 2043,
      "کوبیده": 2044,
      "گلپر": 2045,
      "بهخاطر": 2046,
      "سرعین": 2047,
      "میپاشند": 2048,
      "پاکت": 2049,
      "ارامارام": 2050,
      "فضاپیمای": 2051,
      "ببرید": 2052,
      "ببریم": 2053,
      "تنوع": 2054,
      "تاریک": 2055,
      "تاریخ": 2056,
      "حلوا": 2057,
      "مشخص": 2058,
      "ندهید": 2059,
      "بهدقت": 2060,
      "بهدلیل": 2061,
      "ریشریش": 2062,
      "اجرای": 2063,
      "اجرام": 2064,
      "مختلفی": 2065,
      "قطعه": 2066,
      "قطعات": 2067,
      "تغییرات": 2068,
      "فعالیتی": 2069,
      "کامپیوترهای": 2070,
      "اغاز": 2071,
      "بایستی": 2072,
      "تکرار": 2073,
      "تحول": 2074,
      "دیرپز": 2075,
      "دایرهای": 2076,
      "سانتی": 2077,
      "شاخه": 2078,
      "غربی": 2079,
      "فوق": 2080,
      "فلان": 2081,
      "فقط": 2082,
      "قسمت": 2083,
      "مطابق": 2084,
      "مصرف": 2085,
      "مریخ": 2086,
      "کدام": 2087,
      "کاهو": 2088,
      "میجوشانیم": 2089,
      "میرسد": 2090,
      "بهنظر": 2091,
      "انتخاب": 2092,
      "امنیت": 2093,
      "اسمانی": 2094,
      "نوشتاری": 2095,
      "پردازهها": 2096,
      "باقیمانده": 2097,
      "رصدهای": 2098,
      "عرضهای": 2099,
      "مازندران": 2100,
      "210": 2101,
      "min": 2102,
      "اطمینان": 2103,
      "اذربایجان": 2104,
      "اشتراک": 2105,
      "اهداف": 2106,
      "اپراتور": 2107,
      "بذارید": 2108,
      "بخواهیم": 2109,
      "تساوی": 2110,
      "توانید": 2111,
      "ثابت": 2112,
      "ثانیه": 2113,
      "جمع": 2114,
      "جریان": 2115,
      "خنک": 2116,
      "ذغال": 2117,
      "ذايقه": 2118,
      "ردیف": 2119,
      "زهره": 2120,
      "زايو": 2121,
      "شروع": 2122,
      "شیمیایی": 2123,
      "ضلع": 2124,
      "فارنهایت": 2125,
      "قانون": 2126,
      "لحظه": 2127,
      "مشتری": 2128,
      "موبایل": 2129,
      "نجف": 2130,
      "نوبت": 2131,
      "نریزید": 2132,
      "نویس": 2133,
      "ونمک": 2134,
      "پهن": 2135,
      "چکیده": 2136,
      "چراغ": 2137,
      "کلوین": 2138,
      "گیلان": 2139,
      "یادتان": 2140,
      "میخورند": 2141,
      "درعینحال": 2142,
      "کهکشانی": 2143,
      "هماهنگی": 2144,
      "پیازداغ": 2145,
      "مقارنه": 2146,
      "بیاندازد": 2147,
      "بیاورید": 2148,
      "بیکینگپودر": 2149,
      "ترجیحا": 2150,
      "لیموعمانی": 2151,
      "بینالمللی": 2152,
      "طلاییرنگ": 2153,
      "اصطلاحا": 2154,
      "اخترفیزیک": 2155,
      "16": 2156,
      "14": 2157,
      "28": 2158,
      "350": 2159,
      "75": 2160,
      "700": 2161,
      "cp": 2162,
      "hr": 2163,
      "me": 2164,
      "no": 2165,
      "pi": 2166,
      "ro": 2167,
      "stu": 2168,
      "wi": 2169,
      "yo": 2170,
      "اپ": 2171,
      "اق": 2172,
      "اح": 2173,
      "اف": 2174,
      "اتی": 2175,
      "اقی": 2176,
      "ارو": 2177,
      "اله": 2178,
      "اصف": 2179,
      "اکا": 2180,
      "اکسپی": 2181,
      "بپ": 2182,
      "بب": 2183,
      "بید": 2184,
      "بان": 2185,
      "بری": 2186,
      "بنا": 2187,
      "برده": 2188,
      "بپوش": 2189,
      "بختی": 2190,
      "تش": 2191,
      "تع": 2192,
      "تص": 2193,
      "ترم": 2194,
      "تکه": 2195,
      "تلف": 2196,
      "تدا": 2197,
      "تشک": 2198,
      "تخته": 2199,
      "ثب": 2200,
      "ثان": 2201,
      "جس": 2202,
      "جل": 2203,
      "جه": 2204,
      "جز": 2205,
      "جای": 2206,
      "جسم": 2207,
      "جزو": 2208,
      "جابه": 2209,
      "جالب": 2210,
      "حی": 2211,
      "حذ": 2212,
      "حور": 2213,
      "حدی": 2214,
      "حوص": 2215,
      "حاصل": 2216,
      "خون": 2217,
      "خانهی": 2218,
      "دق": 2219,
      "دچ": 2220,
      "دای": 2221,
      "دشت": 2222,
      "دام": 2223,
      "داش": 2224,
      "دلمه": 2225,
      "دهم": 2226,
      "دهد": 2227,
      "دسر": 2228,
      "دلمهای": 2229,
      "ذک": 2230,
      "ذوب": 2231,
      "ذرات": 2232,
      "رم": 2233,
      "رق": 2234,
      "رض": 2235,
      "رود": 2236,
      "ریس": 2237,
      "زند": 2238,
      "زنید": 2239,
      "زنیم": 2240,
      "زنج": 2241,
      "زنان": 2242,
      "زندگی": 2243,
      "سم": 2244,
      "سیم": 2245,
      "سلی": 2246,
      "سرز": 2247,
      "سات": 2248,
      "سسی": 2249,
      "سپری": 2250,
      "سیمای": 2251,
      "سادگی": 2252,
      "سپهر": 2253,
      "شن": 2254,
      "شه": 2255,
      "شي": 2256,
      "شور": 2257,
      "شنا": 2258,
      "شات": 2259,
      "شتاب": 2260,
      "شله": 2261,
      "شاید": 2262,
      "شبی": 2263,
      "شهد": 2264,
      "شناسی": 2265,
      "ششم": 2266,
      "شخص": 2267,
      "شفق": 2268,
      "شادی": 2269,
      "صف": 2270,
      "صب": 2271,
      "صرف": 2272,
      "صال": 2273,
      "صدا": 2274,
      "ضر": 2275,
      "ضخ": 2276,
      "طری": 2277,
      "طلا": 2278,
      "طاه": 2279,
      "ظروف": 2280,
      "عش": 2281,
      "عام": 2282,
      "عنا": 2283,
      "عمی": 2284,
      "عطر": 2285,
      "عکس": 2286,
      "عبار": 2287,
      "عقب": 2288,
      "غنی": 2289,
      "غالب": 2290,
      "فت": 2291,
      "فش": 2292,
      "فه": 2293,
      "فص": 2294,
      "فار": 2295,
      "فرد": 2296,
      "فاز": 2297,
      "فند": 2298,
      "فام": 2299,
      "فرم": 2300,
      "فریز": 2301,
      "فوی": 2302,
      "فال": 2303,
      "فرا": 2304,
      "فنی": 2305,
      "فهم": 2306,
      "فاص": 2307,
      "فهر": 2308,
      "فتا": 2309,
      "قه": 2310,
      "قر": 2311,
      "قوان": 2312,
      "قرین": 2313,
      "قطر": 2314,
      "لذ": 2315,
      "لب": 2316,
      "لخته": 2317,
      "لابه": 2318,
      "میم": 2319,
      "مان": 2320,
      "ماد": 2321,
      "ماب": 2322,
      "ملی": 2323,
      "مدا": 2324,
      "مسط": 2325,
      "مانی": 2326,
      "مطر": 2327,
      "مکان": 2328,
      "نپ": 2329,
      "نق": 2330,
      "نای": 2331,
      "نام": 2332,
      "ناب": 2333,
      "نوش": 2334,
      "ندا": 2335,
      "نبر": 2336,
      "ناس": 2337,
      "هد": 2338,
      "هری": 2339,
      "هشت": 2340,
      "هاب": 2341,
      "هلی": 2342,
      "هرب": 2343,
      "هایی": 2344,
      "هیچ": 2345,
      "هوا": 2346,
      "هدیگ": 2347,
      "وس": 2348,
      "ون": 2349,
      "وف": 2350,
      "وض": 2351,
      "وید": 2352,
      "وام": 2353,
      "واب": 2354,
      "وعد": 2355,
      "وگر": 2356,
      "ورو": 2357,
      "وهم": 2358,
      "ومو": 2359,
      "وپی": 2360,
      "واق": 2361,
      "وارد": 2362,
      "پف": 2363,
      "پز": 2364,
      "پان": 2365,
      "پست": 2366,
      "پری": 2367,
      "پاش": 2368,
      "پوش": 2369,
      "پون": 2370,
      "پالم": 2371,
      "پراک": 2372,
      "چا": 2373,
      "چپ": 2374,
      "چاش": 2375,
      "چوب": 2376,
      "چانه": 2377,
      "چیز": 2378,
      "چوبه": 2379,
      "چسب": 2380,
      "ژی": 2381,
      "ژول": 2382,
      "کت": 2383,
      "کپ": 2384,
      "کش": 2385,
      "کج": 2386,
      "کود": 2387,
      "کاد": 2388,
      "کلا": 2389,
      "کنج": 2390,
      "کوان": 2391,
      "کال": 2392,
      "کشته": 2393,
      "کته": 2394,
      "کوره": 2395,
      "کلیات": 2396,
      "کلیه": 2397,
      "گی": 2398,
      "گام": 2399,
      "گیر": 2400,
      "گلی": 2401,
      "گذار": 2402,
      "گالی": 2403,
      "گیری": 2404,
      "ید": 2405,
      "یو": 2406,
      "یق": 2407,
      "یه": 2408,
      "یز": 2409,
      "یع": 2410,
      "یار": 2411,
      "یاف": 2412,
      "یوز": 2413,
      "##من": 2414,
      "##مي": 2415,
      "##مایل": 2416,
      "##دن": 2417,
      "##دای": 2418,
      "##دهی": 2419,
      "##دگی": 2420,
      "##درخ": 2421,
      "##دهید": 2422,
      "##دمه": 2423,
      "##تم": 2424,
      "##تح": 2425,
      "##تف": 2426,
      "##تند": 2427,
      "##تهی": 2428,
      "##تکه": 2429,
      "##تاه": 2430,
      "##تازه": 2431,
      "##تال": 2432,
      "##تنی": 2433,
      "##توم": 2434,
      "##اتی": 2435,
      "##استه": 2436,
      "##احی": 2437,
      "##اضی": 2438,
      "##سف": 2439,
      "##ساف": 2440,
      "##سیر": 2441,
      "##سرخ": 2442,
      "##سیس": 2443,
      "##سکو": 2444,
      "##سوم": 2445,
      "##سابی": 2446,
      "##ساط": 2447,
      "##سادگی": 2448,
      "##سپهر": 2449,
      "##نه": 2450,
      "##نام": 2451,
      "##نهای": 2452,
      "##نوان": 2453,
      "##نخو": 2454,
      "##نتز": 2455,
      "##نوشت": 2456,
      "##یک": 2457,
      "##یه": 2458,
      "##یذ": 2459,
      "##یهای": 2460,
      "##یزی": 2461,
      "##یهی": 2462,
      "##یکی": 2463,
      "##یتان": 2464,
      "##پذ": 2465,
      "##پرک": 2466,
      "##وي": 2467,
      "##ورد": 2468,
      "##وزی": 2469,
      "##وریز": 2470,
      "##وایی": 2471,
      "##شست": 2472,
      "##شاه": 2473,
      "##شمی": 2474,
      "##شارات": 2475,
      "##لر": 2476,
      "##لهای": 2477,
      "##لازم": 2478,
      "##لتی": 2479,
      "##لسی": 2480,
      "##لحا": 2481,
      "##قل": 2482,
      "##قیم": 2483,
      "##قلم": 2484,
      "##قاسمی": 2485,
      "##کرد": 2486,
      "##کوب": 2487,
      "##کنی": 2488,
      "##کاری": 2489,
      "##هب": 2490,
      "##هار": 2491,
      "##هند": 2492,
      "##همین": 2493,
      "##هستان": 2494,
      "##هتان": 2495,
      "##هنوز": 2496,
      "##حد": 2497,
      "##حه": 2498,
      "##حاب": 2499,
      "##حدی": 2500,
      "##حالی": 2501,
      "##حسابی": 2502,
      "##طه": 2503,
      "##طاب": 2504,
      "##طعم": 2505,
      "##گو": 2506,
      "##گل": 2507,
      "##گود": 2508,
      "##گوری": 2509,
      "##گون": 2510,
      "##گوشت": 2511,
      "##جهی": 2512,
      "##جارهای": 2513,
      "##روش": 2514,
      "##ذرد": 2515,
      "##ذبه": 2516,
      "##فجارهای": 2517,
      "##زانی": 2518,
      "##خه": 2519,
      "##خود": 2520,
      "##خلی": 2521,
      "##بش": 2522,
      "##بین": 2523,
      "##بایی": 2524,
      "##بچه": 2525,
      "##بساط": 2526,
      "##عی": 2527,
      "##عش": 2528,
      "##عکس": 2529,
      "##ضل": 2530,
      "##صاص": 2531,
      "##صیه": 2532,
      "##59": 2533,
      "##چهی": 2534,
      "##چیده": 2535,
      "##چال": 2536,
      "##چاله": 2537,
      "##ra": 2538,
      "##th": 2539,
      "##utu": 2540,
      "##ff": 2541,
      "##ظیر": 2542,
      "##ظتی": 2543,
      "##ظوره": 2544,
      "##يم": 2545,
      "##يی": 2546,
      "##يوی": 2547,
      "##at": 2548,
      "##aa": 2549,
      "##be": 2550,
      "##sh": 2551,
      "##ki": 2552,
      "##84": 2553,
      "##ced": 2554,
      "##ls": 2555,
      "##lls": 2556,
      "##یدی": 2557,
      "##یدان": 2558,
      "##یمه": 2559,
      "راس": 2560,
      "راز": 2561,
      "راهر": 2562,
      "رادرخ": 2563,
      "میا": 2564,
      "میانه": 2565,
      "میانی": 2566,
      "میلت": 2567,
      "میچین": 2568,
      "مییاب": 2569,
      "##انهای": 2570,
      "##انرا": 2571,
      "##انشی": 2572,
      "##انورد": 2573,
      "##انشاه": 2574,
      "##ارک": 2575,
      "##ردند": 2576,
      "##ردین": 2577,
      "##ردهای": 2578,
      "##ردچوبه": 2579,
      "##رداری": 2580,
      "##ایلی": 2581,
      "##ایقی": 2582,
      "##ستگی": 2583,
      "##ستگاه": 2584,
      "##ستوریز": 2585,
      "بهار": 2586,
      "بهها": 2587,
      "بههای": 2588,
      "بهاه": 2589,
      "بهره": 2590,
      "بهاس": 2591,
      "بهاص": 2592,
      "بهتن": 2593,
      "بهسادگی": 2594,
      "بهلحا": 2595,
      "بهحدی": 2596,
      "دراز": 2597,
      "دراب": 2598,
      "درصورت": 2599,
      "درمی": 2600,
      "دراید": 2601,
      "دراو": 2602,
      "درحال": 2603,
      "دریاب": 2604,
      "دراستان": 2605,
      "دریک": 2606,
      "درهمین": 2607,
      "درحالی": 2608,
      "درجهی": 2609,
      "درانرا": 2610,
      "باب": 2611,
      "باشیم": 2612,
      "##ندری": 2613,
      "برام": 2614,
      "بروی": 2615,
      "برخل": 2616,
      "برانی": 2617,
      "برمی": 2618,
      "برخورد": 2619,
      "بریدن": 2620,
      "برروی": 2621,
      "برنام": 2622,
      "برعکس": 2623,
      "##وده": 2624,
      "انست": 2625,
      "انتق": 2626,
      "انتقال": 2627,
      "انهار": 2628,
      "انفجارهای": 2629,
      "انبساط": 2630,
      "##ینه": 2631,
      "##ادند": 2632,
      "##ادها": 2633,
      "##ادهاست": 2634,
      "رولت": 2635,
      "روشن": 2636,
      "تاوه": 2637,
      "ازاد": 2638,
      "ازاین": 2639,
      "ازقب": 2640,
      "##ورید": 2641,
      "##ورند": 2642,
      "##شتان": 2643,
      "##امی": 2644,
      "یکا": 2645,
      "یکمر": 2646,
      "یکبند": 2647,
      "یکجا": 2648,
      "یکعدد": 2649,
      "ابرو": 2650,
      "ابگیری": 2651,
      "ابوه": 2652,
      "ابوا": 2653,
      "ابلیم": 2654,
      "ابگوشت": 2655,
      "##هاش": 2656,
      "گونا": 2657,
      "گویهای": 2658,
      "گوگل": 2659,
      "شدهاست": 2660,
      "میکشد": 2661,
      "میکنم": 2662,
      "میکشند": 2663,
      "میکسر": 2664,
      "کردبچه": 2665,
      "اشی": 2666,
      "اشهای": 2667,
      "اشپز": 2668,
      "اشکن": 2669,
      "اشکا": 2670,
      "اشرفی": 2671,
      "##اشیم": 2672,
      "##اشند": 2673,
      "##لات": 2674,
      "##لال": 2675,
      "##هایش": 2676,
      "استرات": 2677,
      "رویت": 2678,
      "رویی": 2679,
      "رویش": 2680,
      "رویهم": 2681,
      "اضافی": 2682,
      "نمون": 2683,
      "نماند": 2684,
      "نمیس": 2685,
      "نماید": 2686,
      "نماییم": 2687,
      "نمیدان": 2688,
      "دال": 2689,
      "دایم": 2690,
      "داشتن": 2691,
      "داخلی": 2692,
      "دايم": 2693,
      "##لون": 2694,
      "##لوفر": 2695,
      "دون": 2696,
      "دوحسابی": 2697,
      "دوخه": 2698,
      "مراق": 2699,
      "مرزه": 2700,
      "مرسوم": 2701,
      "همهی": 2702,
      "همرنگ": 2703,
      "همکاری": 2704,
      "کمتری": 2705,
      "کموزی": 2706,
      "پختهای": 2707,
      "##لیاش": 2708,
      "##لیشان": 2709,
      "##لیتری": 2710,
      "اینها": 2711,
      "اینصورت": 2712,
      "اینبار": 2713,
      "##ریزیم": 2714,
      "گوشتی": 2715,
      "شدهاند": 2716,
      "موجود": 2717,
      "موازی": 2718,
      "موفق": 2719,
      "مولتی": 2720,
      "پیش": 2721,
      "پیاده": 2722,
      "پیاله": 2723,
      "پیشاز": 2724,
      "پیچیده": 2725,
      "کردهاند": 2726,
      "امرو": 2727,
      "امتد": 2728,
      "اموا": 2729,
      "امتح": 2730,
      "امادهاست": 2731,
      "امامی": 2732,
      "##ویو": 2733,
      "##ویهای": 2734,
      "##لفضل": 2735,
      "پیازهای": 2736,
      "پیازسرخ": 2737,
      "##اهدی": 2738,
      "##وانه": 2739,
      "##ادهروی": 2740,
      "کمیتی": 2741,
      "سیارک": 2742,
      "##شیده": 2743,
      "موادر": 2744,
      "موادتان": 2745,
      "موادلازم": 2746,
      "خرده": 2747,
      "خردکن": 2748,
      "شوداستان": 2749,
      "##رخشند": 2750,
      "فلفلها": 2751,
      "##تیک": 2752,
      "##تیوب": 2753,
      "##تیاط": 2754,
      "روغنی": 2755,
      "##ناهایی": 2756,
      "##داران": 2757,
      "سوم": 2758,
      "سوسیس": 2759,
      "سوزانی": 2760,
      "مقدمه": 2761,
      "خورشتان": 2762,
      "##قههای": 2763,
      "##شدن": 2764,
      "##تراش": 2765,
      "##ونها": 2766,
      "##ونشست": 2767,
      "بیست": 2768,
      "بیستم": 2769,
      "بیایند": 2770,
      "بیکار": 2771,
      "مرغهای": 2772,
      "سبز": 2773,
      "##یزم": 2774,
      "میریزد": 2775,
      "میگذارد": 2776,
      "میگذارید": 2777,
      "غذاها": 2778,
      "غذاهایی": 2779,
      "غذاخور": 2780,
      "##الای": 2781,
      "##العم": 2782,
      "داخلش": 2783,
      "داغی": 2784,
      "کوتا": 2785,
      "کوتاه": 2786,
      "کوهستان": 2787,
      "کوتراش": 2788,
      "کامل": 2789,
      "##باس": 2790,
      "##باء": 2791,
      "##باسازی": 2792,
      "##گراد": 2793,
      "میشه": 2794,
      "میشوي": 2795,
      "طرزتهی": 2796,
      "##نگیها": 2797,
      "دستهی": 2798,
      "دستوری": 2799,
      "دستتان": 2800,
      "دسترسی": 2801,
      "دستیار": 2802,
      "دستنخو": 2803,
      "لیلا": 2804,
      "لیتری": 2805,
      "##مینیم": 2806,
      "ربهای": 2807,
      "##روج": 2808,
      "##روید": 2809,
      "سیرها": 2810,
      "سیرتازه": 2811,
      "##داول": 2812,
      "##رهها": 2813,
      "##ارهها": 2814,
      "شکرک": 2815,
      "شکرتان": 2816,
      "شکرانهی": 2817,
      "بریزد": 2818,
      "کارا": 2819,
      "کارها": 2820,
      "کارهای": 2821,
      "کارنامه": 2822,
      "کارکرد": 2823,
      "##اعات": 2824,
      "##یسانید": 2825,
      "سیستمهایی": 2826,
      "داریم": 2827,
      "بریزیدو": 2828,
      "بپزه": 2829,
      "بپزید": 2830,
      "میدهید": 2831,
      "اشپزیهای": 2832,
      "اندود": 2833,
      "اندازهی": 2834,
      "اندروید": 2835,
      "مدام": 2836,
      "مدتی": 2837,
      "میتوانند": 2838,
      "جوهر": 2839,
      "جوپرک": 2840,
      "شمال": 2841,
      "تمیزی": 2842,
      "تمایلی": 2843,
      "ملاقه": 2844,
      "مخلوطکن": 2845,
      "اسیاب": 2846,
      "دیجی": 2847,
      "دیواره": 2848,
      "ملایمتری": 2849,
      "خلالی": 2850,
      "قبلیاش": 2851,
      "نیمکوب": 2852,
      "نیمهب": 2853,
      "فرق": 2854,
      "فرونشست": 2855,
      "فرنگیها": 2856,
      "متن": 2857,
      "متعدد": 2858,
      "متمایل": 2859,
      "متداول": 2860,
      "وقت": 2861,
      "امادهسازی": 2862,
      "خلالها": 2863,
      "خلالهای": 2864,
      "بگذاریم": 2865,
      "##سیک": 2866,
      "##خواهی": 2867,
      "##عفران": 2868,
      "تفتاش": 2869,
      "خیسانده": 2870,
      "زعفرانی": 2871,
      "تخممرغها": 2872,
      "نخودهای": 2873,
      "نخودرا": 2874,
      "چندساعت": 2875,
      "چندرس": 2876,
      "کاوش": 2877,
      "کاکو": 2878,
      "میبایست": 2879,
      "میباشند": 2880,
      "خمیرهنوز": 2881,
      "توصیه": 2882,
      "خوبی": 2883,
      "شواهدی": 2884,
      "لپههای": 2885,
      "محور": 2886,
      "محال": 2887,
      "زیرین": 2888,
      "زیبایی": 2889,
      "زیادهروی": 2890,
      "زیباسازی": 2891,
      "شیره": 2892,
      "شیرهی": 2893,
      "مایهی": 2894,
      "پوشیده": 2895,
      "قراردهید": 2896,
      "##سبزی": 2897,
      "کردنی": 2898,
      "پوستشان": 2899,
      "الک": 2900,
      "السیر": 2901,
      "الگوری": 2902,
      "نشر": 2903,
      "نشین": 2904,
      "نشوند": 2905,
      "نشاسته": 2906,
      "پراش": 2907,
      "پراشکی": 2908,
      "پروانه": 2909,
      "چرخش": 2910,
      "##کوتی": 2911,
      "##بریده": 2912,
      "یکییکی": 2913,
      "بدیهی": 2914,
      "بدرخشند": 2915,
      "بخصوص": 2916,
      "بخورند": 2917,
      "بخیسانید": 2918,
      "جاوا": 2919,
      "جاذبه": 2920,
      "زمستان": 2921,
      "خورشی": 2922,
      "دما": 2923,
      "دمکنی": 2924,
      "قابلمهای": 2925,
      "اورد": 2926,
      "اوردن": 2927,
      "اولیه": 2928,
      "خودتان": 2929,
      "خودداری": 2930,
      "رندهشده": 2931,
      "سرهای": 2932,
      "سرپر": 2933,
      "سرنوشت": 2934,
      "معنی": 2935,
      "معما": 2936,
      "پلوپز": 2937,
      "پلوتون": 2938,
      "##میه": 2939,
      "کوکوسبزی": 2940,
      "دیگرش": 2941,
      "بلک": 2942,
      "بلغز": 2943,
      "بلژی": 2944,
      "بودند": 2945,
      "بودهاست": 2946,
      "تهچین": 2947,
      "تهدیگ": 2948,
      "ساوه": 2949,
      "ساقههای": 2950,
      "سردی": 2951,
      "سردتر": 2952,
      "سردشدن": 2953,
      "نوک": 2954,
      "نواحی": 2955,
      "نوردهای": 2956,
      "کشیدید": 2957,
      "دستورهای": 2958,
      "دستورات": 2959,
      "دستوراتی": 2960,
      "دستورالعم": 2961,
      "دلخواهی": 2962,
      "رنگشان": 2963,
      "رنگده": 2964,
      "قدت": 2965,
      "قدیم": 2966,
      "منتق": 2967,
      "وریم": 2968,
      "ورود": 2969,
      "لکههایی": 2970,
      "دادهها": 2971,
      "دادههای": 2972,
      "دادهشده": 2973,
      "ویا": 2974,
      "ابتدای": 2975,
      "زیادشان": 2976,
      "ادرس": 2977,
      "اتمی": 2978,
      "افزایش": 2979,
      "تقاط": 2980,
      "جداول": 2981,
      "ریزتر": 2982,
      "ریزهها": 2983,
      "سفتی": 2984,
      "شیف": 2985,
      "شیوه": 2986,
      "نکند": 2987,
      "نفرات": 2988,
      "نفرهتان": 2989,
      "هستن": 2990,
      "هستهی": 2991,
      "گرفتن": 2992,
      "##دیکتر": 2993,
      "##نیهای": 2994,
      "##ومغناطیس": 2995,
      "##بیل": 2996,
      "##بیان": 2997,
      "ماهیتابهی": 2998,
      "بکنید": 2999,
      "بکشیم": 3000,
      "بکینگ": 3001,
      "روشهای": 3002,
      "لعابدار": 3003,
      "خواست": 3004,
      "خوردند": 3005,
      "کفگیر": 3006,
      "بخشها": 3007,
      "بخشهایی": 3008,
      "شیرینتر": 3009,
      "3000": 3010,
      "عمدت": 3011,
      "عمدهی": 3012,
      "لوبیای": 3013,
      "بهتراست": 3014,
      "##ودیشان": 3015,
      "سیستمعاملها": 3016,
      "ترشی": 3017,
      "زمانبند": 3018,
      "سفیدهی": 3019,
      "ایا": 3020,
      "ایینی": 3021,
      "ایکسپی": 3022,
      "ایستگاه": 3023,
      "بینظیر": 3024,
      "خوشه": 3025,
      "خوشطعم": 3026,
      "دادهاید": 3027,
      "دادهایم": 3028,
      "نرمی": 3029,
      "نرمافز": 3030,
      "هلندی": 3031,
      "پاستوریز": 3032,
      "پیروی": 3033,
      "پیرکس": 3034,
      "##ايل": 3035,
      "کردهاست": 3036,
      "نمودیم": 3037,
      "نمودارهای": 3038,
      "میرزاقاسمی": 3039,
      "باران": 3040,
      "بگیریم": 3041,
      "سایز": 3042,
      "سایوز": 3043,
      "طبق": 3044,
      "طبعش": 3045,
      "نظرتان": 3046,
      "گردد": 3047,
      "گرداند": 3048,
      "##ژیهای": 3049,
      "برنامههایش": 3050,
      "سیاهچاله": 3051,
      "البالوها": 3052,
      "البالویی": 3053,
      "ادویهها": 3054,
      "ارث": 3055,
      "ارایش": 3056,
      "ارتف": 3057,
      "بنشی": 3058,
      "سروکار": 3059,
      "فضانورد": 3060,
      "نیلوفر": 3061,
      "چیلی": 3062,
      "کنارهها": 3063,
      "کبلو": 3064,
      "##اورند": 3065,
      "##انیمدت": 3066,
      "تابع": 3067,
      "تابهای": 3068,
      "استوا": 3069,
      "تمامی": 3070,
      "منظم": 3071,
      "مرتبط": 3072,
      "بستند": 3073,
      "بستگی": 3074,
      "بستنی": 3075,
      "قطب": 3076,
      "قطره": 3077,
      "قطبی": 3078,
      "قیمهای": 3079,
      "میدادند": 3080,
      "نارج": 3081,
      "ناراضی": 3082,
      "نورشناسی": 3083,
      "نورسپهر": 3084,
      "##مانها": 3085,
      "میگذرد": 3086,
      "باقلای": 3087,
      "باقالای": 3088,
      "شکلگیری": 3089,
      "میشویند": 3090,
      "کاسهی": 3091,
      "کاسههای": 3092,
      "کاسینی": 3093,
      "البروج": 3094,
      "نکتهها": 3095,
      "اطرافش": 3096,
      "اطرافشان": 3097,
      "پنیرگود": 3098,
      "اخرین": 3099,
      "اخلال": 3100,
      "الوها": 3101,
      "الومینیم": 3102,
      "بشورید": 3103,
      "حاوی": 3104,
      "حالت": 3105,
      "سنتها": 3106,
      "سریال": 3107,
      "سالم": 3108,
      "شستهایم": 3109,
      "طرفین": 3110,
      "طرفداران": 3111,
      "مجازی": 3112,
      "مجلسی": 3113,
      "ماهواره": 3114,
      "ماهانهای": 3115,
      "چونکه": 3116,
      "##پرست": 3117,
      "##شندگی": 3118,
      "##حاضر": 3119,
      "میلیارد": 3120,
      "میلیلیتری": 3121,
      "میلیونها": 3122,
      "##ایران": 3123,
      "انگبین": 3124,
      "##افزار": 3125,
      "نمیاید": 3126,
      "نمیریزیم": 3127,
      "##اهده": 3128,
      "2500": 3129,
      "اختیار": 3130,
      "اختروش": 3131,
      "اختصاص": 3132,
      "خطا": 3133,
      "خطهایی": 3134,
      "خارجی": 3135,
      "نسوزد": 3136,
      "وزردچوبه": 3137,
      "وزعفران": 3138,
      "کوبیم": 3139,
      "گراد": 3140,
      "گرانشی": 3141,
      "##بندان": 3142,
      "میگیرند": 3143,
      "برشها": 3144,
      "برشهای": 3145,
      "نمايید": 3146,
      "پیتزای": 3147,
      "##قیقات": 3148,
      "اردبیلیشان": 3149,
      "بپزنداز": 3150,
      "توزیعهای": 3151,
      "محیطی": 3152,
      "بخارا": 3153,
      "دمایشان": 3154,
      "ورقههای": 3155,
      "سریعتر": 3156,
      "تغییری": 3157,
      "پیداست": 3158,
      "بشکل": 3159,
      "تنها": 3160,
      "تلسکو": 3161,
      "حلوای": 3162,
      "حلواست": 3163,
      "حداقل": 3164,
      "رصدی": 3165,
      "زاویهای": 3166,
      "سختافزار": 3167,
      "طیف": 3168,
      "طولانیمدت": 3169,
      "غلظتی": 3170,
      "غذایی": 3171,
      "فروردین": 3172,
      "لایه": 3173,
      "لایهای": 3174,
      "مساوی": 3175,
      "مسايل": 3176,
      "مشابه": 3177,
      "مشاهده": 3178,
      "ندهد": 3179,
      "ندهند": 3180,
      "نهار": 3181,
      "وباز": 3182,
      "پایدار": 3183,
      "کلمها": 3184,
      "یخچال": 3185,
      "یخبندان": 3186,
      "##دانپرست": 3187,
      "دقیقهی": 3188,
      "فرایندی": 3189,
      "فرایندهای": 3190,
      "نباتها": 3191,
      "ریزههایی": 3192,
      "میپوشانند": 3193,
      "مناطقی": 3194,
      "عمانیها": 3195,
      "تیرهتر": 3196,
      "تیرهرنگ": 3197,
      "فعالیت": 3198,
      "فعالیتهای": 3199,
      "1500": 3200,
      "1559": 3201,
      "1384": 3202,
      "اغشته": 3203,
      "بایستد": 3204,
      "تحقیقات": 3205,
      "جدش": 3206,
      "جدید": 3207,
      "جدول": 3208,
      "خاصی": 3209,
      "خاصمن": 3210,
      "دهه": 3211,
      "دهنده": 3212,
      "دانههای": 3213,
      "دایرة": 3214,
      "سانت": 3215,
      "شاخهای": 3216,
      "شهرستان": 3217,
      "فواصل": 3218,
      "فلسف": 3219,
      "فقیر": 3220,
      "قلمی": 3221,
      "قسمتها": 3222,
      "مطمي": 3223,
      "مصادف": 3224,
      "مریای": 3225,
      "نشدهاند": 3226,
      "پنجرهها": 3227,
      "کدبان": 3228,
      "کلیدی": 3229,
      "کاهش": 3230,
      "گروه": 3231,
      "گروهها": 3232,
      "گروههای": 3233,
      "##وسنتز": 3234,
      "##طلاح": 3235,
      "##بلیله": 3236,
      "راستای": 3237,
      "راستکار": 3238,
      "راحتتر": 3239,
      "میجوشانند": 3240,
      "میرسند": 3241,
      "بهنام": 3242,
      "بریدهبریده": 3243,
      "انتشارات": 3244,
      "استخوانهای": 3245,
      "موجب": 3246,
      "امنیتی": 3247,
      "امکانات": 3248,
      "امکانپذ": 3249,
      "کاربرد": 3250,
      "کاربری": 3251,
      "کاربره": 3252,
      "چندینبار": 3253,
      "نوشتم": 3254,
      "نبودن": 3255,
      "ویژگیهای": 3256,
      "عملگرد": 3257,
      "خامیش": 3258,
      "نمودارها": 3259,
      "میگردد": 3260,
      "میگردند": 3261,
      "میگردانیم": 3262,
      "باقیماندهی": 3263,
      "قلقلیهای": 3264,
      "وبلاگها": 3265,
      "سوراخها": 3266,
      "سوراخدار": 3267,
      "طراحیشده": 3268,
      "مازندرانی": 3269,
      "گلولههایی": 3270,
      "اورانوس": 3271,
      "بتواند": 3272,
      "بتوانند": 3273,
      "ببندد": 3274,
      "ببندید": 3275,
      "ترخون": 3276,
      "ترخینه": 3277,
      "جنس": 3278,
      "جنوبی": 3279,
      "جذب": 3280,
      "جذاب": 3281,
      "جانبی": 3282,
      "جلوگیری": 3283,
      "حساس": 3284,
      "حسابی": 3285,
      "حفره": 3286,
      "حفرهای": 3287,
      "رسید": 3288,
      "رسیده": 3289,
      "سازمان": 3290,
      "سازماندهی": 3291,
      "شامی": 3292,
      "شرکت": 3293,
      "شرکتهای": 3294,
      "ضربدر": 3295,
      "عطاری": 3296,
      "عطارد": 3297,
      "عمرش": 3298,
      "عروس": 3299,
      "عروسی": 3300,
      "فورا": 3301,
      "فوران": 3302,
      "قویترین": 3303,
      "مهمی": 3304,
      "مهبان": 3305,
      "مبتنی": 3306,
      "مبناهایی": 3307,
      "مستقیم": 3308,
      "مستطاب": 3309,
      "ماندند": 3310,
      "مزهدار": 3311,
      "نزدن": 3312,
      "نزدیکتر": 3313,
      "نظاره": 3314,
      "نظایر": 3315,
      "نیرو": 3316,
      "نیروی": 3317,
      "ندارد": 3318,
      "ندارید": 3319,
      "نشدهاست": 3320,
      "واحد": 3321,
      "ولرم": 3322,
      "ولپه": 3323,
      "واسطهای": 3324,
      "چنانکه": 3325,
      "کرمانشاه": 3326,
      "کلفت": 3327,
      "کلفتی": 3328,
      "گذشت": 3329,
      "گذشته": 3330,
      "##گردانیم": 3331,
      "##خانهها": 3332,
      "میلادی": 3333,
      "میوههای": 3334,
      "بهعلت": 3335,
      "بهعنوان": 3336,
      "درخشان": 3337,
      "درخشندگی": 3338,
      "##ریفات": 3339,
      "##ریفشده": 3340,
      "بالاتر": 3341,
      "##ادفی": 3342,
      "تاثیرگذار": 3343,
      "کهکشانها": 3344,
      "همچنان": 3345,
      "همچشمی": 3346,
      "همینطور": 3347,
      "همرفت": 3348,
      "همرفتی": 3349,
      "کارتهایی": 3350,
      "ریختید": 3351,
      "محلهایی": 3352,
      "شیرازیها": 3353,
      "مایکروساف": 3354,
      "مایکروویو": 3355,
      "الکترو": 3356,
      "الکترومغناطیس": 3357,
      "قدیمیترین": 3358,
      "اتمام": 3359,
      "گرفتید": 3360,
      "خوشمزهی": 3361,
      "خوشمزگی": 3362,
      "نیوتون": 3363,
      "نیوتن": 3364,
      "تابستانها": 3365,
      "برداشته": 3366,
      "برداشتن": 3367,
      "باقالاها": 3368,
      "بشقاب": 3369,
      "بشقابی": 3370,
      "نگهداری": 3371,
      "نمیکشد": 3372,
      "نمیکنند": 3373,
      "خطوطی": 3374,
      "نسخهها": 3375,
      "نسخهاش": 3376,
      "تاریخچه": 3377,
      "تاریخچهی": 3378,
      "دیرپزتر": 3379,
      "سانتیگراد": 3380,
      "mini": 3381,
      "minced": 3382,
      "280": 3383,
      "cpu": 3384,
      "meat": 3385,
      "noaa": 3386,
      "pira": 3387,
      "rolls": 3388,
      "stuff": 3389,
      "with": 3390,
      "youtu": 3391,
      "اپتیک": 3392,
      "اقلیم": 3393,
      "احتیاط": 3394,
      "افقی": 3395,
      "اتیش": 3396,
      "اقیانوس": 3397,
      "ارومیه": 3398,
      "الهام": 3399,
      "اصفهان": 3400,
      "اکاایران": 3401,
      "بپاشیم": 3402,
      "ببرد": 3403,
      "بیدرنگ": 3404,
      "بپوشانید": 3405,
      "بختیاری": 3406,
      "تشریفات": 3407,
      "تعریفشده": 3408,
      "تصادفی": 3409,
      "ترمیم": 3410,
      "تکهتکه": 3411,
      "تلفنهای": 3412,
      "تداخل": 3413,
      "تشکیل": 3414,
      "ثبت": 3415,
      "ثانویه": 3416,
      "جسمی": 3417,
      "جلد": 3418,
      "جهت": 3419,
      "جزر": 3420,
      "جابهجا": 3421,
      "حیوانی": 3422,
      "حذف": 3423,
      "حوصله": 3424,
      "دقایقی": 3425,
      "دچار": 3426,
      "دایره": 3427,
      "دامادها": 3428,
      "ذکر": 3429,
      "رمبش": 3430,
      "رقباء": 3431,
      "رضا": 3432,
      "رودخانهها": 3433,
      "ریسمانها": 3434,
      "زندهی": 3435,
      "زنجبیل": 3436,
      "سمت": 3437,
      "سیمبیان": 3438,
      "سلیقه": 3439,
      "سرزمین": 3440,
      "ساتوری": 3441,
      "شنبلیله": 3442,
      "شهرداری": 3443,
      "شناختی": 3444,
      "شاتلهای": 3445,
      "شلهقلم": 3446,
      "شبیه": 3447,
      "شخصیتان": 3448,
      "شادیها": 3449,
      "صفحه": 3450,
      "صبح": 3451,
      "صالحاب": 3452,
      "ضرورت": 3453,
      "ضخیم": 3454,
      "طریقه": 3455,
      "طلايی": 3456,
      "طاهری": 3457,
      "عشایر": 3458,
      "عناصر": 3459,
      "عمیق": 3460,
      "عبارتند": 3461,
      "فتوسنتز": 3462,
      "فشار": 3463,
      "فهیمه": 3464,
      "فصل": 3465,
      "فارس": 3466,
      "فردا": 3467,
      "فندق": 3468,
      "فریزر": 3469,
      "فویل": 3470,
      "فالوده": 3471,
      "فراوانی": 3472,
      "فهمیدن": 3473,
      "فاصله": 3474,
      "فهرست": 3475,
      "قهوه": 3476,
      "قرن": 3477,
      "قوانین": 3478,
      "قرینه": 3479,
      "لذیذ": 3480,
      "لبهی": 3481,
      "لابهلای": 3482,
      "میماند": 3483,
      "مانع": 3484,
      "مادران": 3485,
      "مابقی": 3486,
      "مداوم": 3487,
      "مسطحی": 3488,
      "مطرح": 3489,
      "مکانیزم": 3490,
      "نپتون": 3491,
      "نقطه": 3492,
      "نایلون": 3493,
      "نابودیشان": 3494,
      "نداشتن": 3495,
      "نبریدن": 3496,
      "ناسا": 3497,
      "هدف": 3498,
      "هریک": 3499,
      "هابل": 3500,
      "هلیوم": 3501,
      "هربخش": 3502,
      "وسپس": 3503,
      "ونخود": 3504,
      "وفلفل": 3505,
      "وضعی": 3506,
      "ویديوی": 3507,
      "واماده": 3508,
      "وابسته": 3509,
      "وعدس": 3510,
      "وگرنه": 3511,
      "ومواد": 3512,
      "وپیاز": 3513,
      "واقع": 3514,
      "پانچ": 3515,
      "پستوی": 3516,
      "پاشیده": 3517,
      "پوشانده": 3518,
      "پونه": 3519,
      "پراکندگی": 3520,
      "چاپ": 3521,
      "چاشنیهای": 3522,
      "چانههای": 3523,
      "چیزها": 3524,
      "چسبندگی": 3525,
      "ژیگو": 3526,
      "کتب": 3527,
      "کپلر": 3528,
      "کشدار": 3529,
      "کودکان": 3530,
      "کادرک": 3531,
      "کلاسیک": 3532,
      "کنجد": 3533,
      "کوانتوم": 3534,
      "کالباس": 3535,
      "گیرد": 3536,
      "گاما": 3537,
      "گذارده": 3538,
      "گالیله": 3539,
      "یوتیوب": 3540,
      "یقین": 3541,
      "یزدانپرست": 3542,
      "یعنی": 3543,
      "یارمه": 3544,
      "یافته": 3545,
      "یوزر": 3546,
      "##shki": 3547,
      "راهراه": 3548,
      "رادرخشان": 3549,
      "میلتان": 3550,
      "میچینیم": 3551,
      "مییابد": 3552,
      "بهاهستگی": 3553,
      "بهاسانی": 3554,
      "بهاصطلاح": 3555,
      "بهتنهایی": 3556,
      "بهلحاظ": 3557,
      "درازا": 3558,
      "درمیاورند": 3559,
      "دراورده": 3560,
      "درحالحاضر": 3561,
      "دریابندری": 3562,
      "درهمینحال": 3563,
      "درحالیکه": 3564,
      "برامدگی": 3565,
      "برخلاف": 3566,
      "برمیگردانیم": 3567,
      "برخوردار": 3568,
      "برنامهای": 3569,
      "انتقالی": 3570,
      "انهارا": 3571,
      "ازاینرو": 3572,
      "ازقبل": 3573,
      "یکمرتبه": 3574,
      "ابروغن": 3575,
      "ابوهوایی": 3576,
      "ابوالفضل": 3577,
      "ابلیموی": 3578,
      "گوناگون": 3579,
      "اشپزخانه": 3580,
      "اشکنه": 3581,
      "اشکالات": 3582,
      "استراتژیهای": 3583,
      "نمونهها": 3584,
      "نمیسوزد": 3585,
      "نمیدانم": 3586,
      "مراقب": 3587,
      "کموزیاد": 3588,
      "پیادهسازی": 3589,
      "امروزی": 3590,
      "امتداد": 3591,
      "امواج": 3592,
      "امتحان": 3593,
      "شوداستانبولی": 3594,
      "کوتاهی": 3595,
      "میشويیم": 3596,
      "طرزتهیه": 3597,
      "دستیاران": 3598,
      "دستنخورده": 3599,
      "جوهرلیمو": 3600,
      "دیجیتال": 3601,
      "دیوارههای": 3602,
      "نیمهباز": 3603,
      "چندرسانه": 3604,
      "کاکوکوتی": 3605,
      "الگوریتم": 3606,
      "معماست": 3607,
      "بلغزانید": 3608,
      "بلژیک": 3609,
      "تهدیگش": 3610,
      "دستورالعمل": 3611,
      "رنگدهنده": 3612,
      "منتقل": 3613,
      "تقاطع": 3614,
      "خواستیم": 3615,
      "عمدتا": 3616,
      "زمانبندی": 3617,
      "نرمافزاری": 3618,
      "پاستوریزه": 3619,
      "ارتفاعات": 3620,
      "بنشیند": 3621,
      "فضانوردی": 3622,
      "پنیرگودا": 3623,
      "تلسکوپ": 3624,
      "خاصمنظوره": 3625,
      "فلسفهای": 3626,
      "مطمين": 3627,
      "کدبانوی": 3628,
      "امکانپذیر": 3629,
      "مهبانگ": 3630,
      "نزدیکترست": 3631,
      "مایکروسافت": 3632,
      "pirashki": 3633,
      "stuffed": 3634,
      "youtube": 3635,
      "شلهقلمکار": 3636,
      "صالحاباد": 3637
    }
  }
}