{
  "version": "1.0",
  "truncation": null,
  "padding": null,
  "added_tokens": [
    {
      "id": 0,
      "content": "[PAD]",
      "single_word": false,
      "lstrip": false,
      "rstrip": false,
      "normalized": false,
      "special": true
    },
    {
      "id": 1,
      "content": "[UNK]",
      "single_word": false,
      "lstrip": false,
      "rstrip": false,
      "normalized": false,
      "special": true
    },
    {
      "id": 2,
      "content": "[CLS]",
      "single_word": false,
      "lstrip": false,
      "rstrip": false,
      "normalized": false,
      "special": true
    },
    {
      "id": 3,
      "content": "[SEP]",
      "single_word": false,
      "lstrip": false,
      "rstrip": false,
      "normalized": false,
      "special": true
    },
    {
      "id": 4,
      "content": "[MASK]",
      "single_word": false,
      "lstrip": false,
      "rstrip": false,
      "normalized": false,
      "special": true
    }
  ],
  "normalizer": {
    "type": "BertNormalizer",
    "clean_text": true,
    "handle_chinese_chars": true,
    "strip_accents": null,
    "lowercase": true
  },
  "pre_tokenizer": {
    "type": "BertPreTokenizer"
  },
  "post_processor": {
    "type": "TemplateProcessing",
    "single": [
      {
        "SpecialToken": {
          "id": "[CLS]",
          "type_id": 0
        }
      },
      {
        "Sequence": {
          "id": "A",
          "type_id": 0
        }
      },
      {
        "SpecialToken": {
          "id": "[SEP]",
          "type_id": 0
        }
      }
    ],
    "pair": [
      {
        "SpecialToken": {
          "id": "[CLS]",
          "type_id": 0
        }
      },
      {
        "Sequence": {
          "id": "A",
          "type_id": 0
        }
      },
      {
        "SpecialToken": {
          "id": "[SEP]",
          "type_id": 0
        }
      },
      {
        "Sequence": {
          "id": "B",
          "type_id": 1
        }
      },
      {
        "SpecialToken": {
          "id": "[SEP]",
          "type_id": 1
        }
      }
    ],
    "special_tokens": {
      "[CLS]": {
        "id": "[CLS]",
        "ids": [
          2
        ],
        "tokens": [
          "[CLS]"
        ]
      },
      "[SEP]": {
        "id": "[SEP]",
        "ids": [
          3
        ],
        "tokens": [
          "[SEP]"
        ]
      }
    }
  },
  "decoder": {
    "type": "WordPiece",
    "prefix": "##",
    "cleanup": true
  },
  "model": {
    "type": "WordPiece",
    "unk_token": "[UNK]",
    "continuing_subword_prefix": "##",
    "max_input_chars_per_word": 100,
    "vocab": {
      "[PAD]": 0,
      "[UNK]": 1,
      "[CLS]": 2,
      "[SEP]": 3,
      "[MASK]": 4,
      "!": 5,
      "\"": 6,
      "#": 7,
      "$": 8,
      "%": 9,
      "&": 10,
      "'": 11,
      "(": 12,
      ")": 13,
      "*": 14,
      "+": 15,
      ",": 16,
      "-": 17,
      ".": 18,
      "/": 19,
      "0": 20,
      "1": 21,
      "2": 22,
      "3": 23,
      "4": 24,
      "5": 25,
      "6": 26,
      "7": 27,
      "8": 28,
      "9": 29,
      ":": 30,
      ";": 31,
      "<": 32,
      "=": 33,
      ">": 34,
      "?": 35,
      "@": 36,
      "[": 37,
      "]": 38,
      "_": 39,
      "a": 40,
      "b": 41,
      "c": 42,
      "d": 43,
      "e": 44,
      "f": 45,
      "g": 46,
      "h": 47,
      "i": 48,
      "j": 49,
      "k": 50,
      "l": 51,
      "m": 52,
      "n": 53,
      "o": 54,
      "p": 55,
      "q": 56,
      "r": 57,
      "s": 58,
      "t": 59,
      "u": 60,
      "v": 61,
      "w": 62,
      "x": 63,
      "y": 64,
      "z": 65,
      "{": 66,
      "|": 67,
      "}": 68,
      "«": 69,
      "»": 70,
      "¼": 71,
      "½": 72,
      "¾": 73,
      "×": 74,
      "،": 75,
      "؛": 76,
      "؟": 77,
      "ء": 78,
      "ا": 79,
      "ب": 80,
      "ة": 81,
      "ت": 82,
      "ث": 83,
      "ج": 84,
      "ح": 85,
      "خ": 86,
      "د": 87,
      "ذ": 88,
      "ر": 89,
      "ز": 90,
      "س": 91,
      "ش": 92,
      "ص": 93,
      "ض": 94,
      "ط": 95,
      "ظ": 96,
      "ع": 97,
      "غ": 98,
      "ف": 99,
      "ق": 100,
      "ل": 101,
      "م": 102,
      "ن": 103,
      "ه": 104,
      "و": 105,
      "ي": 106,
      "٫": 107,
      "پ": 108,
      "چ": 109,
      "ژ": 110,
      "ک": 111,
      "گ": 112,
      "ی": 113,
      "…": 114,
      "⅛": 115,
      "##ل": 116,
      "##ا": 117,
      "##ی": 118,
      "##ه": 119,
      "##ق": 120,
      "##س": 121,
      "##ت": 122,
      "##م": 123,
      "##پ": 124,
      "##ن": 125,
      "##و": 126,
      "##ج": 127,
      "##ر": 128,
      "##ف": 129,
      "##ب": 130,
      "##ک": 131,
      "##ش": 132,
      "##e": 133,
      "##c": 134,
      "##a": 135,
      "##n": 136,
      "##خ": 137,
      "##ع": 138,
      "##ز": 139,
      "##گ": 140,
      "##د": 141,
      "##w": 142,
      "##l": 143,
      "##y": 144,
      "##i": 145,
      "##p": 146,
      "##s": 147,
      "##v": 148,
      "##m": 149,
      "##t": 150,
      "##ط": 151,
      "##ح": 152,
      "##0": 153,
      "##2": 154,
      "##3": 155,
      "##o": 156,
      "##r": 157,
      "##k": 158,
      "##غ": 159,
      "##9": 160,
      "##5": 161,
      "##7": 162,
      "##g": 163,
      "##d": 164,
      "##ژ": 165,
      "##چ": 166,
      "##ي": 167,
      "##ذ": 168,
      "##ء": 169,
      "##h": 170,
      "##ظ": 171,
      "##ض": 172,
      "##b": 173,
      "##f": 174,
      "##ث": 175,
      "##u": 176,
      "##1": 177,
      "##ص": 178,
      "##ة": 179,
      "##z": 180,
      "##8": 181,
      "##6": 182,
      "##x": 183,
      "##4": 184,
      "##j": 185,
      "##q": 186,
      "##×": 187,
      "##¼": 188,
      "##½": 189,
      "##¾": 190,
      "##ان": 191,
      "##ای": 192,
      "##ست": 193,
      "##ار": 194,
      "در": 195,
      "##ین": 196,
      "##ده": 197,
      "##ال": 198,
      "به": 199,
      "##ند": 200,
      "##ور": 201,
      "از": 202,
      "##ود": 203,
      "می": 204,
      "##ام": 205,
      "##های": 206,
      "با": 207,
      "است": 208,
      "##یر": 209,
      "که": 210,
      "بر": 211,
      "##اد": 212,
      "ان": 213,
      "##اه": 214,
      "##لی": 215,
      "##ری": 216,
      "##رد": 217,
      "##ون": 218,
      "##ات": 219,
      "این": 220,
      "را": 221,
      "##سی": 222,
      "##اب": 223,
      "##وی": 224,
      "##از": 225,
      "یک": 226,
      "##شت": 227,
      "##هر": 228,
      "##ها": 229,
      "##انی": 230,
      "##یت": 231,
      "##ول": 232,
      "##است": 233,
      "ام": 234,
      "##اری": 235,
      "##وان": 236,
      "##یل": 237,
      "##فت": 238,
      "##تر": 239,
      "##زی": 240,
      "##وم": 241,
      "سال": 242,
      "##یم": 243,
      "هم": 244,
      "##ید": 245,
      "##اس": 246,
      "##رو": 247,
      "##دهاست": 248,
      "##هی": 249,
      "شد": 250,
      "فر": 251,
      "بود": 252,
      "رو": 253,
      "##اده": 254,
      "##خت": 255,
      "##گاه": 256,
      "او": 257,
      "##مان": 258,
      "##ستان": 259,
      "##ارد": 260,
      "##نگ": 261,
      "##ایی": 262,
      "من": 263,
      "برای": 264,
      "ال": 265,
      "##رک": 266,
      "شهر": 267,
      "کرد": 268,
      "##را": 269,
      "تو": 270,
      "##گر": 271,
      "##یک": 272,
      "##وت": 273,
      "میش": 274,
      "##کن": 275,
      "اس": 276,
      "تا": 277,
      "##بی": 278,
      "مو": 279,
      "##اق": 280,
      "مح": 281,
      "ای": 282,
      "ایر": 283,
      "##یا": 284,
      "یا": 285,
      "##فر": 286,
      "شدهاست": 287,
      "##بر": 288,
      "خود": 289,
      "نی": 290,
      "سر": 291,
      "مس": 292,
      "##لا": 293,
      "##تی": 294,
      "مع": 295,
      "##یش": 296,
      "##اند": 297,
      "ار": 298,
      "کار": 299,
      "دا": 300,
      "دارد": 301,
      "جم": 302,
      "##ادی": 303,
      "دی": 304,
      "##اش": 305,
      "ایران": 306,
      "قر": 307,
      "##نی": 308,
      "میشود": 309,
      "دو": 310,
      "##وری": 311,
      "##ههای": 312,
      "نم": 313,
      "کر": 314,
      "بازی": 315,
      "باش": 316,
      "وی": 317,
      "##قی": 318,
      "##اخت": 319,
      "##می": 320,
      "##گی": 321,
      "##له": 322,
      "##نده": 323,
      "##ورد": 324,
      "مد": 325,
      "مر": 326,
      "گر": 327,
      "کش": 328,
      "##بال": 329,
      "مت": 330,
      "نو": 331,
      "بی": 332,
      "میک": 333,
      "##اقع": 334,
      "مج": 335,
      "##اره": 336,
      "واقع": 337,
      "##انه": 338,
      "##اک": 339,
      "سی": 340,
      "##وز": 341,
      "نام": 342,
      "##ریک": 343,
      "اب": 344,
      "##ساز": 345,
      "##الی": 346,
      "##مت": 347,
      "##نام": 348,
      "دست": 349,
      "اه": 350,
      "##مین": 351,
      "##شک": 352,
      "##دی": 353,
      "فیل": 354,
      "##خش": 355,
      "کن": 356,
      "داشت": 357,
      "##هرست": 358,
      "##ونی": 359,
      "شده": 360,
      "فهرست": 361,
      "##نوان": 362,
      "##اع": 363,
      "نق": 364,
      "بو": 365,
      "فوت": 366,
      "قرار": 367,
      "##توان": 368,
      "##دا": 369,
      "دان": 370,
      "##زار": 371,
      "ده": 372,
      "فوتبال": 373,
      "##وس": 374,
      "نیز": 375,
      "##نا": 376,
      "##وب": 377,
      "##عیت": 378,
      "امریک": 379,
      "دار": 380,
      "بهع": 381,
      "مق": 382,
      "##الات": 383,
      "اش": 384,
      "فیلم": 385,
      "##عه": 386,
      "توس": 387,
      "##فی": 388,
      "میتوان": 389,
      "نفر": 390,
      "##اح": 391,
      "روست": 392,
      "##در": 393,
      "##گیر": 394,
      "انت": 395,
      "دور": 396,
      "بخش": 397,
      "بهعنوان": 398,
      "هر": 399,
      "عم": 400,
      "##نین": 401,
      "##رب": 402,
      "##امی": 403,
      "##اپ": 404,
      "##که": 405,
      "##وش": 406,
      "همچ": 407,
      "ات": 408,
      "میکند": 409,
      "##گان": 410,
      "##عد": 411,
      "استف": 412,
      "##شم": 413,
      "بین": 414,
      "نظ": 415,
      "انها": 416,
      "##وه": 417,
      "##طق": 418,
      "استفاده": 419,
      "اد": 420,
      "ساخت": 421,
      "پر": 422,
      "شم": 423,
      "اص": 424,
      "##وند": 425,
      "جمعیت": 426,
      "اف": 427,
      "اث": 428,
      "کم": 429,
      "##ایش": 430,
      "##زر": 431,
      "##بار": 432,
      "##فته": 433,
      "جه": 434,
      "یکی": 435,
      "##بان": 436,
      "داد": 437,
      "##اف": 438,
      "مش": 439,
      "کشور": 440,
      "##جه": 441,
      "##مد": 442,
      "##ورت": 443,
      "توسط": 444,
      "تر": 445,
      "پای": 446,
      "اع": 447,
      "پیش": 448,
      "تح": 449,
      "اج": 450,
      "##به": 451,
      "امریکا": 452,
      "##بت": 453,
      "باشگاه": 454,
      "پساز": 455,
      "نش": 456,
      "شهرستان": 457,
      "مرک": 458,
      "##جود": 459,
      "انج": 460,
      "##عی": 461,
      "تاری": 462,
      "##ترین": 463,
      "##هایی": 464,
      "هست": 465,
      "زیر": 466,
      "میب": 467,
      "ملی": 468,
      "اول": 469,
      "اهل": 470,
      "دیگر": 471,
      "جن": 472,
      "استان": 473,
      "##رکت": 474,
      "##وک": 475,
      "##يی": 476,
      "شهرهای": 477,
      "##تاب": 478,
      "خان": 479,
      "تاریخ": 480,
      "عل": 481,
      "##انس": 482,
      "##من": 483,
      "##شته": 484,
      "##اص": 485,
      "دانش": 486,
      "میل": 487,
      "مه": 488,
      "انگ": 489,
      "پی": 490,
      "##وار": 491,
      "همچنین": 492,
      "19": 493,
      "روی": 494,
      "##امل": 495,
      "مرد": 496,
      "منطق": 497,
      "##رف": 498,
      "##اید": 499,
      "اما": 500,
      "##گرد": 501,
      "##مانی": 502,
      "شک": 503,
      "##خص": 504,
      "13": 505,
      "##نج": 506,
      "کل": 507,
      "زاده": 508,
      "##گذ": 509,
      "باز": 510,
      "ساز": 511,
      "##حده": 512,
      "ایالات": 513,
      "بزر": 514,
      "##هنگ": 515,
      "##کی": 516,
      "بد": 517,
      "##اط": 518,
      "##متحده": 519,
      "ایالاتمتحده": 520,
      "کتاب": 521,
      "بسی": 522,
      "اق": 523,
      "##مل": 524,
      "میباش": 525,
      "##ایت": 526,
      "##شی": 527,
      "روز": 528,
      "اک": 529,
      "مورد": 530,
      "تن": 531,
      "##ارک": 532,
      "شر": 533,
      "کو": 534,
      "##مو": 535,
      "شرکت": 536,
      "نقش": 537,
      "##وا": 538,
      "##ینی": 539,
      "##واه": 540,
      "20": 541,
      "##نامه": 542,
      "##لس": 543,
      "ارت": 544,
      "اح": 545,
      "چه": 546,
      "##این": 547,
      "##سر": 548,
      "تیم": 549,
      "هن": 550,
      "بل": 551,
      "زی": 552,
      "##یه": 553,
      "بودهاست": 554,
      "اشاره": 555,
      "هستند": 556,
      "گرو": 557,
      "##زه": 558,
      "باشد": 559,
      "سپ": 560,
      "وجود": 561,
      "میباشد": 562,
      "میلادی": 563,
      "زبان": 564,
      "جنگ": 565,
      "اند": 566,
      "##انند": 567,
      "بزرگ": 568,
      "##دار": 569,
      "تص": 570,
      "##مه": 571,
      "##شن": 572,
      "##رات": 573,
      "فرهنگ": 574,
      "##ره": 575,
      "گرفت": 576,
      "ترک": 577,
      "رس": 578,
      "##زد": 579,
      "##لو": 580,
      "##الت": 581,
      "نس": 582,
      "##اهی": 583,
      "سو": 584,
      "##کار": 585,
      "بن": 586,
      "تم": 587,
      "دریا": 588,
      "میکن": 589,
      "منت": 590,
      "انگلی": 591,
      "میده": 592,
      "روستا": 593,
      "زند": 594,
      "کند": 595,
      "##ابق": 596,
      "گرد": 597,
      "##بد": 598,
      "سه": 599,
      "چند": 600,
      "##تم": 601,
      "##رس": 602,
      "بیشت": 603,
      "زمان": 604,
      "##خی": 605,
      "سط": 606,
      "زمین": 607,
      "##رز": 608,
      "دانشگاه": 609,
      "##ویس": 610,
      "کردهاست": 611,
      "فع": 612,
      "بال": 613,
      "##لام": 614,
      "##قل": 615,
      "جای": 616,
      "##ابر": 617,
      "##ارت": 618,
      "زادهی": 619,
      "##طور": 620,
      "##اتی": 621,
      "مجمو": 622,
      "هی": 623,
      "مک": 624,
      "کرده": 625,
      "ری": 626,
      "حس": 627,
      "##گری": 628,
      "مص": 629,
      "##ربی": 630,
      "متر": 631,
      "دوم": 632,
      "##دید": 633,
      "کیل": 634,
      "مط": 635,
      "انگلیسی": 636,
      "##شر": 637,
      "##ونه": 638,
      "##حی": 639,
      "##ادر": 640,
      "##لید": 641,
      "اغ": 642,
      "نخ": 643,
      "##رم": 644,
      "##اخ": 645,
      "لی": 646,
      "##ندی": 647,
      "##گیری": 648,
      "##شتی": 649,
      "اط": 650,
      "اخ": 651,
      "شن": 652,
      "انجام": 653,
      "تق": 654,
      "مرب": 655,
      "بار": 656,
      "##ابل": 657,
      "تج": 658,
      "##چه": 659,
      "علی": 660,
      "##ومی": 661,
      "شود": 662,
      "تل": 663,
      "سطح": 664,
      "##سته": 665,
      "شه": 666,
      "بیشتر": 667,
      "فعال": 668,
      "داده": 669,
      "بعد": 670,
      "##جی": 671,
      "میکنند": 672,
      "مرکز": 673,
      "##دن": 674,
      "حد": 675,
      "##لیل": 676,
      "##کر": 677,
      "سن": 678,
      "راه": 679,
      "دول": 680,
      "فرانس": 681,
      "طول": 682,
      "##نه": 683,
      "##فه": 684,
      "##شده": 685,
      "##ابع": 686,
      "نیر": 687,
      "##ودی": 688,
      "##وط": 689,
      "گل": 690,
      "شور": 691,
      "بازیکن": 692,
      "سازمان": 693,
      "##هران": 694,
      "شاه": 695,
      "محمد": 696,
      "زن": 697,
      "##هم": 698,
      "##هاست": 699,
      "جام": 700,
      "##اي": 701,
      "اثار": 702,
      "کیلوم": 703,
      "##برد": 704,
      "##انیا": 705,
      "##ستر": 706,
      "چهار": 707,
      "##اور": 708,
      "مانند": 709,
      "فرود": 710,
      "##صورت": 711,
      "دارای": 712,
      "قب": 713,
      "##دهای": 714,
      "فار": 715,
      "تهران": 716,
      "پرو": 717,
      "خط": 718,
      "گروه": 719,
      "##شار": 720,
      "شی": 721,
      "تع": 722,
      "سل": 723,
      "##با": 724,
      "##ستم": 725,
      "داشته": 726,
      "مل": 727,
      "مسک": 728,
      "##خاب": 729,
      "##یمی": 730,
      "##سان": 731,
      "تولید": 732,
      "گذ": 733,
      "##غی": 734,
      "مید": 735,
      "میان": 736,
      "بودند": 737,
      "##ضی": 738,
      "##او": 739,
      "بهطور": 740,
      "##حال": 741,
      "دهستان": 742,
      "شب": 743,
      "##امبر": 744,
      "##عات": 745,
      "دوره": 746,
      "غیر": 747,
      "##ازی": 748,
      "میدهد": 749,
      "حم": 750,
      "ماه": 751,
      "مست": 752,
      "##ینگ": 753,
      "##بری": 754,
      "##یکی": 755,
      "##ولی": 756,
      "##ایل": 757,
      "##فا": 758,
      "##سید": 759,
      "هو": 760,
      "##ختل": 761,
      "اسپ": 762,
      "نخست": 763,
      "میشوند": 764,
      "##ایر": 765,
      "مث": 766,
      "اولین": 767,
      "قط": 768,
      "اصلی": 769,
      "اثر": 770,
      "##وبی": 771,
      "معم": 772,
      "##وق": 773,
      "المان": 774,
      "انتخاب": 775,
      "##ژه": 776,
      "##ضا": 777,
      "اور": 778,
      "نشان": 779,
      "بسیار": 780,
      "برگ": 781,
      "##کت": 782,
      "##رین": 783,
      "مسکونی": 784,
      "مردم": 785,
      "بهصورت": 786,
      "##er": 787,
      "خواه": 788,
      "جان": 789,
      "##گو": 790,
      "##شماری": 791,
      "##المل": 792,
      "جهان": 793,
      "##راه": 794,
      "##ناسی": 795,
      "اگر": 796,
      "شامل": 797,
      "##ضو": 798,
      "##قیق": 799,
      "فرودگاه": 800,
      "میکرد": 801,
      "##ما": 802,
      "کوچ": 803,
      "##شان": 804,
      "موسی": 805,
      "##کان": 806,
      "مرکزی": 807,
      "##يیس": 808,
      "##کس": 809,
      "ایت": 810,
      "بیم": 811,
      "منطقه": 812,
      "کردن": 813,
      "##سازی": 814,
      "##انت": 815,
      "نظر": 816,
      "منتشر": 817,
      "##اج": 818,
      "بع": 819,
      "دارند": 820,
      "جز": 821,
      "##عت": 822,
      "زندگی": 823,
      "ایج": 824,
      "##ازه": 825,
      "حک": 826,
      "سرشماری": 827,
      "##ندگان": 828,
      "مخ": 829,
      "کیلومتر": 830,
      "برخی": 831,
      "فعالیت": 832,
      "##ویی": 833,
      "بینالمل": 834,
      "منطقهی": 835,
      "یافت": 836,
      "رفت": 837,
      "اسل": 838,
      "کردند": 839,
      "##یکه": 840,
      "ایجاد": 841,
      "##الیا": 842,
      "##کتر": 843,
      "##لق": 844,
      "صن": 845,
      "##هوری": 846,
      "سب": 847,
      "##صد": 848,
      "##غییر": 849,
      "قل": 850,
      "##شد": 851,
      "تغییر": 852,
      "ساخته": 853,
      "اغاز": 854,
      "##ریق": 855,
      "مختل": 856,
      "##دم": 857,
      "دولت": 858,
      "فی": 859,
      "کلی": 860,
      "جمهوری": 861,
      "مم": 862,
      "وا": 863,
      "مسابق": 864,
      "##مای": 865,
      "پیر": 866,
      "##کو": 867,
      "بهنام": 868,
      "باید": 869,
      "##ابی": 870,
      "##یره": 871,
      "گفت": 872,
      "##ستی": 873,
      "ایرانی": 874,
      "بینالمللی": 875,
      "##صل": 876,
      "برابر": 877,
      "##شناسی": 878,
      "200": 879,
      "شکل": 880,
      "خار": 881,
      "شدن": 882,
      "دل": 883,
      "سری": 884,
      "نه": 885,
      "##دهی": 886,
      "نزد": 887,
      "سین": 888,
      "بریت": 889,
      "کارگرد": 890,
      "فرانسه": 891,
      "شخص": 892,
      "##سیس": 893,
      "##جر": 894,
      "##ژی": 895,
      "جو": 896,
      "مار": 897,
      "ولی": 898,
      "پنج": 899,
      "ممکن": 900,
      "ارو": 901,
      "اسلامی": 902,
      "افز": 903,
      "مین": 904,
      "جهانی": 905,
      "روستایی": 906,
      "##پی": 907,
      "##نت": 908,
      "شدند": 909,
      "تشک": 910,
      "حق": 911,
      "##ایج": 912,
      "##in": 913,
      "##یشه": 914,
      "بهد": 915,
      "کان": 916,
      "اطلا": 917,
      "خوان": 918,
      "بسیاری": 919,
      "##an": 920,
      "نیست": 921,
      "سیستم": 922,
      "##یده": 923,
      "جدید": 924,
      "##اساس": 925,
      "هنر": 926,
      "نمایش": 927,
      "ما": 928,
      "##on": 929,
      "بالات": 930,
      "اینکه": 931,
      "##سب": 932,
      "میشد": 933,
      "##جمه": 934,
      "##اخته": 935,
      "##یری": 936,
      "##سه": 937,
      "##اعی": 938,
      "نمای": 939,
      "##احت": 940,
      "حوز": 941,
      "تنها": 942,
      "میتواند": 943,
      "##ولا": 944,
      "میر": 945,
      "جمله": 946,
      "تشکیل": 947,
      "##وهای": 948,
      "ترکی": 949,
      "بوده": 950,
      "روش": 951,
      "اذ": 952,
      "##صی": 953,
      "##امه": 954,
      "گرفته": 955,
      "نویس": 956,
      "کام": 957,
      "##داری": 958,
      "##ران": 959,
      "بیش": 960,
      "وق": 961,
      "##اسی": 962,
      "امار": 963,
      "201": 964,
      "##راي": 965,
      "تعد": 966,
      "قدر": 967,
      "مدیر": 968,
      "مساحت": 969,
      "موسیقی": 970,
      "کی": 971,
      "سنگ": 972,
      "##ریان": 973,
      "##وید": 974,
      "ريیس": 975,
      "##فق": 976,
      "##ومت": 977,
      "حدود": 978,
      "افر": 979,
      "فل": 980,
      "سیارک": 981,
      "اقت": 982,
      "##ورش": 983,
      "میلی": 984,
      "سف": 985,
      "اسی": 986,
      "همان": 987,
      "حض": 988,
      "خی": 989,
      "##ندهی": 990,
      "##بط": 991,
      "##داشت": 992,
      "##ویزی": 993,
      "نمود": 994,
      "هند": 995,
      "##ونت": 996,
      "هنگ": 997,
      "##گذاری": 998,
      "##انک": 999,
      "دن": 1000,
      "پرد": 1001,
      "تلویزی": 1002,
      "##ضای": 1003,
      "##رسی": 1004,
      "##سم": 1005,
      "مربوط": 1006,
      "ست": 1007,
      "نخستین": 1008,
      "میز": 1009,
      "طب": 1010,
      "##بود": 1011,
      "تک": 1012,
      "سوم": 1013,
      "بازیگر": 1014,
      "##خانه": 1015,
      "##شاه": 1016,
      "##وست": 1017,
      "برنامه": 1018,
      "سیا": 1019,
      "فرو": 1020,
      "ورز": 1021,
      "##صر": 1022,
      "خانوار": 1023,
      "تحت": 1024,
      "##لاح": 1025,
      "ور": 1026,
      "مجموع": 1027,
      "قهر": 1028,
      "##ینه": 1029,
      "دید": 1030,
      "اجر": 1031,
      "##پا": 1032,
      "دوران": 1033,
      "پار": 1034,
      "رود": 1035,
      "کنند": 1036,
      "مجموعه": 1037,
      "فرد": 1038,
      "صف": 1039,
      "##گز": 1040,
      "مختلف": 1041,
      "اساس": 1042,
      "اخت": 1043,
      "فرمان": 1044,
      "توان": 1045,
      "خانو": 1046,
      "بالاتر": 1047,
      "یون": 1048,
      "##ویه": 1049,
      "هزار": 1050,
      "##اباد": 1051,
      "قان": 1052,
      "##بور": 1053,
      "##تو": 1054,
      "##ایع": 1055,
      "کشتی": 1056,
      "نسبت": 1057,
      "میگیر": 1058,
      "پاد": 1059,
      "همه": 1060,
      "##لب": 1061,
      "اموز": 1062,
      "صورت": 1063,
      "کوچک": 1064,
      "##الد": 1065,
      "##دام": 1066,
      "شیر": 1067,
      "داست": 1068,
      "##نو": 1069,
      "توابع": 1070,
      "##اگ": 1071,
      "عمل": 1072,
      "نوع": 1073,
      "##راف": 1074,
      "پایان": 1075,
      "ژاپ": 1076,
      "داخ": 1077,
      "تاسیس": 1078,
      "##وف": 1079,
      "پل": 1080,
      "##یدی": 1081,
      "##ستانی": 1082,
      "##وي": 1083,
      "نگ": 1084,
      "بریتانیا": 1085,
      "##یدا": 1086,
      "##پر": 1087,
      "حوزه": 1088,
      "##عث": 1089,
      "وز": 1090,
      "افت": 1091,
      "حضور": 1092,
      "##یتی": 1093,
      "مهم": 1094,
      "براساس": 1095,
      "##اشی": 1096,
      "بیشاز": 1097,
      "الب": 1098,
      "پدر": 1099,
      "باعث": 1100,
      "هد": 1101,
      "قد": 1102,
      "##رح": 1103,
      "##ذیر": 1104,
      "##فاع": 1105,
      "طرا": 1106,
      "رسید": 1107,
      "هیچ": 1108,
      "بهدلیل": 1109,
      "فرهنگی": 1110,
      "##اض": 1111,
      "##کل": 1112,
      "شهری": 1113,
      "اقتص": 1114,
      "بهترین": 1115,
      "رای": 1116,
      "سپس": 1117,
      "ابت": 1118,
      "تمام": 1119,
      "جایزه": 1120,
      "حال": 1121,
      "ول": 1122,
      "فق": 1123,
      "##رخ": 1124,
      "سیاسی": 1125,
      "نور": 1126,
      "شناخته": 1127,
      "شع": 1128,
      "روسی": 1129,
      "##جم": 1130,
      "کشف": 1131,
      "مجلس": 1132,
      "جنوب": 1133,
      "ثبت": 1134,
      "##or": 1135,
      "امریکایی": 1136,
      "شمال": 1137,
      "##سل": 1138,
      "قابل": 1139,
      "وب": 1140,
      "هنگام": 1141,
      "انتشار": 1142,
      "وارد": 1143,
      "##کنون": 1144,
      "خانواده": 1145,
      "ایتالیا": 1146,
      "##چی": 1147,
      "##ندان": 1148,
      "کمک": 1149,
      "##واست": 1150,
      "ژان": 1151,
      "ارد": 1152,
      "افزایش": 1153,
      "##نان": 1154,
      "یاد": 1155,
      "##امد": 1156,
      "##ویت": 1157,
      "طی": 1158,
      "##ابت": 1159,
      "##بانی": 1160,
      "لغ": 1161,
      "عنوان": 1162,
      "کوه": 1163,
      "##دها": 1164,
      "##سیم": 1165,
      "##ar": 1166,
      "##سن": 1167,
      "##سال": 1168,
      "##تا": 1169,
      "اعلام": 1170,
      "مسابقات": 1171,
      "دری": 1172,
      "##he": 1173,
      "توجه": 1174,
      "سالهای": 1175,
      "دربار": 1176,
      "ره": 1177,
      "فارسی": 1178,
      "##باط": 1179,
      "رنگ": 1180,
      "هفت": 1181,
      "جنوبی": 1182,
      "پیشاز": 1183,
      "مرگ": 1184,
      "داستان": 1185,
      "##لند": 1186,
      "##اتین": 1187,
      "گی": 1188,
      "گستر": 1189,
      "زنان": 1190,
      "موارد": 1191,
      "زیادی": 1192,
      "مغ": 1193,
      "موس": 1194,
      "##صول": 1195,
      "گفته": 1196,
      "بدون": 1197,
      "دخ": 1198,
      "حز": 1199,
      "الم": 1200,
      "##دان": 1201,
      "لو": 1202,
      "##خان": 1203,
      "اطلاعات": 1204,
      "کود": 1205,
      "اجتم": 1206,
      "ناح": 1207,
      "یع": 1208,
      "##اران": 1209,
      "##es": 1210,
      "دریافت": 1211,
      "زمانی": 1212,
      "مرا": 1213,
      "چاپ": 1214,
      "مربع": 1215,
      "کا": 1216,
      "نتی": 1217,
      "##کننده": 1218,
      "سید": 1219,
      "غربی": 1220,
      "طبق": 1221,
      "کری": 1222,
      "##مر": 1223,
      "قبل": 1224,
      "طبی": 1225,
      "تعداد": 1226,
      "درحال": 1227,
      "##سون": 1228,
      "قس": 1229,
      "##ولد": 1230,
      "##en": 1231,
      "محل": 1232,
      "خر": 1233,
      "طریق": 1234,
      "##طی": 1235,
      "الی": 1236,
      "##یند": 1237,
      "انسان": 1238,
      "شیمی": 1239,
      "##روف": 1240,
      "##مز": 1241,
      "عربی": 1242,
      "نوشت": 1243,
      "##بدیل": 1244,
      "درگذ": 1245,
      "##واره": 1246,
      "تبدیل": 1247,
      "انتق": 1248,
      "موفق": 1249,
      "عمومی": 1250,
      "##زشک": 1251,
      "له": 1252,
      "نیاز": 1253,
      "فصل": 1254,
      "سلط": 1255,
      "ادامه": 1256,
      "خاص": 1257,
      "کاه": 1258,
      "بهکار": 1259,
      "مواد": 1260,
      "علوم": 1261,
      "قرن": 1262,
      "بههم": 1263,
      "کد": 1264,
      "دیگری": 1265,
      "صد": 1266,
      "افراد": 1267,
      "محصول": 1268,
      "کارگردانی": 1269,
      "معمولا": 1270,
      "پسر": 1271,
      "رسمی": 1272,
      "##بل": 1273,
      "##کرد": 1274,
      "##ثیر": 1275,
      "بنی": 1276,
      "شرقی": 1277,
      "سیاست": 1278,
      "شرو": 1279,
      "مسي": 1280,
      "##لاف": 1281,
      "##کاری": 1282,
      "لاتین": 1283,
      "##ریف": 1284,
      "مشت": 1285,
      "شورای": 1286,
      "خواهد": 1287,
      "گو": 1288,
      "موجود": 1289,
      "##شهای": 1290,
      "##تن": 1291,
      "رق": 1292,
      "قسمت": 1293,
      "تلویزیونی": 1294,
      "تاب": 1295,
      "ارتباط": 1296,
      "138": 1297,
      "##باس": 1298,
      "قانون": 1299,
      "عضو": 1300,
      "بالا": 1301,
      "شمار": 1302,
      "مدال": 1303,
      "##al": 1304,
      "سمت": 1305,
      "سوی": 1306,
      "##صیل": 1307,
      "امپ": 1308,
      "##غان": 1309,
      "چون": 1310,
      "یعنی": 1311,
      "جشن": 1312,
      "حزب": 1313,
      "باشگاههایی": 1314,
      "اجتماعی": 1315,
      "##فاوت": 1316,
      "نظامی": 1317,
      "ژاپن": 1318,
      "##تری": 1319,
      "نیم": 1320,
      "اتح": 1321,
      "امرو": 1322,
      "روستای": 1323,
      "##وده": 1324,
      "##وریه": 1325,
      "مذ": 1326,
      "چی": 1327,
      "نیروهای": 1328,
      "مطال": 1329,
      "ازاد": 1330,
      "ایالت": 1331,
      "صح": 1332,
      "محد": 1333,
      "فرز": 1334,
      "##ثر": 1335,
      "جریان": 1336,
      "##وسی": 1337,
      "شروع": 1338,
      "همراه": 1339,
      "انقل": 1340,
      "کوت": 1341,
      "عبد": 1342,
      "نسخ": 1343,
      "##ایه": 1344,
      "معین": 1345,
      "199": 1346,
      "##شکل": 1347,
      "##ولو": 1348,
      "گزار": 1349,
      "اذرب": 1350,
      "ترکیب": 1351,
      "حکومت": 1352,
      "خورش": 1353,
      "جهت": 1354,
      "پیدا": 1355,
      "جل": 1356,
      "برخ": 1357,
      "اهنگ": 1358,
      "اذربایج": 1359,
      "تاریخی": 1360,
      "روسیه": 1361,
      "خانه": 1362,
      "##ارستان": 1363,
      "اروپا": 1364,
      "میگیرد": 1365,
      "شدهاند": 1366,
      "میخ": 1367,
      "تهی": 1368,
      "کاهش": 1369,
      "##at": 1370,
      "اسک": 1371,
      "عبار": 1372,
      "انجا": 1373,
      "ند": 1374,
      "خد": 1375,
      "چشم": 1376,
      "دربارهی": 1377,
      "##میت": 1378,
      "ابر": 1379,
      "سام": 1380,
      "دستی": 1381,
      "اراي": 1382,
      "منا": 1383,
      "##اسب": 1384,
      "##is": 1385,
      "تور": 1386,
      "قدرت": 1387,
      "البوم": 1388,
      "طراحی": 1389,
      "اورد": 1390,
      "علمی": 1391,
      "تاثیر": 1392,
      "امن": 1393,
      "لغت": 1394,
      "تب": 1395,
      "مشخص": 1396,
      "پزشک": 1397,
      "مرت": 1398,
      "های": 1399,
      "##ic": 1400,
      "نتیجه": 1401,
      "معر": 1402,
      "شکست": 1403,
      "##ریه": 1404,
      "تخ": 1405,
      "ناحیه": 1406,
      "##اعت": 1407,
      "دختر": 1408,
      "##سک": 1409,
      "تف": 1410,
      "##الله": 1411,
      "##بیر": 1412,
      "##نش": 1413,
      "##اله": 1414,
      "##مع": 1415,
      "پلی": 1416,
      "گون": 1417,
      "شمالی": 1418,
      "##سا": 1419,
      "##زیک": 1420,
      "کنتر": 1421,
      "بیر": 1422,
      "پاس": 1423,
      "ارايه": 1424,
      "نزدیک": 1425,
      "##سانی": 1426,
      "عملی": 1427,
      "##نظ": 1428,
      "کنار": 1429,
      "پژ": 1430,
      "تش": 1431,
      "##نای": 1432,
      "توسعه": 1433,
      "همین": 1434,
      "مدت": 1435,
      "نیروی": 1436,
      "ارز": 1437,
      "برگزار": 1438,
      "ازم": 1439,
      "حتی": 1440,
      "##بندی": 1441,
      "ارتش": 1442,
      "##نز": 1443,
      "چین": 1444,
      "استر": 1445,
      "میدان": 1446,
      "دم": 1447,
      "سابق": 1448,
      "طرف": 1449,
      "##وزی": 1450,
      "the": 1451,
      "بیماری": 1452,
      "نوشته": 1453,
      "مشه": 1454,
      "گردش": 1455,
      "مسل": 1456,
      "اسلام": 1457,
      "##دری": 1458,
      "تهیه": 1459,
      "برد": 1460,
      "##ندگی": 1461,
      "حقوق": 1462,
      "##دهم": 1463,
      "##لیه": 1464,
      "محم": 1465,
      "##تل": 1466,
      "میلیون": 1467,
      "ویر": 1468,
      "##وپ": 1469,
      "##قر": 1470,
      "جوان": 1471,
      "##طه": 1472,
      "##زمین": 1473,
      "کال": 1474,
      "##افظ": 1475,
      "##it": 1476,
      "موضو": 1477,
      "عبارت": 1478,
      "نف": 1479,
      "امپرات": 1480,
      "##حه": 1481,
      "گردید": 1482,
      "139": 1483,
      "امد": 1484,
      "قبلاز": 1485,
      "##واج": 1486,
      "ادبی": 1487,
      "مناطق": 1488,
      "میگ": 1489,
      "##اسان": 1490,
      "مدل": 1491,
      "صنایع": 1492,
      "##وال": 1493,
      "##اکی": 1494,
      "اکت": 1495,
      "##نامههای": 1496,
      "##اتر": 1497,
      "##گردد": 1498,
      "##میم": 1499,
      "##قیم": 1500,
      "اذربایجان": 1501,
      "کنترل": 1502,
      "حمله": 1503,
      "##اطر": 1504,
      "بررسی": 1505,
      "تی": 1506,
      "##ایند": 1507,
      "بههمراه": 1508,
      "عر": 1509,
      "ها": 1510,
      "حالت": 1511,
      "##سین": 1512,
      "لیگ": 1513,
      "##جا": 1514,
      "پایه": 1515,
      "احمد": 1516,
      "مهند": 1517,
      "##انگ": 1518,
      "مدرس": 1519,
      "##تون": 1520,
      "##کا": 1521,
      "اموزش": 1522,
      "دستگاه": 1523,
      "##باره": 1524,
      "##جو": 1525,
      "کسب": 1526,
      "##سیون": 1527,
      "پرداخت": 1528,
      "مال": 1529,
      "دقیق": 1530,
      "همچون": 1531,
      "شبکه": 1532,
      "افغان": 1533,
      "هدف": 1534,
      "##وص": 1535,
      "هشت": 1536,
      "احتم": 1537,
      "ماده": 1538,
      "مالی": 1539,
      "انقلاب": 1540,
      "##امین": 1541,
      "ویژ": 1542,
      "موت": 1543,
      "##رید": 1544,
      "برج": 1545,
      "##لهی": 1546,
      "##وین": 1547,
      "حسین": 1548,
      "انگل": 1549,
      "سایر": 1550,
      "##گونه": 1551,
      "##اسم": 1552,
      "علا": 1553,
      "میرس": 1554,
      "مای": 1555,
      "تای": 1556,
      "بودن": 1557,
      "دنیا": 1558,
      "گونه": 1559,
      "تحقیق": 1560,
      "پوش": 1561,
      "جامعه": 1562,
      "پژوه": 1563,
      "نویسنده": 1564,
      "##اپیم": 1565,
      "تقسیم": 1566,
      "لهستان": 1567,
      "##لم": 1568,
      "نسبتبه": 1569,
      "مادر": 1570,
      "کامل": 1571,
      "چنین": 1572,
      "محی": 1573,
      "تلا": 1574,
      "کمی": 1575,
      "##ندر": 1576,
      "##بین": 1577,
      "دهه": 1578,
      "عرا": 1579,
      "گزارش": 1580,
      "میرا": 1581,
      "الکتر": 1582,
      "درصد": 1583,
      "پس": 1584,
      "##ed": 1585,
      "مول": 1586,
      "تحصیل": 1587,
      "رسی": 1588,
      "##ادا": 1589,
      "طبیعی": 1590,
      "قم": 1591,
      "ارتفاع": 1592,
      "غرب": 1593,
      "##انهای": 1594,
      "اسپانیا": 1595,
      "##ویش": 1596,
      "داشتهاست": 1597,
      "حرکت": 1598,
      "مقام": 1599,
      "تصو": 1600,
      "بح": 1601,
      "وزار": 1602,
      "##پرد": 1603,
      "بخشی": 1604,
      "موج": 1605,
      "سخ": 1606,
      "فقط": 1607,
      "##وله": 1608,
      "ازد": 1609,
      "##زاده": 1610,
      "بازار": 1611,
      "میرود": 1612,
      "##حد": 1613,
      "معروف": 1614,
      "##تق": 1615,
      "یه": 1616,
      "وزارت": 1617,
      "##ارهای": 1618,
      "مان": 1619,
      "مور": 1620,
      "##تیب": 1621,
      "غذ": 1622,
      "سا": 1623,
      "##سو": 1624,
      "یو": 1625,
      "فلس": 1626,
      "سرد": 1627,
      "##الب": 1628,
      "خارج": 1629,
      "عد": 1630,
      "خبر": 1631,
      "ندارد": 1632,
      "په": 1633,
      "##ابه": 1634,
      "##وع": 1635,
      "موق": 1636,
      "کشورهای": 1637,
      "##رژی": 1638,
      "امکان": 1639,
      "درجه": 1640,
      "##لاق": 1641,
      "اجرا": 1642,
      "میراث": 1643,
      "باشند": 1644,
      "درگذشت": 1645,
      "بهخ": 1646,
      "انگلستان": 1647,
      "##ادل": 1648,
      "کرمان": 1649,
      "رابط": 1650,
      "بیان": 1651,
      "میدهند": 1652,
      "سیاه": 1653,
      "چندین": 1654,
      "اپ": 1655,
      "خاک": 1656,
      "حرف": 1657,
      "حمل": 1658,
      "گرم": 1659,
      "خص": 1660,
      "مرح": 1661,
      "بنا": 1662,
      "مثال": 1663,
      "##ورک": 1664,
      "##ويی": 1665,
      "رشته": 1666,
      "منابع": 1667,
      "مهر": 1668,
      "مشکل": 1669,
      "بنابر": 1670,
      "##الدین": 1671,
      "شخصیت": 1672,
      "طرح": 1673,
      "پن": 1674,
      "زمینه": 1675,
      "هواپیم": 1676,
      "##گن": 1677,
      "برادر": 1678,
      "دکتر": 1679,
      "##گران": 1680,
      "تي": 1681,
      "نرم": 1682,
      "بهمن": 1683,
      "واح": 1684,
      "ساعت": 1685,
      "اسم": 1686,
      "انرژی": 1687,
      "حی": 1688,
      "شرای": 1689,
      "##فظ": 1690,
      "سیم": 1691,
      "سبک": 1692,
      "کاربرد": 1693,
      "بازیهای": 1694,
      "مقابل": 1695,
      "داشتند": 1696,
      "جد": 1697,
      "ساختمان": 1698,
      "نگه": 1699,
      "بازگ": 1700,
      "سپت": 1701,
      "##قب": 1702,
      "شیمیایی": 1703,
      "هج": 1704,
      "دستور": 1705,
      "##يت": 1706,
      "مدیریت": 1707,
      "سفر": 1708,
      "##عا": 1709,
      "تیر": 1710,
      "بخ": 1711,
      "مارس": 1712,
      "استاد": 1713,
      "افغانستان": 1714,
      "اشک": 1715,
      "ازدواج": 1716,
      "دام": 1717,
      "ایل": 1718,
      "##باز": 1719,
      "##علی": 1720,
      "اعضای": 1721,
      "گردشگری": 1722,
      "معرفی": 1723,
      "اقتصادی": 1724,
      "ابتدا": 1725,
      "سپتامبر": 1726,
      "جی": 1727,
      "ابی": 1728,
      "دهد": 1729,
      "##ویان": 1730,
      "##رافی": 1731,
      "##ابد": 1732,
      "##اضر": 1733,
      "قهرمانی": 1734,
      "##داد": 1735,
      "##ژن": 1736,
      "ویکی": 1737,
      "پاک": 1738,
      "##اشت": 1739,
      "انان": 1740,
      "احتمال": 1741,
      "انجمن": 1742,
      "روم": 1743,
      "شرق": 1744,
      "همکاری": 1745,
      "هز": 1746,
      "دین": 1747,
      "##خته": 1748,
      "اشت": 1749,
      "نب": 1750,
      "کردهاند": 1751,
      "شددر": 1752,
      "##ازم": 1753,
      "نا": 1754,
      "مها": 1755,
      "عراق": 1756,
      "حسن": 1757,
      "اوت": 1758,
      "میکردند": 1759,
      "ارم": 1760,
      "وبگاه": 1761,
      "##گانی": 1762,
      "مب": 1763,
      "اکتبر": 1764,
      "کشته": 1765,
      "مف": 1766,
      "قهرمان": 1767,
      "فروش": 1768,
      "##نر": 1769,
      "سک": 1770,
      "امام": 1771,
      "اصفه": 1772,
      "مثل": 1773,
      "##پیک": 1774,
      "##لت": 1775,
      "ازمایش": 1776,
      "اخرین": 1777,
      "فرانسوی": 1778,
      "موضوع": 1779,
      "شش": 1780,
      "کور": 1781,
      "زیرا": 1782,
      "##انو": 1783,
      "##انا": 1784,
      "هنری": 1785,
      "پایین": 1786,
      "ترجمه": 1787,
      "پذیر": 1788,
      "المانی": 1789,
      "محیط": 1790,
      "پزشکی": 1791,
      "شوروی": 1792,
      "ایست": 1793,
      "برنامههای": 1794,
      "داخلی": 1795,
      "میزان": 1796,
      "##وانی": 1797,
      "وسی": 1798,
      "شوند": 1799,
      "##نس": 1800,
      "محلی": 1801,
      "فاص": 1802,
      "198": 1803,
      "##یار": 1804,
      "##وين": 1805,
      "##us": 1806,
      "خوش": 1807,
      "درحالیکه": 1808,
      "اقدام": 1809,
      "وس": 1810,
      "##وریت": 1811,
      "##اوی": 1812,
      "تصمیم": 1813,
      "مام": 1814,
      "##گذار": 1815,
      "##گار": 1816,
      "##ههایی": 1817,
      "مخال": 1818,
      "وض": 1819,
      "برخورد": 1820,
      "مسی": 1821,
      "##انیایی": 1822,
      "##غول": 1823,
      "اتش": 1824,
      "جلو": 1825,
      "دس": 1826,
      "جدا": 1827,
      "وزیر": 1828,
      "##نگی": 1829,
      "کوتاه": 1830,
      "سرزمین": 1831,
      "موتور": 1832,
      "استخ": 1833,
      "حمایت": 1834,
      "فرزند": 1835,
      "تقری": 1836,
      "##اسا": 1837,
      "اغلب": 1838,
      "##مایی": 1839,
      "مسیر": 1840,
      "ترکیه": 1841,
      "##لیت": 1842,
      "خودرو": 1843,
      "شعر": 1844,
      "محدود": 1845,
      "سع": 1846,
      "##جد": 1847,
      "تصویر": 1848,
      "18": 1849,
      "##ابان": 1850,
      "رشد": 1851,
      "##واع": 1852,
      "خون": 1853,
      "##وران": 1854,
      "پخش": 1855,
      "مشغول": 1856,
      "کاربر": 1857,
      "##مند": 1858,
      "عه": 1859,
      "اض": 1860,
      "همسر": 1861,
      "کشاور": 1862,
      "نیک": 1863,
      "عرب": 1864,
      "امیر": 1865,
      "علیه": 1866,
      "137": 1867,
      "اندازه": 1868,
      "##جای": 1869,
      "قلعه": 1870,
      "شمارهی": 1871,
      "امور": 1872,
      "##امت": 1873,
      "بااین": 1874,
      "فض": 1875,
      "داخل": 1876,
      "شرایط": 1877,
      "متن": 1878,
      "کات": 1879,
      "بزرگترین": 1880,
      "##ناوری": 1881,
      "بدن": 1882,
      "اوریل": 1883,
      "ظاه": 1884,
      "پادشاه": 1885,
      "ویژگی": 1886,
      "انتخابات": 1887,
      "##په": 1888,
      "متفاوت": 1889,
      "of": 1890,
      "نفت": 1891,
      "درخت": 1892,
      "##گون": 1893,
      "##اورد": 1894,
      "پیشر": 1895,
      "ریاست": 1896,
      "خدم": 1897,
      "دادن": 1898,
      "رخ": 1899,
      "##شق": 1900,
      "سنت": 1901,
      "عملیات": 1902,
      "خدا": 1903,
      "##بات": 1904,
      "سخت": 1905,
      "ژانویه": 1906,
      "نج": 1907,
      "##شکده": 1908,
      "جشنواره": 1909,
      "##اها": 1910,
      "جنب": 1911,
      "نوامبر": 1912,
      "مهندسی": 1913,
      "معنی": 1914,
      "کسی": 1915,
      "بنابراین": 1916,
      "میاید": 1917,
      "##وتی": 1918,
      "انتقال": 1919,
      "میرسد": 1920,
      "##فاق": 1921,
      "##اتا": 1922,
      "گیر": 1923,
      "ورزش": 1924,
      "کارگردان": 1925,
      "ماد": 1926,
      "ژوين": 1927,
      "دسامبر": 1928,
      "کشت": 1929,
      "##ریب": 1930,
      "وال": 1931,
      "اولیه": 1932,
      "میرز": 1933,
      "بازگشت": 1934,
      "سفید": 1935,
      "مقدار": 1936,
      "##ظور": 1937,
      "تلاش": 1938,
      "اجرای": 1939,
      "بانک": 1940,
      "بلند": 1941,
      "هوا": 1942,
      "##زن": 1943,
      "باغ": 1944,
      "اینتر": 1945,
      "ازادی": 1946,
      "پشت": 1947,
      "دیده": 1948,
      "an": 1949,
      "فارس": 1950,
      "##ونگ": 1951,
      "نسخه": 1952,
      "تعریف": 1953,
      "امنیت": 1954,
      "##همین": 1955,
      "##برداری": 1956,
      "خارجی": 1957,
      "باستان": 1958,
      "##جهی": 1959,
      "##برت": 1960,
      "گذشته": 1961,
      "ژويی": 1962,
      "مصرف": 1963,
      "روح": 1964,
      "مدرسه": 1965,
      "##انیان": 1966,
      "برندهی": 1967,
      "زمانیکه": 1968,
      "##مال": 1969,
      "##ارا": 1970,
      "المپیک": 1971,
      "##شاهی": 1972,
      "کشوری": 1973,
      "علاوه": 1974,
      "فناوری": 1975,
      "روان": 1976,
      "##یدن": 1977,
      "اتحادی": 1978,
      "##اصر": 1979,
      "##یتر": 1980,
      "فشار": 1981,
      "##ایان": 1982,
      "##ریم": 1983,
      "##ربه": 1984,
      "##اصل": 1985,
      "عو": 1986,
      "دومین": 1987,
      "شو": 1988,
      "##پیشه": 1989,
      "سرعت": 1990,
      "شاع": 1991,
      "نهای": 1992,
      "هوایی": 1993,
      "سریال": 1994,
      "##سوب": 1995,
      "شماره": 1996,
      "ایم": 1997,
      "##يین": 1998,
      "##ia": 1999,
      "میگردد": 2000,
      "بهره": 2001,
      "درون": 2002,
      "برز": 2003,
      "مذه": 2004,
      "ارمن": 2005,
      "هیيت": 2006,
      "میتوانند": 2007,
      "علاوهبر": 2008,
      "چهارم": 2009,
      "عبدال": 2010,
      "##عیین": 2011,
      "سق": 2012,
      "دلیل": 2013,
      "گیل": 2014,
      "متولد": 2015,
      "پارک": 2016,
      "##غال": 2017,
      "##لین": 2018,
      "##بیه": 2019,
      "ریا": 2020,
      "عرض": 2021,
      "##ریش": 2022,
      "اسف": 2023,
      "##نظر": 2024,
      "قطع": 2025,
      "سرمای": 2026,
      "کانادا": 2027,
      "##رن": 2028,
      "تعیین": 2029,
      "##ثب": 2030,
      "کمتر": 2031,
      "گیاه": 2032,
      "اصفهان": 2033,
      "نبرد": 2034,
      "##افه": 2035,
      "استاند": 2036,
      "##گاهی": 2037,
      "رمان": 2038,
      "فیلمی": 2039,
      "##بع": 2040,
      "##ویل": 2041,
      "##ol": 2042,
      "##el": 2043,
      "فرم": 2044,
      "باند": 2045,
      "مبار": 2046,
      "##کم": 2047,
      "ماهی": 2048,
      "مسجد": 2049,
      "انواع": 2050,
      "##اهم": 2051,
      "##ion": 2052,
      "##هام": 2053,
      "نوعی": 2054,
      "##انج": 2055,
      "بهخاطر": 2056,
      "##پرداز": 2057,
      "##اخر": 2058,
      "سور": 2059,
      "مشترک": 2060,
      "اقتصاد": 2061,
      "مقد": 2062,
      "چرا": 2063,
      "ارام": 2064,
      "مصر": 2065,
      "##ظیم": 2066,
      "برنده": 2067,
      "##پذیر": 2068,
      "مشهور": 2069,
      "شناس": 2070,
      "##رت": 2071,
      "ريیسجمه": 2072,
      "##00": 2073,
      "##انده": 2074,
      "درمان": 2075,
      "درامد": 2076,
      "پول": 2077,
      "وقت": 2078,
      "خو": 2079,
      "توانست": 2080,
      "ژويیه": 2081,
      "سالگی": 2082,
      "اتفاق": 2083,
      "عالی": 2084,
      "خدمات": 2085,
      "خواست": 2086,
      "##کش": 2087,
      "ادبیات": 2088,
      "##دیگر": 2089,
      "امپراتوری": 2090,
      "تس": 2091,
      "فوریه": 2092,
      "بست": 2093,
      "دسته": 2094,
      "فرایند": 2095,
      "گسترش": 2096,
      "منجر": 2097,
      "##خصوص": 2098,
      "کره": 2099,
      "میگوید": 2100,
      "صفحه": 2101,
      "بهتر": 2102,
      "بور": 2103,
      "سینما": 2104,
      "##عتی": 2105,
      "واکن": 2106,
      "بیست": 2107,
      "سرخ": 2108,
      "دریایی": 2109,
      "##لز": 2110,
      "تقریبا": 2111,
      "##بن": 2112,
      "ضد": 2113,
      "##انز": 2114,
      "انتشارات": 2115,
      "ماش": 2116,
      "##اهای": 2117,
      "##ur": 2118,
      "هنوز": 2119,
      "##لیم": 2120,
      "##افزار": 2121,
      "مهمترین": 2122,
      "خورشیدی": 2123,
      "##گرفت": 2124,
      "حو": 2125,
      "کنید": 2126,
      "##دههای": 2127,
      "خلی": 2128,
      "نص": 2129,
      "دانشکده": 2130,
      "##میر": 2131,
      "##فتر": 2132,
      "دوست": 2133,
      "جغ": 2134,
      "##ايل": 2135,
      "باب": 2136,
      "رشت": 2137,
      "هنرپیشه": 2138,
      "افریق": 2139,
      "مرحله": 2140,
      "رض": 2141,
      "بعضی": 2142,
      "نبود": 2143,
      "نمیت": 2144,
      "جنسی": 2145,
      "##افر": 2146,
      "ایک": 2147,
      "کشاورزی": 2148,
      "##نویس": 2149,
      "فرا": 2150,
      "in": 2151,
      "استرالیا": 2152,
      "هنرم": 2153,
      "##ونا": 2154,
      "##اسر": 2155,
      "پروت": 2156,
      "##داران": 2157,
      "رادی": 2158,
      "رهبر": 2159,
      "کاری": 2160,
      "##گاههای": 2161,
      "منص": 2162,
      "واحد": 2163,
      "##شهر": 2164,
      "برتر": 2165,
      "197": 2166,
      "زیاد": 2167,
      "میرزا": 2168,
      "گری": 2169,
      "##مرب": 2170,
      "حذ": 2171,
      "##واهد": 2172,
      "بههمین": 2173,
      "##وشی": 2174,
      "دوباره": 2175,
      "حاک": 2176,
      "وقتی": 2177,
      "##il": 2178,
      "خراسان": 2179,
      "تکن": 2180,
      "بس": 2181,
      "اتحادیه": 2182,
      "سرمایه": 2183,
      "##نوی": 2184,
      "گاز": 2185,
      "انکه": 2186,
      "فرودگاهی": 2187,
      "بهجای": 2188,
      "ویکیپ": 2189,
      "ویل": 2190,
      "خیابان": 2191,
      "مشاه": 2192,
      "اداره": 2193,
      "طلا": 2194,
      "ماند": 2195,
      "##احب": 2196,
      "##هها": 2197,
      "جزیره": 2198,
      "##زاری": 2199,
      "مقا": 2200,
      "##الیایی": 2201,
      "مکانی": 2202,
      "خرد": 2203,
      "##زمان": 2204,
      "##گل": 2205,
      "متع": 2206,
      "##ايو": 2207,
      "ساختار": 2208,
      "تاج": 2209,
      "خواننده": 2210,
      "##ابط": 2211,
      "مهاجر": 2212,
      "خل": 2213,
      "نت": 2214,
      "توصی": 2215,
      "ساکن": 2216,
      "##گانه": 2217,
      "یهودی": 2218,
      "تاکنون": 2219,
      "##سیده": 2220,
      "رت": 2221,
      "درام": 2222,
      "##مربع": 2223,
      "نمونه": 2224,
      "رک": 2225,
      "##بو": 2226,
      "##بته": 2227,
      "هنگامیکه": 2228,
      "ارمنستان": 2229,
      "سپاه": 2230,
      "بسته": 2231,
      "دولتی": 2232,
      "نظام": 2233,
      "ارمنی": 2234,
      "پیشنه": 2235,
      "پاسخ": 2236,
      "کلم": 2237,
      "البته": 2238,
      "حر": 2239,
      "برزیل": 2240,
      "راست": 2241,
      "شاخ": 2242,
      "لح": 2243,
      "ريیسجمهور": 2244,
      "##جان": 2245,
      "##یس": 2246,
      "وضعیت": 2247,
      "##ینا": 2248,
      "پیوست": 2249,
      "علم": 2250,
      "اصط": 2251,
      "مارک": 2252,
      "##ویژه": 2253,
      "مرز": 2254,
      "معماری": 2255,
      "##ماند": 2256,
      "مستقیم": 2257,
      "##لهای": 2258,
      "##سای": 2259,
      "ترانه": 2260,
      "سلول": 2261,
      "مز": 2262,
      "سرده": 2263,
      "مسلمان": 2264,
      "ترا": 2265,
      "فیلمهای": 2266,
      "شهرد": 2267,
      "##as": 2268,
      "##شناس": 2269,
      "داری": 2270,
      "نیوی": 2271,
      "پادشاهی": 2272,
      "بگیر": 2273,
      "قتل": 2274,
      "میلاد": 2275,
      "اضافه": 2276,
      "روستاهای": 2277,
      "دنی": 2278,
      "##گین": 2279,
      "محسوب": 2280,
      "ساده": 2281,
      "شا": 2282,
      "##برگ": 2283,
      "دبیر": 2284,
      "##اهیم": 2285,
      "##پور": 2286,
      "الکترون": 2287,
      "##افق": 2288,
      "نیمه": 2289,
      "حفظ": 2290,
      "شرح": 2291,
      "اطراف": 2292,
      "دفتر": 2293,
      "دادند": 2294,
      "سوي": 2295,
      "نداشت": 2296,
      "##لر": 2297,
      "مراسم": 2298,
      "نمیش": 2299,
      "رابطه": 2300,
      "امر": 2301,
      "هجری": 2302,
      "یکدیگر": 2303,
      "لازم": 2304,
      "رقابت": 2305,
      "شخصی": 2306,
      "دلار": 2307,
      "فاصله": 2308,
      "نظریه": 2309,
      "بلکه": 2310,
      "خدمت": 2311,
      "حل": 2312,
      "نمیتوان": 2313,
      "استقل": 2314,
      "روشن": 2315,
      "##فن": 2316,
      "شما": 2317,
      "مسابقه": 2318,
      "عامل": 2319,
      "مناسب": 2320,
      "استقلال": 2321,
      "##ro": 2322,
      "روابط": 2323,
      "##يو": 2324,
      "##ریت": 2325,
      "اعتر": 2326,
      "الگ": 2327,
      "چیزی": 2328,
      "##وصی": 2329,
      "##ترسیده": 2330,
      "حافظ": 2331,
      "سبز": 2332,
      "شیخ": 2333,
      "##یدان": 2334,
      "نیویورک": 2335,
      "##ولوژی": 2336,
      "کیلومترمربع": 2337,
      "موجب": 2338,
      "بهثب": 2339,
      "بهثبترسیده": 2340,
      "##زا": 2341,
      "##نتی": 2342,
      "خودش": 2343,
      "ته": 2344,
      "چار": 2345,
      "قدیم": 2346,
      "ویژه": 2347,
      "مکان": 2348,
      "خرو": 2349,
      "##اون": 2350,
      "اواخر": 2351,
      "اساسی": 2352,
      "عدم": 2353,
      "فت": 2354,
      "##لح": 2355,
      "سان": 2356,
      "فعالیتهای": 2357,
      "اختص": 2358,
      "##افت": 2359,
      "اعد": 2360,
      "بااینحال": 2361,
      "بهویژه": 2362,
      "##پس": 2363,
      "قاب": 2364,
      "جا": 2365,
      "فضای": 2366,
      "اجازه": 2367,
      "##ظم": 2368,
      "لند": 2369,
      "پشتی": 2370,
      "چک": 2371,
      "گرفتن": 2372,
      "نامهای": 2373,
      "##ظه": 2374,
      "توم": 2375,
      "رهبری": 2376,
      "الف": 2377,
      "عض": 2378,
      "گن": 2379,
      "نهایت": 2380,
      "موقعیت": 2381,
      "ماشین": 2382,
      "نامیده": 2383,
      "اصلاح": 2384,
      "##رايیل": 2385,
      "نمی": 2386,
      "زبانهای": 2387,
      "عمر": 2388,
      "صدا": 2389,
      "جع": 2390,
      "فیلمها": 2391,
      "تجاری": 2392,
      "پژوهش": 2393,
      "پرت": 2394,
      "کیلومتری": 2395,
      "##قان": 2396,
      "حاصل": 2397,
      "پیروزی": 2398,
      "کاملا": 2399,
      "پیچ": 2400,
      "توصیف": 2401,
      "قز": 2402,
      "##et": 2403,
      "ابن": 2404,
      "دفاع": 2405,
      "##وای": 2406,
      "بیت": 2407,
      "رد": 2408,
      "پیک": 2409,
      "مبت": 2410,
      "فن": 2411,
      "سیاستمد": 2412,
      "کلا": 2413,
      "##راج": 2414,
      "موسسه": 2415,
      "ساله": 2416,
      "نمایندگان": 2417,
      "اصل": 2418,
      "جر": 2419,
      "قرارد": 2420,
      "##نیا": 2421,
      "سایت": 2422,
      "##نامهی": 2423,
      "نماینده": 2424,
      "##انههای": 2425,
      "عشق": 2426,
      "پا": 2427,
      "فرست": 2428,
      "10": 2429,
      "مستقل": 2430,
      "علاق": 2431,
      "196": 2432,
      "خصوصی": 2433,
      "پدرش": 2434,
      "فراهم": 2435,
      "مدار": 2436,
      "جذ": 2437,
      "##سپ": 2438,
      "نزدیکی": 2439,
      "سم": 2440,
      "ناسا": 2441,
      "##دهاند": 2442,
      "##دین": 2443,
      "بیشتری": 2444,
      "پهل": 2445,
      "تامین": 2446,
      "مطلق": 2447,
      "اسیا": 2448,
      "##فس": 2449,
      "پیشنهاد": 2450,
      "عن": 2451,
      "##لیک": 2452,
      "امروزه": 2453,
      "##شمار": 2454,
      "ویلی": 2455,
      "کودکان": 2456,
      "زنده": 2457,
      "##حل": 2458,
      "سوریه": 2459,
      "ایتالیایی": 2460,
      "انسانی": 2461,
      "درو": 2462,
      "قمری": 2463,
      "تاک": 2464,
      "##حاضر": 2465,
      "هل": 2466,
      "خورد": 2467,
      "تبری": 2468,
      "##ریزی": 2469,
      "گاهی": 2470,
      "گذر": 2471,
      "##فع": 2472,
      "واب": 2473,
      "درحالحاضر": 2474,
      "اختیار": 2475,
      "اطلاع": 2476,
      "ثابت": 2477,
      "جایگز": 2478,
      "تياتر": 2479,
      "میباشند": 2480,
      "تال": 2481,
      "##خواست": 2482,
      "##چار": 2483,
      "زیست": 2484,
      "بدست": 2485,
      "ابزار": 2486,
      "بهدن": 2487,
      "##راک": 2488,
      "گروهی": 2489,
      "تحقیقات": 2490,
      "رز": 2491,
      "طبقه": 2492,
      "اسرايیل": 2493,
      "صنعت": 2494,
      "اوایل": 2495,
      "مردان": 2496,
      "ناب": 2497,
      "کالی": 2498,
      "ورود": 2499,
      "##تهای": 2500,
      "##جز": 2501,
      "نقطه": 2502,
      "زندان": 2503,
      "نرمافزار": 2504,
      "##بک": 2505,
      "دورهی": 2506,
      "مجد": 2507,
      "خلق": 2508,
      "اتحاد": 2509,
      "گرفتهاست": 2510,
      "##دیای": 2511,
      "ماز": 2512,
      "خورشید": 2513,
      "##وگ": 2514,
      "تمامی": 2515,
      "عهده": 2516,
      "##شین": 2517,
      "##ژیک": 2518,
      "عص": 2519,
      "مخالف": 2520,
      "صنعتی": 2521,
      "شاعر": 2522,
      "میداد": 2523,
      "تشخی": 2524,
      "قاج": 2525,
      "میی": 2526,
      "خشک": 2527,
      "اچ": 2528,
      "واکنش": 2529,
      "ماری": 2530,
      "##ادهای": 2531,
      "اولینبار": 2532,
      "تپه": 2533,
      "عدد": 2534,
      "شبیه": 2535,
      "پاری": 2536,
      "پرواز": 2537,
      "احس": 2538,
      "عملکرد": 2539,
      "نقاشی": 2540,
      "بنیان": 2541,
      "##re": 2542,
      "اروپ": 2543,
      "هار": 2544,
      "بعدی": 2545,
      "زم": 2546,
      "##am": 2547,
      "لندن": 2548,
      "##خواه": 2549,
      "اباد": 2550,
      "انچه": 2551,
      "##زات": 2552,
      "##وج": 2553,
      "بعدها": 2554,
      "رضا": 2555,
      "نشر": 2556,
      "رودخانه": 2557,
      "ذکر": 2558,
      "##سد": 2559,
      "12": 2560,
      "##اما": 2561,
      "بهمع": 2562,
      "فول": 2563,
      "متحد": 2564,
      "طل": 2565,
      "فری": 2566,
      "اسیب": 2567,
      "بیرون": 2568,
      "وزن": 2569,
      "ویکیپدیای": 2570,
      "حساب": 2571,
      "سنتی": 2572,
      "سیر": 2573,
      "تری": 2574,
      "قدیمی": 2575,
      "روزنامه": 2576,
      "گذاشت": 2577,
      "##ژاد": 2578,
      "بتوان": 2579,
      "پروژه": 2580,
      "باور": 2581,
      "جوای": 2582,
      "جلوگیری": 2583,
      "یافته": 2584,
      "همزمان": 2585,
      "سرباز": 2586,
      "and": 2587,
      "عباس": 2588,
      "خور": 2589,
      "بالای": 2590,
      "یاتا": 2591,
      "تد": 2592,
      "##فای": 2593,
      "گوش": 2594,
      "دانشج": 2595,
      "##ویب": 2596,
      "تایید": 2597,
      "مدتی": 2598,
      "پال": 2599,
      "هلند": 2600,
      "ذخ": 2601,
      "عث": 2602,
      "پیم": 2603,
      "##انجام": 2604,
      "##وو": 2605,
      "قوان": 2606,
      "ریاضی": 2607,
      "نمیک": 2608,
      "جغرافی": 2609,
      "مقاومت": 2610,
      "##شا": 2611,
      "##طان": 2612,
      "##اتور": 2613,
      "جرم": 2614,
      "مون": 2615,
      "اجرام": 2616,
      "##عهی": 2617,
      "وظ": 2618,
      "مفه": 2619,
      "جیم": 2620,
      "اهدا": 2621,
      "تلویزیون": 2622,
      "ملل": 2623,
      "باد": 2624,
      "کنگ": 2625,
      "محله": 2626,
      "رساند": 2627,
      "کمپ": 2628,
      "سرانجام": 2629,
      "سانت": 2630,
      "##ch": 2631,
      "سلطان": 2632,
      "##ته": 2633,
      "تیمهای": 2634,
      "نامگذاری": 2635,
      "روشهای": 2636,
      "وین": 2637,
      "عصر": 2638,
      "بم": 2639,
      "گور": 2640,
      "##le": 2641,
      "درست": 2642,
      "وید": 2643,
      "صاد": 2644,
      "واقعی": 2645,
      "محمود": 2646,
      "واژه": 2647,
      "تنظیم": 2648,
      "تصویب": 2649,
      "##ing": 2650,
      "قیم": 2651,
      "سود": 2652,
      "جایی": 2653,
      "پیام": 2654,
      "موزه": 2655,
      "معتق": 2656,
      "##ولین": 2657,
      "سرو": 2658,
      "شهرداری": 2659,
      "##انش": 2660,
      "##وچ": 2661,
      "بهدنبال": 2662,
      "لای": 2663,
      "بهمعنای": 2664,
      "پاپ": 2665,
      "اصطلاح": 2666,
      "##رکز": 2667,
      "مطرح": 2668,
      "لب": 2669,
      "##رخه": 2670,
      "تشخیص": 2671,
      "##ستگی": 2672,
      "پلیس": 2673,
      "##غذ": 2674,
      "توزی": 2675,
      "کمیت": 2676,
      "طولانی": 2677,
      "باقی": 2678,
      "اتاق": 2679,
      "سیاستمدار": 2680,
      "##ورا": 2681,
      "دنبال": 2682,
      "ولایت": 2683,
      "افتخ": 2684,
      "مهدی": 2685,
      "امدهاست": 2686,
      "پایگاه": 2687,
      "وح": 2688,
      "##وذ": 2689,
      "لشک": 2690,
      "روب": 2691,
      "شبک": 2692,
      "لین": 2693,
      "مسيله": 2694,
      "مجله": 2695,
      "ستاره": 2696,
      "##اکس": 2697,
      "##شیر": 2698,
      "اکنون": 2699,
      "میگو": 2700,
      "##ونده": 2701,
      "دادگان": 2702,
      "موفقیت": 2703,
      "گشت": 2704,
      "مذهبی": 2705,
      "##ادن": 2706,
      "دموک": 2707,
      "ویت": 2708,
      "رفتار": 2709,
      "##قیان": 2710,
      "##ختی": 2711,
      "ساس": 2712,
      "پاکستان": 2713,
      "بزرگی": 2714,
      "سیل": 2715,
      "هفته": 2716,
      "گوناگ": 2717,
      "نهایی": 2718,
      "جست": 2719,
      "مشابه": 2720,
      "نیرو": 2721,
      "##طر": 2722,
      "توپ": 2723,
      "##زاد": 2724,
      "گمین": 2725,
      "اسپانیایی": 2726,
      "ویلیام": 2727,
      "زنج": 2728,
      "متو": 2729,
      "سراسر": 2730,
      "توزیع": 2731,
      "محصولات": 2732,
      "##ایق": 2733,
      "ابتد": 2734,
      "الکت": 2735,
      "حرفهای": 2736,
      "اهمیت": 2737,
      "حلق": 2738,
      "کیف": 2739,
      "##فل": 2740,
      "##om": 2741,
      "هید": 2742,
      "احساس": 2743,
      "تفاوت": 2744,
      "عق": 2745,
      "##شه": 2746,
      "زیب": 2747,
      "##تب": 2748,
      "##وتر": 2749,
      "مطالعه": 2750,
      "معتقد": 2751,
      "بهمنظور": 2752,
      "ساختهشده": 2753,
      "ورزشی": 2754,
      "##تور": 2755,
      "بومی": 2756,
      "##عم": 2757,
      "خیلی": 2758,
      "توانایی": 2759,
      "متری": 2760,
      "ساح": 2761,
      "##الهای": 2762,
      "هوش": 2763,
      "نامزد": 2764,
      "سای": 2765,
      "قوانین": 2766,
      "ظرف": 2767,
      "واژ": 2768,
      "##نهای": 2769,
      "بافت": 2770,
      "دشم": 2771,
      "##اقل": 2772,
      "##id": 2773,
      "ارشد": 2774,
      "متوس": 2775,
      "قلم": 2776,
      "##اندازی": 2777,
      "امتی": 2778,
      "135": 2779,
      "جنبش": 2780,
      "کلاس": 2781,
      "دیوار": 2782,
      "فیزیک": 2783,
      "دسترسی": 2784,
      "زد": 2785,
      "بهنظر": 2786,
      "##سکی": 2787,
      "استاندارد": 2788,
      "##گرفته": 2789,
      "فوق": 2790,
      "نقره": 2791,
      "مشاهده": 2792,
      "خوب": 2793,
      "##ویز": 2794,
      "جمع": 2795,
      "کریست": 2796,
      "پهلوی": 2797,
      "اگرچه": 2798,
      "اختصاص": 2799,
      "منبع": 2800,
      "##ارش": 2801,
      "##بینی": 2802,
      "درخواست": 2803,
      "تیره": 2804,
      "تابع": 2805,
      "##غیر": 2806,
      "پوشش": 2807,
      "جاده": 2808,
      "ارزش": 2809,
      "پشتیبانی": 2810,
      "پاریس": 2811,
      "##عود": 2812,
      "نار": 2813,
      "اخیر": 2814,
      "گروههای": 2815,
      "##ارات": 2816,
      "بهشمار": 2817,
      "اختلاف": 2818,
      "همیشه": 2819,
      "مرتبط": 2820,
      "قالب": 2821,
      "بیمارستان": 2822,
      "متعد": 2823,
      "مطالعات": 2824,
      "دانشم": 2825,
      "اعمال": 2826,
      "##الم": 2827,
      "دقیقه": 2828,
      "صاحب": 2829,
      "عبور": 2830,
      "ناشی": 2831,
      "گسترده": 2832,
      "##اشته": 2833,
      "برق": 2834,
      "کارهای": 2835,
      "##ولیت": 2836,
      "صرف": 2837,
      "##الع": 2838,
      "میگویند": 2839,
      "لباس": 2840,
      "کوم": 2841,
      "lin": 2842,
      "تعدادی": 2843,
      "ناش": 2844,
      "گاه": 2845,
      "136": 2846,
      "وار": 2847,
      "منتقل": 2848,
      "امروز": 2849,
      "شنا": 2850,
      "ارک": 2851,
      "##ادث": 2852,
      "##گا": 2853,
      "##روز": 2854,
      "رتبه": 2855,
      "هما": 2856,
      "بنیاد": 2857,
      "رم": 2858,
      "عبارتند": 2859,
      "اری": 2860,
      "195": 2861,
      "دارو": 2862,
      "اتم": 2863,
      "محب": 2864,
      "رده": 2865,
      "##زل": 2866,
      "استی": 2867,
      "اسب": 2868,
      "بدین": 2869,
      "بحث": 2870,
      "پست": 2871,
      "بخشهای": 2872,
      "##کوم": 2873,
      "سریع": 2874,
      "194": 2875,
      "اینده": 2876,
      "##اوری": 2877,
      "میگذ": 2878,
      "مشکلات": 2879,
      "قاجار": 2880,
      "ظاهر": 2881,
      "اعتراض": 2882,
      "##ادگی": 2883,
      "مییابد": 2884,
      "نظری": 2885,
      "بازر": 2886,
      "##شید": 2887,
      "ورودی": 2888,
      "شدید": 2889,
      "فد": 2890,
      "##سیر": 2891,
      "فرمانده": 2892,
      "##اظ": 2893,
      "ابراهیم": 2894,
      "بشر": 2895,
      "هدایت": 2896,
      "محافظ": 2897,
      "مقای": 2898,
      "##اشق": 2899,
      "نسل": 2900,
      "جلد": 2901,
      "حکم": 2902,
      "##ینز": 2903,
      "فلسفه": 2904,
      "##ut": 2905,
      "##بورگ": 2906,
      "خام": 2907,
      "مری": 2908,
      "خاند": 2909,
      "میپرداز": 2910,
      "##مینی": 2911,
      "پیوند": 2912,
      "سخن": 2913,
      "تبریز": 2914,
      "11": 2915,
      "کالیفر": 2916,
      "بند": 2917,
      "##گرایی": 2918,
      "میگیرند": 2919,
      "پایت": 2920,
      "پیاده": 2921,
      "شناسایی": 2922,
      "منتق": 2923,
      "مختلفی": 2924,
      "ویژگیهای": 2925,
      "دیوان": 2926,
      "فرار": 2927,
      "##قیه": 2928,
      "الکتریک": 2929,
      "##ارف": 2930,
      "ایستگاه": 2931,
      "ذه": 2932,
      "دریای": 2933,
      "کاپ": 2934,
      "##کشی": 2935,
      "کننده": 2936,
      "پنجم": 2937,
      "15": 2938,
      "پور": 2939,
      "خوز": 2940,
      "دادگاه": 2941,
      "حذف": 2942,
      "مدرن": 2943,
      "جایگزین": 2944,
      "##ویم": 2945,
      "قابلیت": 2946,
      "اخر": 2947,
      "داشتن": 2948,
      "فیلمنامه": 2949,
      "پیشرفت": 2950,
      "عنا": 2951,
      "##ناد": 2952,
      "عکس": 2953,
      "وسیله": 2954,
      "دع": 2955,
      "رسیدن": 2956,
      "##گرم": 2957,
      "ایز": 2958,
      "شهرت": 2959,
      "پیشین": 2960,
      "##هاش": 2961,
      "برنز": 2962,
      "##قه": 2963,
      "##op": 2964,
      "link": 2965,
      "##انیه": 2966,
      "##راسیون": 2967,
      "##بیل": 2968,
      "قران": 2969,
      "یکم": 2970,
      "برجسته": 2971,
      "نات": 2972,
      "تغییرات": 2973,
      "دچار": 2974,
      "عرو": 2975,
      "اموزشی": 2976,
      "خویش": 2977,
      "##ظت": 2978,
      "عرضه": 2979,
      "نگهداری": 2980,
      "اوکر": 2981,
      "نقاط": 2982,
      "نر": 2983,
      "سرک": 2984,
      "یونانی": 2985,
      "سلام": 2986,
      "##نویسی": 2987,
      "نفوذ": 2988,
      "##وارد": 2989,
      "##یکا": 2990,
      "معت": 2991,
      "درگذشته": 2992,
      "امی": 2993,
      "##یشن": 2994,
      "سیستمهای": 2995,
      "نمون": 2996,
      "گمینا": 2997,
      "انتظ": 2998,
      "صرب": 2999,
      "##ra": 3000,
      "کف": 3001,
      "14": 3002,
      "جور": 3003,
      "اید": 3004,
      "فیلی": 3005,
      "ورزشک": 3006,
      "سد": 3007,
      "پایتخت": 3008,
      "کامپی": 3009,
      "ناپ": 3010,
      "چهر": 3011,
      "قی": 3012,
      "##مون": 3013,
      "بان": 3014,
      "نگاه": 3015,
      "خلیج": 3016,
      "لوک": 3017,
      "##سیل": 3018,
      "##ازده": 3019,
      "همچنان": 3020,
      "جدول": 3021,
      "مقدس": 3022,
      "بهعلت": 3023,
      "عثمانی": 3024,
      "حداقل": 3025,
      "##اتیک": 3026,
      "کالیفرنیا": 3027,
      "ذخیره": 3028,
      "##ri": 3029,
      "شهرک": 3030,
      "ورزشگاه": 3031,
      "ماج": 3032,
      "مفهوم": 3033,
      "سند": 3034,
      "##وما": 3035,
      "برگزی": 3036,
      "17": 3037,
      "##راح": 3038,
      "##ستون": 3039,
      "اکثر": 3040,
      "ترتیب": 3041,
      "گراف": 3042,
      "میکنیم": 3043,
      "قبیل": 3044,
      "متعلق": 3045,
      "روحانی": 3046,
      "اتریش": 3047,
      "صلح": 3048,
      "کتابهای": 3049,
      "##انگی": 3050,
      "شناخت": 3051,
      "صدای": 3052,
      "تدری": 3053,
      "خاصی": 3054,
      "##رده": 3055,
      "حاکم": 3056,
      "زرد": 3057,
      "##قرار": 3058,
      "پرداز": 3059,
      "احتمالا": 3060,
      "هزینه": 3061,
      "##اهنگ": 3062,
      "شداو": 3063,
      "مهاجرت": 3064,
      "مسکن": 3065,
      "##os": 3066,
      "بهبود": 3067,
      "توضی": 3068,
      "محبوب": 3069,
      "سويد": 3070,
      "ضر": 3071,
      "ضرب": 3072,
      "##زهی": 3073,
      "##انتین": 3074,
      "رون": 3075,
      "میبرد": 3076,
      "تخص": 3077,
      "مقاله": 3078,
      "##قا": 3079,
      "##سکو": 3080,
      "##نجی": 3081,
      "##زیست": 3082,
      "اعت": 3083,
      "رح": 3084,
      "سوسی": 3085,
      "ارژ": 3086,
      "طراح": 3087,
      "مبارزه": 3088,
      "دود": 3089,
      "اینگونه": 3090,
      "##ویا": 3091,
      "کسانی": 3092,
      "دیر": 3093,
      "شیراز": 3094,
      "میانه": 3095,
      "هماکنون": 3096,
      "سومین": 3097,
      "رایج": 3098,
      "اخلاق": 3099,
      "تام": 3100,
      "خلا": 3101,
      "وابسته": 3102,
      "مقایسه": 3103,
      "پو": 3104,
      "سازی": 3105,
      "امتیاز": 3106,
      "سده": 3107,
      "جیمز": 3108,
      "کافی": 3109,
      "##سف": 3110,
      "چپ": 3111,
      "بیل": 3112,
      "حج": 3113,
      "##اندر": 3114,
      "##سیک": 3115,
      "دوچ": 3116,
      "جایگاه": 3117,
      "قطعه": 3118,
      "بری": 3119,
      "نادر": 3120,
      "فیزی": 3121,
      "روایت": 3122,
      "سینمایی": 3123,
      "دیوید": 3124,
      "عقب": 3125,
      "##فرو": 3126,
      "نوری": 3127,
      "قیمت": 3128,
      "کارشناسی": 3129,
      "تبلی": 3130,
      "مسيول": 3131,
      "##ظر": 3132,
      "تجارت": 3133,
      "##غل": 3134,
      "##يون": 3135,
      "بازیگران": 3136,
      "خاندان": 3137,
      "فرمول": 3138,
      "جغرافیایی": 3139,
      "کودک": 3140,
      "تازه": 3141,
      "##دل": 3142,
      "رمز": 3143,
      "ابوال": 3144,
      "اروپایی": 3145,
      "پوست": 3146,
      "##ندهای": 3147,
      "##پل": 3148,
      "قا": 3149,
      "ریشه": 3150,
      "کتابخانه": 3151,
      "قادر": 3152,
      "فرماندهی": 3153,
      "علیر": 3154,
      "کنیم": 3155,
      "مایکل": 3156,
      "##ینو": 3157,
      "جذب": 3158,
      "##زم": 3159,
      "همهی": 3160,
      "دادهاست": 3161,
      "اصول": 3162,
      "فنی": 3163,
      "##صه": 3164,
      "نشد": 3165,
      "خس": 3166,
      "##ویچ": 3167,
      "دراین": 3168,
      "الگوریت": 3169,
      "پری": 3170,
      "قابلتو": 3171,
      "کاربردی": 3172,
      "اماده": 3173,
      "مارت": 3174,
      "ملک": 3175,
      "متصل": 3176,
      "ایشان": 3177,
      "##حسین": 3178,
      "معادل": 3179,
      "نواز": 3180,
      "سیستان": 3181,
      "سبب": 3182,
      "##زیه": 3183,
      "مالک": 3184,
      "نمیشود": 3185,
      "دانست": 3186,
      "کرمانشاه": 3187,
      "مقدم": 3188,
      "##ent": 3189,
      "جامع": 3190,
      "اسکار": 3191,
      "همانند": 3192,
      "کلیسای": 3193,
      "##um": 3194,
      "مشارک": 3195,
      "ژاپنی": 3196,
      "قرمز": 3197,
      "دمای": 3198,
      "دهند": 3199,
      "فتح": 3200,
      "لا": 3201,
      "##وسف": 3202,
      "##جمهوری": 3203,
      "مسیحی": 3204,
      "برده": 3205,
      "اژ": 3206,
      "مات": 3207,
      "یونان": 3208,
      "فردی": 3209,
      "مستند": 3210,
      "ارا": 3211,
      "عبدالله": 3212,
      "ریچ": 3213,
      "توضیح": 3214,
      "پرا": 3215,
      "16": 3216,
      "گیت": 3217,
      "مسايل": 3218,
      "نویسندگان": 3219,
      "بهار": 3220,
      "##کتری": 3221,
      "گیلان": 3222,
      "##ادو": 3223,
      "الکتریکی": 3224,
      "داي": 3225,
      "بزرگتر": 3226,
      "الکس": 3227,
      "برخوردار": 3228,
      "193": 3229,
      "تبلیغ": 3230,
      "قانونی": 3231,
      "سلی": 3232,
      "اقیان": 3233,
      "دای": 3234,
      "اختل": 3235,
      "صربستان": 3236,
      "بیشترین": 3237,
      "##شنبه": 3238,
      "تحصیلات": 3239,
      "فکر": 3240,
      "باستانی": 3241,
      "معاصر": 3242,
      "##کنندگان": 3243,
      "قصد": 3244,
      "بای": 3245,
      "شار": 3246,
      "اندازهگیری": 3247,
      "عوامل": 3248,
      "تجربه": 3249,
      "درگیری": 3250,
      "مربی": 3251,
      "اقای": 3252,
      "اتص": 3253,
      "هیدرو": 3254,
      "##واری": 3255,
      "ادی": 3256,
      "شبه": 3257,
      "نخستوز": 3258,
      "غل": 3259,
      "دنیای": 3260,
      "ریاستجمهوری": 3261,
      "ویک": 3262,
      "رابرت": 3263,
      "هنرمند": 3264,
      "تحلیل": 3265,
      "مینم": 3266,
      "حقیق": 3267,
      "والی": 3268,
      "میشدند": 3269,
      "##ورو": 3270,
      "##اویر": 3271,
      "صحنه": 3272,
      "فین": 3273,
      "##ابری": 3274,
      "مونت": 3275,
      "مشرو": 3276,
      "حفا": 3277,
      "الن": 3278,
      "امید": 3279,
      "دیگران": 3280,
      "نای": 3281,
      "یخ": 3282,
      "چینی": 3283,
      "خطی": 3284,
      "بازیکنان": 3285,
      "نشده": 3286,
      "معاون": 3287,
      "مجارستان": 3288,
      "##دارند": 3289,
      "زر": 3290,
      "منح": 3291,
      "##داشته": 3292,
      "خطر": 3293,
      "نرو": 3294,
      "##ثی": 3295,
      "حیوان": 3296,
      "دوچرخه": 3297,
      "مسافر": 3298,
      "اجرایی": 3299,
      "لر": 3300,
      "##un": 3301,
      "تز": 3302,
      "امپراتور": 3303,
      "گویش": 3304,
      "سقوط": 3305,
      "مجبور": 3306,
      "الگوریتم": 3307,
      "##جع": 3308,
      "بید": 3309,
      "##ct": 3310,
      "دشت": 3311,
      "اسکات": 3312,
      "گز": 3313,
      "تخت": 3314,
      "خش": 3315,
      "مشاور": 3316,
      "کیلو": 3317,
      "متغیر": 3318,
      "##اندن": 3319,
      "عربستان": 3320,
      "اظه": 3321,
      "دوستان": 3322,
      "پناه": 3323,
      "##ادار": 3324,
      "سلس": 3325,
      "دینی": 3326,
      "خال": 3327,
      "کرو": 3328,
      "معمول": 3329,
      "نتایج": 3330,
      "بش": 3331,
      "رادیو": 3332,
      "##ومه": 3333,
      "فرای": 3334,
      "محکوم": 3335,
      "st": 3336,
      "##حیح": 3337,
      "##بیا": 3338,
      "نان": 3339,
      "محق": 3340,
      "##ip": 3341,
      "موسس": 3342,
      "کمیته": 3343,
      "##الح": 3344,
      "بندر": 3345,
      "صفح": 3346,
      "امده": 3347,
      "درک": 3348,
      "کنونی": 3349,
      "پدید": 3350,
      "گرفتند": 3351,
      "گذشت": 3352,
      "مخت": 3353,
      "##رای": 3354,
      "مشهد": 3355,
      "##کام": 3356,
      "جزيی": 3357,
      "جوانان": 3358,
      "مخصوص": 3359,
      "دیدار": 3360,
      "##عار": 3361,
      "نامه": 3362,
      "متوسط": 3363,
      "فضایی": 3364,
      "##صت": 3365,
      "قوی": 3366,
      "رکورد": 3367,
      "اوکراین": 3368,
      "اذر": 3369,
      "اوست": 3370,
      "دره": 3371,
      "نظیر": 3372,
      "فرض": 3373,
      "زا": 3374,
      "ارژانتین": 3375,
      "فارغ": 3376,
      "دموکرات": 3377,
      "کاخ": 3378,
      "مجموعهای": 3379,
      "بهر": 3380,
      "##یترین": 3381,
      "استودی": 3382,
      "##ers": 3383,
      "کیفیت": 3384,
      "سیتی": 3385,
      "##ادت": 3386,
      "چنان": 3387,
      "کمونی": 3388,
      "رقص": 3389,
      "ژانر": 3390,
      "اعتق": 3391,
      "بیمار": 3392,
      "شرکتهای": 3393,
      "روغ": 3394,
      "##انهی": 3395,
      "مقر": 3396,
      "##نشین": 3397,
      "صحبت": 3398,
      "میلیارد": 3399,
      "##کول": 3400,
      "ششم": 3401,
      "##احی": 3402,
      "##edia": 3403,
      "##ندران": 3404,
      "نهاد": 3405,
      "کاش": 3406,
      "خرید": 3407,
      "ابان": 3408,
      "روزنام": 3409,
      "فرانک": 3410,
      "ریز": 3411,
      "##امون": 3412,
      "##وکی": 3413,
      "بلغ": 3414,
      "##شتر": 3415,
      "یواساس": 3416,
      "مغز": 3417,
      "ادم": 3418,
      "امریکای": 3419,
      "شناختهشده": 3420,
      "حقیقت": 3421,
      "برنامهریزی": 3422,
      "##درضا": 3423,
      "شیعه": 3424,
      "لایه": 3425,
      "واس": 3426,
      "ماس": 3427,
      "قض": 3428,
      "کاب": 3429,
      "##واند": 3430,
      "کارل": 3431,
      "ون": 3432,
      "سعی": 3433,
      "مسیح": 3434,
      "مشارکت": 3435,
      "طبیعت": 3436,
      "##جوان": 3437,
      "مازندران": 3438,
      "ورزشکار": 3439,
      "نشست": 3440,
      "انگلیس": 3441,
      "سکونت": 3442,
      "صلی": 3443,
      "ضبط": 3444,
      "مثلا": 3445,
      "هستهای": 3446,
      "صفر": 3447,
      "درد": 3448,
      "قرارداد": 3449,
      "ناصر": 3450,
      "غذا": 3451,
      "حاضر": 3452,
      "قطر": 3453,
      "افرادی": 3454,
      "بیا": 3455,
      "تجهی": 3456,
      "##کز": 3457,
      "##قت": 3458,
      "غذایی": 3459,
      "موشک": 3460,
      "معد": 3461,
      "ترب": 3462,
      "اواز": 3463,
      "##خیر": 3464,
      "تابستان": 3465,
      "وظی": 3466,
      "بده": 3467,
      "##وتا": 3468,
      "تار": 3469,
      "نظارت": 3470,
      "##ess": 3471,
      "##طرف": 3472,
      "##iv": 3473,
      "نها": 3474,
      "کشیده": 3475,
      "الح": 3476,
      "گال": 3477,
      "##باب": 3478,
      "گوناگون": 3479,
      "باقیم": 3480,
      "قن": 3481,
      "##ik": 3482,
      "تدریس": 3483,
      "نموده": 3484,
      "چرخ": 3485,
      "##em": 3486,
      "خوزستان": 3487,
      "##کری": 3488,
      "پان": 3489,
      "مهمی": 3490,
      "##افع": 3491,
      "ادعا": 3492,
      "##انهها": 3493,
      "گنج": 3494,
      "ایفای": 3495,
      "اختر": 3496,
      "جلس": 3497,
      "##اعیل": 3498,
      "##لاند": 3499,
      "تنگ": 3500,
      "موثر": 3501,
      "مسلمانان": 3502,
      "علت": 3503,
      "تابستانی": 3504,
      "اعدام": 3505,
      "جدیدی": 3506,
      "##شدت": 3507,
      "گذاشته": 3508,
      "رفتن": 3509,
      "بودهاند": 3510,
      "##اشد": 3511,
      "خواهر": 3512,
      "نصب": 3513,
      "اسید": 3514,
      "ژن": 3515,
      "سوخت": 3516,
      "باری": 3517,
      "چیز": 3518,
      "##اهن": 3519,
      "یکسال": 3520,
      "قلب": 3521,
      "خوانده": 3522,
      "##ولف": 3523,
      "##ریس": 3524,
      "##ul": 3525,
      "روزنامهنگ": 3526,
      "زیبا": 3527,
      "##کلی": 3528,
      "خصوص": 3529,
      "میپردازد": 3530,
      "##میل": 3531,
      "سلطنت": 3532,
      "نماد": 3533,
      "تون": 3534,
      "##یلد": 3535,
      "سوسیالی": 3536,
      "جبه": 3537,
      "##مار": 3538,
      "##اژ": 3539,
      "بعدا": 3540,
      "لشکر": 3541,
      "شهروند": 3542,
      "اهنگساز": 3543,
      "سوز": 3544,
      "##وجود": 3545,
      "جمعا": 3546,
      "مجاز": 3547,
      "خواب": 3548,
      "##پوش": 3549,
      "##لاک": 3550,
      "کلمه": 3551,
      "ایکايو": 3552,
      "میداند": 3553,
      "چوب": 3554,
      "اسفند": 3555,
      "حفاظت": 3556,
      "نجات": 3557,
      "##ولت": 3558,
      "##گردان": 3559,
      "##اجی": 3560,
      "سرویس": 3561,
      "دف": 3562,
      "##رود": 3563,
      "تکر": 3564,
      "دما": 3565,
      "فضا": 3566,
      "##وردی": 3567,
      "##باری": 3568,
      "تمد": 3569,
      "##ناطی": 3570,
      "شهید": 3571,
      "پروتيین": 3572,
      "ناخ": 3573,
      "عمده": 3574,
      "تجزیه": 3575,
      "سار": 3576,
      "ماموریت": 3577,
      "فرودگاههای": 3578,
      "سلطنتی": 3579,
      "##هور": 3580,
      "قبلی": 3581,
      "چر": 3582,
      "##نایی": 3583,
      "صب": 3584,
      "جنگل": 3585,
      "##لوچ": 3586,
      "تاکید": 3587,
      "روس": 3588,
      "##زان": 3589,
      "لحاظ": 3590,
      "اسماعیل": 3591,
      "مدنی": 3592,
      "اینترنت": 3593,
      "ماک": 3594,
      "فیلیپ": 3595,
      "مدرک": 3596,
      "هنرهای": 3597,
      "شاید": 3598,
      "##ذیری": 3599,
      "زمینی": 3600,
      "فدراسیون": 3601,
      "دون": 3602,
      "عمد": 3603,
      "##کور": 3604,
      "سويیس": 3605,
      "##ستری": 3606,
      "الع": 3607,
      "پدی": 3608,
      "##التح": 3609,
      "بگیرد": 3610,
      "امنیتی": 3611,
      "میدانند": 3612,
      "نوشتن": 3613,
      "##باسی": 3614,
      "عک": 3615,
      "واش": 3616,
      "خرداد": 3617,
      "کهن": 3618,
      "افریقا": 3619,
      "متم": 3620,
      "عناصر": 3621,
      "یهودیان": 3622,
      "ارزی": 3623,
      "ران": 3624,
      "امین": 3625,
      "##گه": 3626,
      "فارغالتح": 3627,
      "##ad": 3628,
      "##ation": 3629,
      "روند": 3630,
      "##راب": 3631,
      "دریاچه": 3632,
      "محمدرضا": 3633,
      "##تان": 3634,
      "##بخش": 3635,
      "بازسازی": 3636,
      "اعتقاد": 3637,
      "گیاهان": 3638,
      "##ir": 3639,
      "دعوت": 3640,
      "الجز": 3641,
      "##زنی": 3642,
      "سالها": 3643,
      "اهن": 3644,
      "اهداف": 3645,
      "موافق": 3646,
      "##قات": 3647,
      "##زای": 3648,
      "گم": 3649,
      "راهاندازی": 3650,
      "بکار": 3651,
      "##امیز": 3652,
      "وای": 3653,
      "خاور": 3654,
      "کشورها": 3655,
      "مادرش": 3656,
      "امت": 3657,
      "نح": 3658,
      "##وود": 3659,
      "ندارند": 3660,
      "جنگی": 3661,
      "زدن": 3662,
      "##امده": 3663,
      "اقیانوس": 3664,
      "عی": 3665,
      "موزیک": 3666,
      "##ot": 3667,
      "##وام": 3668,
      "راک": 3669,
      "##یکس": 3670,
      "##لوچستان": 3671,
      "دیپ": 3672,
      "موا": 3673,
      "##وبلوچستان": 3674,
      "پیمان": 3675,
      "سیستانوبلوچستان": 3676,
      "هندی": 3677,
      "هواپیما": 3678,
      "شکار": 3679,
      "##ارتی": 3680,
      "##يه": 3681,
      "دانشجویان": 3682,
      "منفی": 3683,
      "تولد": 3684,
      "کاست": 3685,
      "##وح": 3686,
      "##ستند": 3687,
      "##بلی": 3688,
      "افس": 3689,
      "##یاش": 3690,
      "میساز": 3691,
      "کلاسیک": 3692,
      "تفسیر": 3693,
      "##باه": 3694,
      "##اشا": 3695,
      "کوب": 3696,
      "یزد": 3697,
      "##پار": 3698,
      "برداشت": 3699,
      "اکاد": 3700,
      "134": 3701,
      "##زدهم": 3702,
      "هفتم": 3703,
      "شهریور": 3704,
      "استخوان": 3705,
      "خرم": 3706,
      "پرچ": 3707,
      "ایرانیان": 3708,
      "مواجه": 3709,
      "بیستم": 3710,
      "اینجا": 3711,
      "راهن": 3712,
      "##ist": 3713,
      "منطقهای": 3714,
      "بهشدت": 3715,
      "##تمند": 3716,
      "رومی": 3717,
      "##سلط": 3718,
      "کامپیوتر": 3719,
      "سعید": 3720,
      "خیر": 3721,
      "برگزاری": 3722,
      "##نوعی": 3723,
      "اورده": 3724,
      "مراکز": 3725,
      "نقل": 3726,
      "چال": 3727,
      "قطعات": 3728,
      "عمدتا": 3729,
      "رفته": 3730,
      "تصاد": 3731,
      "##کوه": 3732,
      "تهیهکننده": 3733,
      "ناگ": 3734,
      "کربن": 3735,
      "ظرفیت": 3736,
      "دانشام": 3737,
      "ترکیبی": 3738,
      "##الیف": 3739,
      "تگز": 3740,
      "ادر": 3741,
      "##جایی": 3742,
      "نخستوزیر": 3743,
      "##ac": 3744,
      "نیستند": 3745,
      "دستگیر": 3746,
      "اتصال": 3747,
      "خری": 3748,
      "جورج": 3749,
      "عاشق": 3750,
      "ایا": 3751,
      "هرگز": 3752,
      "سامانه": 3753,
      "ناز": 3754,
      "حاوی": 3755,
      "اظهار": 3756,
      "ریچارد": 3757,
      "##فرد": 3758,
      "اهالی": 3759,
      "خات": 3760,
      "اردی": 3761,
      "تگزاس": 3762,
      "##روی": 3763,
      "ارسال": 3764,
      "حافظه": 3765,
      "##ویسد": 3766,
      "نقد": 3767,
      "بق": 3768,
      "##بند": 3769,
      "##امپ": 3770,
      "سنگین": 3771,
      "میکرو": 3772,
      "سرمایهگذاری": 3773,
      "سرم": 3774,
      "راس": 3775,
      "اطلاعاتی": 3776,
      "##رهای": 3777,
      "##جیت": 3778,
      "##ايی": 3779,
      "ثرو": 3780,
      "بلژیک": 3781,
      "مقامات": 3782,
      "فیزیکی": 3783,
      "چشمه": 3784,
      "ممن": 3785,
      "قبر": 3786,
      "لذ": 3787,
      "##گاری": 3788,
      "##انید": 3789,
      "دیدگاه": 3790,
      "جمعاوری": 3791,
      "جزایر": 3792,
      "کوش": 3793,
      "تماس": 3794,
      "تهدید": 3795,
      "محاس": 3796,
      "نفوس": 3797,
      "فران": 3798,
      "کدام": 3799,
      "نواحی": 3800,
      "زده": 3801,
      "سلاح": 3802,
      "بازداشت": 3803,
      "مثبت": 3804,
      "محور": 3805,
      "سنج": 3806,
      "سفارت": 3807,
      "مخالفت": 3808,
      "سینمای": 3809,
      "رام": 3810,
      "عف": 3811,
      "تجهیزات": 3812,
      "فلزی": 3813,
      "حملون": 3814,
      "عضویت": 3815,
      "ارتباطات": 3816,
      "بروز": 3817,
      "منصوب": 3818,
      "##ایم": 3819,
      "تصرف": 3820,
      "ویدي": 3821,
      "حملونقل": 3822,
      "##غه": 3823,
      "انتقاد": 3824,
      "گران": 3825,
      "افتاد": 3826,
      "فدر": 3827,
      "روغن": 3828,
      "مسلح": 3829,
      "اشغال": 3830,
      "مجدد": 3831,
      "بلغارستان": 3832,
      "موسیق": 3833,
      "بغ": 3834,
      "سلولهای": 3835,
      "ایده": 3836,
      "##چند": 3837,
      "حجم": 3838,
      "گوشت": 3839,
      "بمب": 3840,
      "##اقی": 3841,
      "وک": 3842,
      "پیشبینی": 3843,
      "فلور": 3844,
      "توافق": 3845,
      "تخم": 3846,
      "##ag": 3847,
      "سلسله": 3848,
      "زخ": 3849,
      "##بهشت": 3850,
      "اتوم": 3851,
      "##بول": 3852,
      "محاسبه": 3853,
      "چهل": 3854,
      "شداز": 3855,
      "تخریب": 3856,
      "##فری": 3857,
      "نرخ": 3858,
      "پرست": 3859,
      "هور": 3860,
      "بیک": 3861,
      "ایین": 3862,
      "مبتنی": 3863,
      "تقویت": 3864,
      "لیست": 3865,
      "فرزندان": 3866,
      "کردستان": 3867,
      "نقشه": 3868,
      "کاربران": 3869,
      "ردی": 3870,
      "شاهزاده": 3871,
      "سرطان": 3872,
      "دسترس": 3873,
      "هاش": 3874,
      "قربانی": 3875,
      "متوجه": 3876,
      "##راحی": 3877,
      "##اپور": 3878,
      "بهت": 3879,
      "##زدی": 3880,
      "پتر": 3881,
      "##مولی": 3882,
      "یکبار": 3883,
      "اولی": 3884,
      "##بس": 3885,
      "##ینت": 3886,
      "##عیف": 3887,
      "##یدر": 3888,
      "اردیبهشت": 3889,
      "صند": 3890,
      "بریتانیایی": 3891,
      "##دریایی": 3892,
      "ستار": 3893,
      "نکرد": 3894,
      "##لوب": 3895,
      "##نرانی": 3896,
      "مرداد": 3897,
      "مایع": 3898,
      "خانم": 3899,
      "سخنرانی": 3900,
      "بت": 3901,
      "##تماد": 3902,
      "معل": 3903,
      "خطوط": 3904,
      "نماید": 3905,
      "##وایی": 3906,
      "اندیس": 3907,
      "en": 3908,
      "فلسط": 3909,
      "##التی": 3910,
      "##زام": 3911,
      "پارسی": 3912,
      "نروژ": 3913,
      "##جوی": 3914,
      "##وهی": 3915,
      "جنس": 3916,
      "کتابی": 3917,
      "ستون": 3918,
      "دبیرستان": 3919,
      "دشمن": 3920,
      "##ایف": 3921,
      "##گرا": 3922,
      "بهترتیب": 3923,
      "همواره": 3924,
      "جایزهی": 3925,
      "زمستان": 3926,
      "هال": 3927,
      "تض": 3928,
      "شهرها": 3929,
      "پات": 3930,
      "میزبان": 3931,
      "##قابل": 3932,
      "##امن": 3933,
      "ارزیابی": 3934,
      "زیردریایی": 3935,
      "##زده": 3936,
      "##لاین": 3937,
      "کول": 3938,
      "پنه": 3939,
      "فارغالتحصیل": 3940,
      "جانشین": 3941,
      "##لات": 3942,
      "سگ": 3943,
      "حادث": 3944,
      "امضا": 3945,
      "##ایتد": 3946,
      "انیم": 3947,
      "استرات": 3948,
      "مجموعهی": 3949,
      "امروزی": 3950,
      "مایک": 3951,
      "بالایی": 3952,
      "##وکار": 3953,
      "خروجی": 3954,
      "چاه": 3955,
      "##وتو": 3956,
      "زیبایی": 3957,
      "غلام": 3958,
      "اوج": 3959,
      "کوچکتر": 3960,
      "##ter": 3961,
      "سوار": 3962,
      "##فورد": 3963,
      "##طفی": 3964,
      "##غم": 3965,
      "صادر": 3966,
      "##ig": 3967,
      "##وکس": 3968,
      "کابل": 3969,
      "ازاین": 3970,
      "دههی": 3971,
      "حیات": 3972,
      "تلفن": 3973,
      "ریش": 3974,
      "خوبی": 3975,
      "بنگ": 3976,
      "خاط": 3977,
      "نوجوان": 3978,
      "حاج": 3979,
      "مرغ": 3980,
      "همگانی": 3981,
      "##وفی": 3982,
      "کنسر": 3983,
      "قه": 3984,
      "خارجه": 3985,
      "ادوارد": 3986,
      "مخلو": 3987,
      "##وستان": 3988,
      "حدی": 3989,
      "##وردین": 3990,
      "میگرفت": 3991,
      "تالیف": 3992,
      "##قیقی": 3993,
      "دیپلم": 3994,
      "بهوسی": 3995,
      "رایانه": 3996,
      "##جین": 3997,
      "##سایت": 3998,
      "دیجیت": 3999,
      "فیر": 4000,
      "##زیم": 4001,
      "مطابق": 4002,
      "شورش": 4003,
      "شاهد": 4004,
      "بز": 4005,
      "خشونت": 4006,
      "192": 4007,
      "##انداز": 4008,
      "##انیم": 4009,
      "##یلا": 4010,
      "قلمرو": 4011,
      "تکنیک": 4012,
      "قوم": 4013,
      "اسناد": 4014,
      "##لان": 4015,
      "هرچند": 4016,
      "گونههای": 4017,
      "برن": 4018,
      "یونایتد": 4019,
      "##وقی": 4020,
      "الق": 4021,
      "دوربین": 4022,
      "فعلی": 4023,
      "ابشار": 4024,
      "کلید": 4025,
      "##od": 4026,
      "افسر": 4027,
      "ملت": 4028,
      "##اسیون": 4029,
      "شیرین": 4030,
      "ساحل": 4031,
      "##قیب": 4032,
      "نک": 4033,
      "##هایش": 4034,
      "کمدی": 4035,
      "همسرش": 4036,
      "هنرمندان": 4037,
      "قطب": 4038,
      "نژاد": 4039,
      "برس": 4040,
      "ایرلند": 4041,
      "اکث": 4042,
      "##مح": 4043,
      "تمرکز": 4044,
      "محیطزیست": 4045,
      "علاقه": 4046,
      "باقیمانده": 4047,
      "سرپر": 4048,
      "##ناطیسی": 4049,
      "نیش": 4050,
      "کنت": 4051,
      "مینویسد": 4052,
      "##بازی": 4053,
      "جوایز": 4054,
      "شبکههای": 4055,
      "برقرار": 4056,
      "میرفت": 4057,
      "خواهند": 4058,
      "##اماس": 4059,
      "2008": 4060,
      "بتواند": 4061,
      "رست": 4062,
      "اسمان": 4063,
      "جراحی": 4064,
      "اشنا": 4065,
      "##ونز": 4066,
      "اردو": 4067,
      "قص": 4068,
      "اکسی": 4069,
      "##وسته": 4070,
      "وبسایت": 4071,
      "کامپ": 4072,
      "فراو": 4073,
      "نگر": 4074,
      "زرت": 4075,
      "امدن": 4076,
      "افتخار": 4077,
      "وظیفه": 4078,
      "نتوان": 4079,
      "اشکار": 4080,
      "پیچیده": 4081,
      "میاورد": 4082,
      "حملات": 4083,
      "اشعار": 4084,
      "مستقر": 4085,
      "راهی": 4086,
      "##دهنده": 4087,
      "گام": 4088,
      "سهام": 4089,
      "فروردین": 4090,
      "نقاش": 4091,
      "ضمن": 4092,
      "ابوه": 4093,
      "##قدر": 4094,
      "تصاویر": 4095,
      "معمولی": 4096,
      "بهسر": 4097,
      "بک": 4098,
      "جبهه": 4099,
      "دادههای": 4100,
      "ادام": 4101,
      "نویسندگی": 4102,
      "بهداشت": 4103,
      "اوردن": 4104,
      "میرو": 4105,
      "هیل": 4106,
      "فیلمبرداری": 4107,
      "##ودر": 4108,
      "پارل": 4109,
      "قایق": 4110,
      "واک": 4111,
      "##قیاس": 4112,
      "رضوی": 4113,
      "رسیدهاست": 4114,
      "شف": 4115,
      "تدوین": 4116,
      "انتظار": 4117,
      "کانال": 4118,
      "کاس": 4119,
      "مض": 4120,
      "خلاف": 4121,
      "##متری": 4122,
      "بهطوریکه": 4123,
      "پیامبر": 4124,
      "طلایی": 4125,
      "کارخانه": 4126,
      "تروری": 4127,
      "##میان": 4128,
      "##گزاری": 4129,
      "جزو": 4130,
      "پیرامون": 4131,
      "ایوان": 4132,
      "رژ": 4133,
      "کیم": 4134,
      "##انکا": 4135,
      "اقدامات": 4136,
      "نمایشگاه": 4137,
      "کیلوگرم": 4138,
      "شاخص": 4139,
      "##جار": 4140,
      "فراوانی": 4141,
      "انح": 4142,
      "پرتاب": 4143,
      "سالن": 4144,
      "ویروس": 4145,
      "عصبی": 4146,
      "مناس": 4147,
      "کمیسیون": 4148,
      "الجزایر": 4149,
      "هویت": 4150,
      "##کته": 4151,
      "لبنان": 4152,
      "حداک": 4153,
      "برمی": 4154,
      "درباره": 4155,
      "عنصر": 4156,
      "پرچم": 4157,
      "de": 4158,
      "ملاق": 4159,
      "همدان": 4160,
      "الک": 4161,
      "محاسب": 4162,
      "گیرد": 4163,
      "مخفی": 4164,
      "##ظاه": 4165,
      "حلقه": 4166,
      "پرس": 4167,
      "چهارمین": 4168,
      "##ایای": 4169,
      "همج": 4170,
      "##ینگتن": 4171,
      "##گونهای": 4172,
      "راد": 4173,
      "منظور": 4174,
      "درس": 4175,
      "con": 4176,
      "خسرو": 4177,
      "فراوان": 4178,
      "##ریح": 4179,
      "مقیاس": 4180,
      "هشتم": 4181,
      "##نم": 4182,
      "پروژ": 4183,
      "متعددی": 4184,
      "صبح": 4185,
      "تکرار": 4186,
      "حرارت": 4187,
      "مینماید": 4188,
      "اکادمی": 4189,
      "ري": 4190,
      "مغول": 4191,
      "هواگرد": 4192,
      "تصور": 4193,
      "##غام": 4194,
      "مجموعههای": 4195,
      "نسبتا": 4196,
      "هزین": 4197,
      "re": 4198,
      "دندان": 4199,
      "جوایزی": 4200,
      "دوی": 4201,
      "خن": 4202,
      "عمی": 4203,
      "صادق": 4204,
      "ذرات": 4205,
      "##سوار": 4206,
      "چگونه": 4207,
      "میافت": 4208,
      "احتر": 4209,
      "غیره": 4210,
      "برگزیده": 4211,
      "مسيولیت": 4212,
      "یافتن": 4213,
      "##شناسان": 4214,
      "##ناس": 4215,
      "ترجم": 4216,
      "فرمانرو": 4217,
      "لوله": 4218,
      "فدرال": 4219,
      "##اهیر": 4220,
      "un": 4221,
      "شان": 4222,
      "##یدند": 4223,
      "محسن": 4224,
      "سیگن": 4225,
      "فاز": 4226,
      "معدنی": 4227,
      "گرایش": 4228,
      "رسیده": 4229,
      "قابلتوجهی": 4230,
      "2009": 4231,
      "##im": 4232,
      "ch": 4233,
      "مکزیک": 4234,
      "##ونیک": 4235,
      "انف": 4236,
      "##st": 4237,
      "لقب": 4238,
      "نیو": 4239,
      "##خصص": 4240,
      "##یمتر": 4241,
      "مقالات": 4242,
      "نیا": 4243,
      "نمیکند": 4244,
      "حداکثر": 4245,
      "پیتر": 4246,
      "##فات": 4247,
      "سرا": 4248,
      "درگیر": 4249,
      "##یتا": 4250,
      "شیوه": 4251,
      "محدوده": 4252,
      "##صاب": 4253,
      "##غر": 4254,
      "زنی": 4255,
      "مشک": 4256,
      "گیاهی": 4257,
      "محدودیت": 4258,
      "شای": 4259,
      "دش": 4260,
      "عام": 4261,
      "جدی": 4262,
      "##سوف": 4263,
      "شج": 4264,
      "عب": 4265,
      "طال": 4266,
      "خانگی": 4267,
      "##روم": 4268,
      "متخصص": 4269,
      "کوههای": 4270,
      "منتقدان": 4271,
      "##بهی": 4272,
      "بازدید": 4273,
      "##پت": 4274,
      "اعداد": 4275,
      "##گس": 4276,
      "##اکا": 4277,
      "کالج": 4278,
      "مکتب": 4279,
      "ظهور": 4280,
      "مذهب": 4281,
      "جین": 4282,
      "دانشگاهی": 4283,
      "مصنوعی": 4284,
      "##عید": 4285,
      "واشینگتن": 4286,
      "رویداد": 4287,
      "الله": 4288,
      "افتت": 4289,
      "کنس": 4290,
      "##اء": 4291,
      "اداری": 4292,
      "اعتماد": 4293,
      "##وقف": 4294,
      "رها": 4295,
      "ابتدای": 4296,
      "اشتباه": 4297,
      "استق": 4298,
      "قهرمانان": 4299,
      "##ازدهم": 4300,
      "کوک": 4301,
      "مترجم": 4302,
      "تغذ": 4303,
      "شاخه": 4304,
      "سالی": 4305,
      "گردد": 4306,
      "مارتین": 4307,
      "دوازده": 4308,
      "تخصصی": 4309,
      "##چیز": 4310,
      "واقعیت": 4311,
      "##ورهای": 4312,
      "##واز": 4313,
      "کودکی": 4314,
      "2006": 4315,
      "سوپر": 4316,
      "اثبات": 4317,
      "میتو": 4318,
      "##استیک": 4319,
      "دروازه": 4320,
      "جماهیر": 4321,
      "کلمبیا": 4322,
      "##وانه": 4323,
      "##ولیک": 4324,
      "فاط": 4325,
      "بهسرعت": 4326,
      "##فرانس": 4327,
      "مجمع": 4328,
      "2010": 4329,
      "##پذیری": 4330,
      "حیوانات": 4331,
      "متوقف": 4332,
      "زندانی": 4333,
      "درمانی": 4334,
      "نمک": 4335,
      "استع": 4336,
      "##ومن": 4337,
      "الهی": 4338,
      "##اصره": 4339,
      "##کیه": 4340,
      "ثانیه": 4341,
      "بسکت": 4342,
      "متح": 4343,
      "کلیسا": 4344,
      "محض": 4345,
      "##ورن": 4346,
      "قره": 4347,
      "گفتگو": 4348,
      "الت": 4349,
      "2007": 4350,
      "فولاد": 4351,
      "قاضی": 4352,
      "ملاقات": 4353,
      "##عهد": 4354,
      "کنگره": 4355,
      "اقامت": 4356,
      "والیبال": 4357,
      "بسکتبال": 4358,
      "فایل": 4359,
      "##رون": 4360,
      "پرنده": 4361,
      "فنلاند": 4362,
      "الهام": 4363,
      "ابتدایی": 4364,
      "کمونیست": 4365,
      "اگ": 4366,
      "##ويل": 4367,
      "قزوین": 4368,
      "لیت": 4369,
      "مسعود": 4370,
      "نمیتواند": 4371,
      "چش": 4372,
      "جعفر": 4373,
      "همس": 4374,
      "مخاط": 4375,
      "مایل": 4376,
      "پورت": 4377,
      "رنج": 4378,
      "##ولیس": 4379,
      "صفوی": 4380,
      "لاک": 4381,
      "درخش": 4382,
      "افتتاح": 4383,
      "مردی": 4384,
      "غر": 4385,
      "##og": 4386,
      "سعودی": 4387,
      "رژیم": 4388,
      "##ودن": 4389,
      "ساختن": 4390,
      "بهوسیلهی": 4391,
      "دهم": 4392,
      "پنجاه": 4393,
      "مراحل": 4394,
      "##ارن": 4395,
      "##فران": 4396,
      "مینام": 4397,
      "2012": 4398,
      "##ran": 4399,
      "##ابور": 4400,
      "یافتهاست": 4401,
      "هسته": 4402,
      "اون": 4403,
      "بهگونهای": 4404,
      "محاصره": 4405,
      "اختلال": 4406,
      "گش": 4407,
      "##خر": 4408,
      "سلامت": 4409,
      "دارایی": 4410,
      "دال": 4411,
      "کت": 4412,
      "نهم": 4413,
      "2011": 4414,
      "دامنه": 4415,
      "اوقات": 4416,
      "حرک": 4417,
      "اتهام": 4418,
      "سدهی": 4419,
      "پرونده": 4420,
      "عزی": 4421,
      "قسم": 4422,
      "بهخصوص": 4423,
      "نباید": 4424,
      "توماس": 4425,
      "همانطور": 4426,
      "خز": 4427,
      "میروند": 4428,
      "کارت": 4429,
      "##وخت": 4430,
      "البر": 4431,
      "##ختیاری": 4432,
      "2013": 4433,
      "2005": 4434,
      "تقد": 4435,
      "زلز": 4436,
      "نمایندگی": 4437,
      "دانشمندان": 4438,
      "مبل": 4439,
      "کس": 4440,
      "##عهده": 4441,
      "دیک": 4442,
      "دلایل": 4443,
      "عادی": 4444,
      "خالی": 4445,
      "ویند": 4446,
      "حسینی": 4447,
      "پم": 4448,
      "دگر": 4449,
      "بنام": 4450,
      "##برند": 4451,
      "##خل": 4452,
      "اعتبار": 4453,
      "خواندن": 4454,
      "دانسته": 4455,
      "خروج": 4456,
      "دادهاند": 4457,
      "کارگران": 4458,
      "ارش": 4459,
      "##زید": 4460,
      "سانتیمتر": 4461,
      "بوت": 4462,
      "گند": 4463,
      "کلاه": 4464,
      "سربازان": 4465,
      "ذهن": 4466,
      "نیت": 4467,
      "نمایشنامه": 4468,
      "##ورتی": 4469,
      "فیلمنامهنویس": 4470,
      "نع": 4471,
      "##قف": 4472,
      "میانگین": 4473,
      "حادثه": 4474,
      "##ریز": 4475,
      "انتونی": 4476,
      "ناحی": 4477,
      "##الا": 4478,
      "سالانه": 4479,
      "نیل": 4480,
      "انتهای": 4481,
      "##تیو": 4482,
      "پذیرش": 4483,
      "جلب": 4484,
      "مذاک": 4485,
      "##مارک": 4486,
      "بخار": 4487,
      "کاغذ": 4488,
      "##پن": 4489,
      "بیبی": 4490,
      "بول": 4491,
      "بردن": 4492,
      "محوط": 4493,
      "فرید": 4494,
      "مظ": 4495,
      "کمپانی": 4496,
      "پرورش": 4497,
      "برلین": 4498,
      "فرام": 4499,
      "افریقای": 4500,
      "##راسی": 4501,
      "صحیح": 4502,
      "##خانهی": 4503,
      "محافظت": 4504,
      "##لیس": 4505,
      "فرستاد": 4506,
      "عهد": 4507,
      "##وزف": 4508,
      "تکنولوژی": 4509,
      "مالیات": 4510,
      "##تس": 4511,
      "فور": 4512,
      "چارلز": 4513,
      "فیلمهایی": 4514,
      "هواپیمایی": 4515,
      "حقوقی": 4516,
      "میسازد": 4517,
      "##ادیر": 4518,
      "تقویم": 4519,
      "خواند": 4520,
      "ابد": 4521,
      "ساسانی": 4522,
      "اسیای": 4523,
      "##ایات": 4524,
      "راهاهن": 4525,
      "موسیقیدان": 4526,
      "دراز": 4527,
      "صدر": 4528,
      "دهنده": 4529,
      "عرف": 4530,
      "بغداد": 4531,
      "تغذیه": 4532,
      "گستردهای": 4533,
      "مقط": 4534,
      "##چوب": 4535,
      "نیوز": 4536,
      "پژوهشی": 4537,
      "##ودا": 4538,
      "##انگیز": 4539,
      "شخصیتهای": 4540,
      "وان": 4541,
      "ناو": 4542,
      "##یشده": 4543,
      "تمایل": 4544,
      "ازمون": 4545,
      "سابقه": 4546,
      "جفت": 4547,
      "شری": 4548,
      "قبلا": 4549,
      "برسد": 4550,
      "مسکو": 4551,
      "متشکل": 4552,
      "سازمانهای": 4553,
      "زود": 4554,
      "یوسف": 4555,
      "پذیرفت": 4556,
      "گرین": 4557,
      "بنای": 4558,
      "ویديویی": 4559,
      "##طبی": 4560,
      "تکمیل": 4561,
      "بهرهبرداری": 4562,
      "بازنش": 4563,
      "روزهای": 4564,
      "توی": 4565,
      "کنفرانس": 4566,
      "##ردی": 4567,
      "میخواهد": 4568,
      "طبقهبندی": 4569,
      "روبرو": 4570,
      "پیوسته": 4571,
      "محمدعلی": 4572,
      "همر": 4573,
      "##فال": 4574,
      "##ce": 4575,
      "بهدست": 4576,
      "بیگ": 4577,
      "شیعی": 4578,
      "دیدن": 4579,
      "داستانهای": 4580,
      "دورههای": 4581,
      "هتل": 4582,
      "فیلسوف": 4583,
      "صلیبی": 4584,
      "خبرگزاری": 4585,
      "اخلاقی": 4586,
      "##جستان": 4587,
      "شدوی": 4588,
      "خم": 4589,
      "##ایا": 4590,
      "تحریک": 4591,
      "لويی": 4592,
      "استدل": 4593,
      "نصر": 4594,
      "خداوند": 4595,
      "نداشته": 4596,
      "حاجی": 4597,
      "عقی": 4598,
      "##سوم": 4599,
      "تمدن": 4600,
      "##ay": 4601,
      "همکار": 4602,
      "پایانی": 4603,
      "پایدار": 4604,
      "تاجیک": 4605,
      "حذفی": 4606,
      "الکساندر": 4607,
      "جنگهای": 4608,
      "##ویق": 4609,
      "جوانی": 4610,
      "اندکی": 4611,
      "برعهده": 4612,
      "محت": 4613,
      "ملکه": 4614,
      "بحران": 4615,
      "##امیان": 4616,
      "is": 4617,
      "##خوار": 4618,
      "متهم": 4619,
      "##هان": 4620,
      "##اهنگی": 4621,
      "##رانی": 4622,
      "الکترونیکی": 4623,
      "رج": 4624,
      "فلز": 4625,
      "##الدوله": 4626,
      "انسانها": 4627,
      "##یمن": 4628,
      "وسایل": 4629,
      "مولکول": 4630,
      "wik": 4631,
      "##گراد": 4632,
      "رب": 4633,
      "کاز": 4634,
      "##گفت": 4635,
      "برخلاف": 4636,
      "غیرم": 4637,
      "منع": 4638,
      "روید": 4639,
      "##گیل": 4640,
      "al": 4641,
      "رشتهی": 4642,
      "اگاهی": 4643,
      "##ian": 4644,
      "##ستا": 4645,
      "نوک": 4646,
      "پردازش": 4647,
      "هری": 4648,
      "##یکو": 4649,
      "مصاح": 4650,
      "سنگی": 4651,
      "باکتری": 4652,
      "دادهها": 4653,
      "مخلوط": 4654,
      "پنجمین": 4655,
      "##انزده": 4656,
      "##یرو": 4657,
      "##مدت": 4658,
      "ترس": 4659,
      "بچه": 4660,
      "معرض": 4661,
      "گلی": 4662,
      "هخ": 4663,
      "##طیل": 4664,
      "خاطرات": 4665,
      "##ضه": 4666,
      "تقسیمات": 4667,
      "علیرضا": 4668,
      "##ie": 4669,
      "##نگاری": 4670,
      "25": 4671,
      "دانشمند": 4672,
      "ایمنی": 4673,
      "گره": 4674,
      "عباسی": 4675,
      "زین": 4676,
      "##طن": 4677,
      "##لع": 4678,
      "##صار": 4679,
      "##سیا": 4680,
      "تالار": 4681,
      "خواص": 4682,
      "یابد": 4683,
      "##and": 4684,
      "##داث": 4685,
      "اندیش": 4686,
      "نوشتهشده": 4687,
      "بیماریهای": 4688,
      "وقوع": 4689,
      "##چههای": 4690,
      "ph": 4691,
      "کومونه": 4692,
      "##oc": 4693,
      "اکبر": 4694,
      "##مدی": 4695,
      "##اختی": 4696,
      "wikip": 4697,
      "فره": 4698,
      "خبری": 4699,
      "چای": 4700,
      "ویکتور": 4701,
      "##جن": 4702,
      "هرمز": 4703,
      "مهارت": 4704,
      "بیماران": 4705,
      "##ادله": 4706,
      "مدارس": 4707,
      "اینها": 4708,
      "تربیت": 4709,
      "انداز": 4710,
      "مقادیر": 4711,
      "ar": 4712,
      "سرکوب": 4713,
      "مبتلا": 4714,
      "مفید": 4715,
      "wikipedia": 4716,
      "طر": 4717,
      "پنهان": 4718,
      "فیروز": 4719,
      "داغ": 4720,
      "##امع": 4721,
      "##ماه": 4722,
      "2014": 4723,
      "نازی": 4724,
      "مبنی": 4725,
      "لرستان": 4726,
      "نسخهی": 4727,
      "سنای": 4728,
      "ابع": 4729,
      "191": 4730,
      "فس": 4731,
      "داشتهاند": 4732,
      "انقلابی": 4733,
      "گیتار": 4734,
      "برادرش": 4735,
      "##صری": 4736,
      "ضعیف": 4737,
      "دانشگاههای": 4738,
      "کوان": 4739,
      "ازاینرو": 4740,
      "تيوری": 4741,
      "مصاحبه": 4742,
      "##نگار": 4743,
      "پذیرفته": 4744,
      "هواپیمای": 4745,
      "ارکستر": 4746,
      "##ابله": 4747,
      "نوار": 4748,
      "##نند": 4749,
      "##اطع": 4750,
      "داریم": 4751,
      "متعدد": 4752,
      "اعط": 4753,
      "ملا": 4754,
      "یکسان": 4755,
      "ثمر": 4756,
      "هوای": 4757,
      "موری": 4758,
      "حین": 4759,
      "دیل": 4760,
      "داریوش": 4761,
      "اي": 4762,
      "زمینهای": 4763,
      "امکانات": 4764,
      "##خور": 4765,
      "##مینان": 4766,
      "اسفالت": 4767,
      "##رار": 4768,
      "احداث": 4769,
      "روزنامهنگار": 4770,
      "بازیگری": 4771,
      "دیجیتال": 4772,
      "قبول": 4773,
      "فرستاده": 4774,
      "##یاء": 4775,
      "##نوشت": 4776,
      "مامور": 4777,
      "دستگاههای": 4778,
      "قار": 4779,
      "خوار": 4780,
      "سیب": 4781,
      "رهبران": 4782,
      "##امنشی": 4783,
      "خمینی": 4784,
      "##فش": 4785,
      "میافتد": 4786,
      "روانشناسی": 4787,
      "دانمارک": 4788,
      "##انزدهم": 4789,
      "عش": 4790,
      "##تاژ": 4791,
      "لار": 4792,
      "##چین": 4793,
      "هخامنشی": 4794,
      "حش": 4795,
      "جک": 4796,
      "اسیایی": 4797,
      "کلیه": 4798,
      "##ow": 4799,
      "مصطفی": 4800,
      "میخواه": 4801,
      "پید": 4802,
      "بهخوبی": 4803,
      "##بای": 4804,
      "بهم": 4805,
      "pr": 4806,
      "غار": 4807,
      "##اکو": 4808,
      "تپ": 4809,
      "مانع": 4810,
      "##تنها": 4811,
      "21": 4812,
      "استن": 4813,
      "ادغام": 4814,
      "یادگیری": 4815,
      "طیف": 4816,
      "##th": 4817,
      "بینالملل": 4818,
      "کوتاهی": 4819,
      "سطوح": 4820,
      "تمرین": 4821,
      "هان": 4822,
      "اچاماس": 4823,
      "کریم": 4824,
      "نکر": 4825,
      "بهرام": 4826,
      "مجوز": 4827,
      "##اتل": 4828,
      "تاون": 4829,
      "ویندوز": 4830,
      "بنیانگذار": 4831,
      "سفیر": 4832,
      "خودکشی": 4833,
      "بالغ": 4834,
      "مبنیبر": 4835,
      "پیت": 4836,
      "انع": 4837,
      "خانوادگی": 4838,
      "عط": 4839,
      "سلیمان": 4840,
      "نشدهاست": 4841,
      "##طوب": 4842,
      "مقابله": 4843,
      "سون": 4844,
      "سالم": 4845,
      "##تیک": 4846,
      "کانون": 4847,
      "مجددا": 4848,
      "باران": 4849,
      "گیرنده": 4850,
      "هلندی": 4851,
      "خودم": 4852,
      "بقیه": 4853,
      "دوچرخهسوار": 4854,
      "گرگ": 4855,
      "اگو": 4856,
      "رشتههای": 4857,
      "##ایتی": 4858,
      "معا": 4859,
      "شمسی": 4860,
      "زمینهی": 4861,
      "شغل": 4862,
      "بگ": 4863,
      "گرچه": 4864,
      "##پای": 4865,
      "جاب": 4866,
      "نوزدهم": 4867,
      "جاس": 4868,
      "##طل": 4869,
      "الکترونیک": 4870,
      "ابو": 4871,
      "##کیو": 4872,
      "کردی": 4873,
      "کاند": 4874,
      "کاروان": 4875,
      "الدین": 4876,
      "تخمین": 4877,
      "ژنر": 4878,
      "سریل": 4879,
      "تصادفی": 4880,
      "ستاد": 4881,
      "خدای": 4882,
      "برنامهنویسی": 4883,
      "##کوپ": 4884,
      "##عب": 4885,
      "کمال": 4886,
      "ظاهری": 4887,
      "اختراع": 4888,
      "عموما": 4889,
      "اوی": 4890,
      "محقق": 4891,
      "نقط": 4892,
      "توسعهی": 4893,
      "دودمان": 4894,
      "درختان": 4895,
      "##بیت": 4896,
      "نوین": 4897,
      "تحول": 4898,
      "جبر": 4899,
      "مغناطیسی": 4900,
      "اطمینان": 4901,
      "##وکو": 4902,
      "فو": 4903,
      "جرج": 4904,
      "مردمی": 4905,
      "##زلی": 4906,
      "شل": 4907,
      "برون": 4908,
      "پیروز": 4909,
      "2004": 4910,
      "جسم": 4911,
      "مقطع": 4912,
      "بیه": 4913,
      "اندر": 4914,
      "فینال": 4915,
      "ed": 4916,
      "پسرش": 4917,
      "هول": 4918,
      "گواه": 4919,
      "حمام": 4920,
      "میکشد": 4921,
      "جلال": 4922,
      "لن": 4923,
      "هش": 4924,
      "منط": 4925,
      "##تین": 4926,
      "##رنگ": 4927,
      "بهینه": 4928,
      "لسان": 4929,
      "چهره": 4930,
      "گرفتهاند": 4931,
      "نگارش": 4932,
      "معتبر": 4933,
      "##یما": 4934,
      "##کوس": 4935,
      "کوچکی": 4936,
      "ارامگاه": 4937,
      "اشکال": 4938,
      "جزء": 4939,
      "مرتضی": 4940,
      "متمرکز": 4941,
      "سریلانکا": 4942,
      "نخواهد": 4943,
      "عوض": 4944,
      "پیشرفته": 4945,
      "ایفا": 4946,
      "وست": 4947,
      "خواستار": 4948,
      "##وره": 4949,
      "##ختری": 4950,
      "شدت": 4951,
      "کین": 4952,
      "##ap": 4953,
      "گود": 4954,
      "سینه": 4955,
      "##جلس": 4956,
      "میایند": 4957,
      "##اندازه": 4958,
      "ارتباطی": 4959,
      "##منت": 4960,
      "انس": 4961,
      "سوال": 4962,
      "##یرا": 4963,
      "مجازی": 4964,
      "ریاضیات": 4965,
      "کاتولیک": 4966,
      "کنی": 4967,
      "اینترنتی": 4968,
      "نماز": 4969,
      "نهتنها": 4970,
      "قسمتی": 4971,
      "جمعی": 4972,
      "قطعنامه": 4973,
      "مردمان": 4974,
      "##اسط": 4975,
      "روانی": 4976,
      "برود": 4977,
      "جستجوی": 4978,
      "ارس": 4979,
      "ne": 4980,
      "مراق": 4981,
      "کرب": 4982,
      "عیسی": 4983,
      "اسلو": 4984,
      "استانهای": 4985,
      "قاي": 4986,
      "جس": 4987,
      "ناشر": 4988,
      "اکثریت": 4989,
      "بارد": 4990,
      "احترام": 4991,
      "پراکن": 4992,
      "عمیق": 4993,
      "علامت": 4994,
      "بازمی": 4995,
      "ارن": 4996,
      "سپرده": 4997,
      "نامی": 4998,
      "تکاهنگ": 4999,
      "مصد": 5000,
      "##ادش": 5001,
      "وات": 5002,
      "تجدید": 5003,
      "##اگا": 5004,
      "پارلمان": 5005,
      "گرجستان": 5006,
      "کوهستانی": 5007,
      "ترجمهی": 5008,
      "مهندس": 5009,
      "تها": 5010,
      "گوی": 5011,
      "##خانههای": 5012,
      "##وریان": 5013,
      "##ity": 5014,
      "##زرگ": 5015,
      "ابعاد": 5016,
      "امامزاده": 5017,
      "پرتغال": 5018,
      "##اعد": 5019,
      "موقت": 5020,
      "جوش": 5021,
      "خریداری": 5022,
      "فلسطین": 5023,
      "دختران": 5024,
      "پاب": 5025,
      "مدلهای": 5026,
      "نابود": 5027,
      "تظاه": 5028,
      "کارولین": 5029,
      "##وزان": 5030,
      "وکیل": 5031,
      "گاو": 5032,
      "بالاترین": 5033,
      "هزاره": 5034,
      "بابل": 5035,
      "##عامل": 5036,
      "میوه": 5037,
      "اندیشه": 5038,
      "شرط": 5039,
      "سناتور": 5040,
      "ایکس": 5041,
      "##اوز": 5042,
      "اشپ": 5043,
      "2003": 5044,
      "استاندار": 5045,
      "صعود": 5046,
      "انگی": 5047,
      "داستانی": 5048,
      "کارد": 5049,
      "درصورت": 5050,
      "تجربی": 5051,
      "قدیمیترین": 5052,
      "اله": 5053,
      "زاد": 5054,
      "طاه": 5055,
      "سازمانی": 5056,
      "کانت": 5057,
      "ترور": 5058,
      "سوره": 5059,
      "##سنی": 5060,
      "کنون": 5061,
      "مخاب": 5062,
      "تست": 5063,
      "فردوسی": 5064,
      "معبد": 5065,
      "استقبال": 5066,
      "سانتی": 5067,
      "جستجو": 5068,
      "ضربه": 5069,
      "پاي": 5070,
      "ممنوع": 5071,
      "نایب": 5072,
      "اکران": 5073,
      "##صیلی": 5074,
      "##ونزی": 5075,
      "علاي": 5076,
      "استدلال": 5077,
      "دقت": 5078,
      "مالکیت": 5079,
      "##ين": 5080,
      "ناک": 5081,
      "مولف": 5082,
      "پدیده": 5083,
      "لیک": 5084,
      "خودکار": 5085,
      "هرک": 5086,
      "لسانجلس": 5087,
      "جمعه": 5088,
      "وسط": 5089,
      "سیگنال": 5090,
      "مرو": 5091,
      "دراورد": 5092,
      "##حسن": 5093,
      "##جیب": 5094,
      "دهانه": 5095,
      "میانی": 5096,
      "ساسانیان": 5097,
      "ژنت": 5098,
      "##الیسم": 5099,
      "همجنس": 5100,
      "اسکاتلند": 5101,
      "##ورف": 5102,
      "میگرد": 5103,
      "شکن": 5104,
      "##ابادی": 5105,
      "تحویل": 5106,
      "ویرایش": 5107,
      "زلزله": 5108,
      "شباه": 5109,
      "##ترتیب": 5110,
      "معلم": 5111,
      "حمید": 5112,
      "نباشد": 5113,
      "##عف": 5114,
      "سطحی": 5115,
      "امتداد": 5116,
      "ژنرال": 5117,
      "مدافع": 5118,
      "بورس": 5119,
      "##cl": 5120,
      "##وزن": 5121,
      "مگ": 5122,
      "##وارت": 5123,
      "##یدگی": 5124,
      "2015": 5125,
      "شام": 5126,
      "##جات": 5127,
      "24": 5128,
      "برگشت": 5129,
      "مولی": 5130,
      "لم": 5131,
      "##نشینی": 5132,
      "خشم": 5133,
      "##ber": 5134,
      "بهس": 5135,
      "تقا": 5136,
      "##ووا": 5137,
      "اژانس": 5138,
      "##زمینی": 5139,
      "سوس": 5140,
      "کیت": 5141,
      "افتاب": 5142,
      "ماجرا": 5143,
      "سیاستهای": 5144,
      "بلا": 5145,
      "2000": 5146,
      "داروهای": 5147,
      "##وکا": 5148,
      "##عین": 5149,
      "انلاین": 5150,
      "خاورمی": 5151,
      "هیر": 5152,
      "عمق": 5153,
      "وضع": 5154,
      "مورخ": 5155,
      "پین": 5156,
      "قسمتهای": 5157,
      "##صیه": 5158,
      "گنبد": 5159,
      "کروم": 5160,
      "قضا": 5161,
      "رسانههای": 5162,
      "هکت": 5163,
      "اسد": 5164,
      "کمتری": 5165,
      "انتی": 5166,
      "نوشتههای": 5167,
      "پارام": 5168,
      "منظ": 5169,
      "ساکنان": 5170,
      "##توای": 5171,
      "نشریه": 5172,
      "حبی": 5173,
      "##زش": 5174,
      "توصیه": 5175,
      "خلیفه": 5176,
      "##ودهاست": 5177,
      "روزی": 5178,
      "##ویک": 5179,
      "##ومر": 5180,
      "بایر": 5181,
      "قنات": 5182,
      "طرفداران": 5183,
      "وام": 5184,
      "##ساخت": 5185,
      "اسان": 5186,
      "نمودند": 5187,
      "30": 5188,
      "عدالت": 5189,
      "کشتار": 5190,
      "رومانی": 5191,
      "22": 5192,
      "جامد": 5193,
      "##نامهای": 5194,
      "##تای": 5195,
      "باشگاههای": 5196,
      "سوء": 5197,
      "نمونههای": 5198,
      "##داشتی": 5199,
      "میدادند": 5200,
      "اقوام": 5201,
      "##وندی": 5202,
      "عقل": 5203,
      "نکته": 5204,
      "پرندگان": 5205,
      "رویکرد": 5206,
      "##ودگی": 5207,
      "زهر": 5208,
      "کنسول": 5209,
      "قاره": 5210,
      "##راتی": 5211,
      "تیت": 5212,
      "الوم": 5213,
      "جانبی": 5214,
      "##هده": 5215,
      "برنج": 5216,
      "زبانی": 5217,
      "هفتاد": 5218,
      "استخراج": 5219,
      "حوالی": 5220,
      "اقا": 5221,
      "یونی": 5222,
      "##وفر": 5223,
      "##پایه": 5224,
      "بهاندازه": 5225,
      "قرون": 5226,
      "حومه": 5227,
      "##خوان": 5228,
      "شمشیر": 5229,
      "اتمام": 5230,
      "مراقبت": 5231,
      "ابادی": 5232,
      "##کین": 5233,
      "حرارتی": 5234,
      "علیا": 5235,
      "متون": 5236,
      "صحن": 5237,
      "##اشیه": 5238,
      "خوا": 5239,
      "فرصت": 5240,
      "اتمی": 5241,
      "##دریج": 5242,
      "on": 5243,
      "همگی": 5244,
      "وقایع": 5245,
      "گردن": 5246,
      "تصویری": 5247,
      "متفاوتی": 5248,
      "بودجه": 5249,
      "محلول": 5250,
      "اکسیژن": 5251,
      "##ورگ": 5252,
      "بوشهر": 5253,
      "سقف": 5254,
      "کون": 5255,
      "##چشم": 5256,
      "##لرزه": 5257,
      "##قلی": 5258,
      "بستگی": 5259,
      "شریف": 5260,
      "2002": 5261,
      "بهاین": 5262,
      "خاورمیانه": 5263,
      "تسلیم": 5264,
      "هف": 5265,
      "##يوس": 5266,
      "اگاه": 5267,
      "بهعهده": 5268,
      "ارتقا": 5269,
      "##متر": 5270,
      "##ینژاد": 5271,
      "##ov": 5272,
      "شاهنامه": 5273,
      "ردیف": 5274,
      "محوطه": 5275,
      "##رسانی": 5276,
      "قدرتمند": 5277,
      "تبعید": 5278,
      "جلسه": 5279,
      "ادع": 5280,
      "لیس": 5281,
      "##یاط": 5282,
      "##لولی": 5283,
      "##مج": 5284,
      "هیت": 5285,
      "نفتی": 5286,
      "بیرونی": 5287,
      "حفر": 5288,
      "سوسیالیستی": 5289,
      "سهم": 5290,
      "وحشی": 5291,
      "ساحلی": 5292,
      "عکاسی": 5293,
      "تایل": 5294,
      "متحده": 5295,
      "اندام": 5296,
      "رع": 5297,
      "میگذارد": 5298,
      "##صاری": 5299,
      "##گام": 5300,
      "انگشت": 5301,
      "کاربردهای": 5302,
      "جکس": 5303,
      "بهشت": 5304,
      "##کنان": 5305,
      "ولتاژ": 5306,
      "##چستر": 5307,
      "##اته": 5308,
      "استونی": 5309,
      "برادران": 5310,
      "استح": 5311,
      "اسکندر": 5312,
      "2016": 5313,
      "##ضان": 5314,
      "##رضا": 5315,
      "میه": 5316,
      "##اصله": 5317,
      "گونهای": 5318,
      "برگرفته": 5319,
      "##کب": 5320,
      "بارها": 5321,
      "شهروندان": 5322,
      "فراخ": 5323,
      "زمینلرزه": 5324,
      "گلستان": 5325,
      "بیس": 5326,
      "##البا": 5327,
      "میگفت": 5328,
      "لويیس": 5329,
      "همراهی": 5330,
      "تماشا": 5331,
      "مانی": 5332,
      "توکیو": 5333,
      "##فور": 5334,
      "کارگر": 5335,
      "زوج": 5336,
      "##والی": 5337,
      "شیرازی": 5338,
      "لز": 5339,
      "مادهی": 5340,
      "پروتکل": 5341,
      "خوردن": 5342,
      "چرخش": 5343,
      "شکر": 5344,
      "استخدام": 5345,
      "سرزمینهای": 5346,
      "##حالله": 5347,
      "اگوست": 5348,
      "مهمان": 5349,
      "شناسه": 5350,
      "برند": 5351,
      "واحدهای": 5352,
      "قضایی": 5353,
      "پرسپ": 5354,
      "تکامل": 5355,
      "خواجه": 5356,
      "کمون": 5357,
      "ممت": 5358,
      "واگذار": 5359,
      "ششمین": 5360,
      "معدن": 5361,
      "یمن": 5362,
      "بدی": 5363,
      "شصت": 5364,
      "زنجیر": 5365,
      "ترکیبات": 5366,
      "مریم": 5367,
      "غیرقابل": 5368,
      "قلبی": 5369,
      "##وها": 5370,
      "##افی": 5371,
      "اندونزی": 5372,
      "نسخههای": 5373,
      "##الیز": 5374,
      "دفاعی": 5375,
      "لیبر": 5376,
      "##کانس": 5377,
      "##سرا": 5378,
      "سختی": 5379,
      "کبیر": 5380,
      "مبنای": 5381,
      "کنسرت": 5382,
      "نیشابور": 5383,
      "نگار": 5384,
      "خاطر": 5385,
      "یکپار": 5386,
      "بهاینترتیب": 5387,
      "بااینوجود": 5388,
      "مایکرو": 5389,
      "حاشیه": 5390,
      "##ژیکی": 5391,
      "پرویز": 5392,
      "##ریا": 5393,
      "پرده": 5394,
      "##سرای": 5395,
      "لنگ": 5396,
      "کیه": 5397,
      "منحص": 5398,
      "انداخت": 5399,
      "اصلاحات": 5400,
      "جواب": 5401,
      "بخاطر": 5402,
      "علیرغم": 5403,
      "ریخته": 5404,
      "گردیده": 5405,
      "انجامشده": 5406,
      "اروم": 5407,
      "##لیلی": 5408,
      "بازرگانی": 5409,
      "##گویی": 5410,
      "مواردی": 5411,
      "بزرگر": 5412,
      "##غالی": 5413,
      "##پول": 5414,
      "نامش": 5415,
      "تند": 5416,
      "درصورتیکه": 5417,
      "کمبود": 5418,
      "اتومبیل": 5419,
      "صوتی": 5420,
      "رسمیت": 5421,
      "اطلاق": 5422,
      "شوهر": 5423,
      "پایهی": 5424,
      "to": 5425,
      "ضخ": 5426,
      "هاشمی": 5427,
      "پارس": 5428,
      "##ابند": 5429,
      "اکسید": 5430,
      "بوی": 5431,
      "##اقد": 5432,
      "##واژه": 5433,
      "مکمل": 5434,
      "##زین": 5435,
      "محمدی": 5436,
      "نشاند": 5437,
      "##ایفه": 5438,
      "کرم": 5439,
      "افزوده": 5440,
      "قفق": 5441,
      "دادهشده": 5442,
      "تحقیقاتی": 5443,
      "علايم": 5444,
      "عالم": 5445,
      "کاپیت": 5446,
      "ضروری": 5447,
      "ریاض": 5448,
      "##ایست": 5449,
      "پرداخته": 5450,
      "عدهای": 5451,
      "میکنم": 5452,
      "مدعی": 5453,
      "زیستی": 5454,
      "منش": 5455,
      "تحریم": 5456,
      "فرایندهای": 5457,
      "قزاق": 5458,
      "براورد": 5459,
      "رادیویی": 5460,
      "عین": 5461,
      "##سام": 5462,
      "##حان": 5463,
      "الاس": 5464,
      "اثرات": 5465,
      "حوادث": 5466,
      "عظیم": 5467,
      "مجازات": 5468,
      "علاقهم": 5469,
      "شیشه": 5470,
      "دارویی": 5471,
      "تشویق": 5472,
      "بام": 5473,
      "فجر": 5474,
      "##ادها": 5475,
      "مجری": 5476,
      "رقم": 5477,
      "##گونگی": 5478,
      "وف": 5479,
      "یار": 5480,
      "الگو": 5481,
      "صندوق": 5482,
      "##امیک": 5483,
      "##سمه": 5484,
      "براد": 5485,
      "##راحتی": 5486,
      "انیمیشن": 5487,
      "2001": 5488,
      "قیام": 5489,
      "مشروطه": 5490,
      "فاطمه": 5491,
      "سنی": 5492,
      "زنگ": 5493,
      "غالبا": 5494,
      "##شدن": 5495,
      "میلیمتر": 5496,
      "تاجیکستان": 5497,
      "حقیقی": 5498,
      "مانده": 5499,
      "حروف": 5500,
      "جانب": 5501,
      "گار": 5502,
      "##عش": 5503,
      "##سار": 5504,
      "خودروهای": 5505,
      "خودشان": 5506,
      "##سافت": 5507,
      "مادرید": 5508,
      "مکانیکی": 5509,
      "تیل": 5510,
      "##شاری": 5511,
      "ترو": 5512,
      "نیروگاه": 5513,
      "##ab": 5514,
      "تبلیغات": 5515,
      "شیم": 5516,
      "ريال": 5517,
      "ترجی": 5518,
      "مرتب": 5519,
      "جکسون": 5520,
      "مشتری": 5521,
      "همد": 5522,
      "میلان": 5523,
      "خمیر": 5524,
      "عفونت": 5525,
      "تفنگ": 5526,
      "طایفه": 5527,
      "دستیابی": 5528,
      "اواسط": 5529,
      "میزند": 5530,
      "نوبل": 5531,
      "دورانهای": 5532,
      "##ونها": 5533,
      "کشید": 5534,
      "میخواست": 5535,
      "دوستی": 5536,
      "اردبیل": 5537,
      "فکری": 5538,
      "روزانه": 5539,
      "معرو": 5540,
      "وص": 5541,
      "خانوادهی": 5542,
      "اخراج": 5543,
      "دیم": 5544,
      "##چهای": 5545,
      "اسمیت": 5546,
      "سفلی": 5547,
      "تعطیل": 5548,
      "رستم": 5549,
      "##ایز": 5550,
      "جوامع": 5551,
      "سرمربی": 5552,
      "فروند": 5553,
      "##ard": 5554,
      "ac": 5555,
      "اخبار": 5556,
      "23": 5557,
      "اعتراضات": 5558,
      "مرزی": 5559,
      "##العمل": 5560,
      "گارد": 5561,
      "##اتو": 5562,
      "موسوی": 5563,
      "##شو": 5564,
      "نظم": 5565,
      "پیشتر": 5566,
      "چگونگی": 5567,
      "ساک": 5568,
      "##ub": 5569,
      "تعلق": 5570,
      "زمینههای": 5571,
      "ليون": 5572,
      "ترکمن": 5573,
      "بهراحتی": 5574,
      "انی": 5575,
      "سلجو": 5576,
      "##اورده": 5577,
      "سایه": 5578,
      "امارات": 5579,
      "##کتور": 5580,
      "شیعیان": 5581,
      "اجباری": 5582,
      "##فکر": 5583,
      "sp": 5584,
      "منصور": 5585,
      "تجاوز": 5586,
      "جلوی": 5587,
      "مجسمه": 5588,
      "133": 5589,
      "لغو": 5590,
      "مجه": 5591,
      "1387": 5592,
      "##کنندهی": 5593,
      "سکونتگاه": 5594,
      "شگفت": 5595,
      "وحد": 5596,
      "افسان": 5597,
      "##av": 5598,
      "بزرگراه": 5599,
      "##لاس": 5600,
      "##سلی": 5601,
      "مختص": 5602,
      "شاد": 5603,
      "بلو": 5604,
      "سدههای": 5605,
      "پت": 5606,
      "تعامل": 5607,
      "se": 5608,
      "قدمت": 5609,
      "##دیا": 5610,
      "##اندا": 5611,
      "متق": 5612,
      "اعظم": 5613,
      "فرکانس": 5614,
      "چگ": 5615,
      "نمایند": 5616,
      "##cy": 5617,
      "بدهد": 5618,
      "ابهای": 5619,
      "قومی": 5620,
      "##افزاری": 5621,
      "جواد": 5622,
      "ایلین": 5623,
      "پیادهسازی": 5624,
      "##ویج": 5625,
      "##عل": 5626,
      "میبرند": 5627,
      "موض": 5628,
      "دشوار": 5629,
      "##if": 5630,
      "اریک": 5631,
      "##بایی": 5632,
      "##ud": 5633,
      "دیسک": 5634,
      "یورو": 5635,
      "بهتدریج": 5636,
      "شلیک": 5637,
      "نشری": 5638,
      "موافقت": 5639,
      "##ضل": 5640,
      "بدان": 5641,
      "کوانت": 5642,
      "هزینههای": 5643,
      "مدیره": 5644,
      "عملیاتی": 5645,
      "##ونیا": 5646,
      "ردهبندی": 5647,
      "نشانه": 5648,
      "موضوعات": 5649,
      "تحمل": 5650,
      "تنی": 5651,
      "جنا": 5652,
      "هفتمین": 5653,
      "راز": 5654,
      "زیستشناسی": 5655,
      "جاذ": 5656,
      "نبر": 5657,
      "سردار": 5658,
      "##خو": 5659,
      "فون": 5660,
      "گوت": 5661,
      "پرسپولیس": 5662,
      "کینگ": 5663,
      "نحوه": 5664,
      "هوشمند": 5665,
      "for": 5666,
      "فشر": 5667,
      "اشنایی": 5668,
      "نوازنده": 5669,
      "دژ": 5670,
      "ذوب": 5671,
      "دروغ": 5672,
      "##ومتی": 5673,
      "بلوک": 5674,
      "بزرگان": 5675,
      "شیلی": 5676,
      "وظایف": 5677,
      "مجید": 5678,
      "کلر": 5679,
      "##جویی": 5680,
      "بختیاری": 5681,
      "امان": 5682,
      "تندی": 5683,
      "دارا": 5684,
      "منشا": 5685,
      "کارولینای": 5686,
      "تعادل": 5687,
      "##گذاران": 5688,
      "نشود": 5689,
      "##الین": 5690,
      "کاوش": 5691,
      "حاکمیت": 5692,
      "le": 5693,
      "محتوای": 5694,
      "ویتنام": 5695,
      "بستر": 5696,
      "کرسی": 5697,
      "اعراب": 5698,
      "##مانه": 5699,
      "رواج": 5700,
      "شواهد": 5701,
      "تولی": 5702,
      "##ردگی": 5703,
      "چم": 5704,
      "واژهی": 5705,
      "فاقد": 5706,
      "قله": 5707,
      "دانی": 5708,
      "ناد": 5709,
      "تانک": 5710,
      "##ell": 5711,
      "کلمات": 5712,
      "تنش": 5713,
      "قطار": 5714,
      "##زاب": 5715,
      "جدایی": 5716,
      "دارم": 5717,
      "ابزارهای": 5718,
      "ولز": 5719,
      "سرور": 5720,
      "کانی": 5721,
      "جانوران": 5722,
      "##زبان": 5723,
      "##سنگ": 5724,
      "منزل": 5725,
      "##ill": 5726,
      "جداگانه": 5727,
      "##گرای": 5728,
      "خواهرخ": 5729,
      "سیک": 5730,
      "اموخت": 5731,
      "مکانیک": 5732,
      "بلاف": 5733,
      "موسوم": 5734,
      "##چو": 5735,
      "##املی": 5736,
      "##باران": 5737,
      "شاعران": 5738,
      "##افته": 5739,
      "##20": 5740,
      "مرزهای": 5741,
      "##بردار": 5742,
      "عوار": 5743,
      "پایی": 5744,
      "اهواز": 5745,
      "##فیه": 5746,
      "ترین": 5747,
      "2017": 5748,
      "نتیجهی": 5749,
      "پژوهشهای": 5750,
      "مسیحیت": 5751,
      "##الو": 5752,
      "##شناختی": 5753,
      "قاسم": 5754,
      "هادی": 5755,
      "ولس": 5756,
      "کوی": 5757,
      "زاه": 5758,
      "زرین": 5759,
      "##جام": 5760,
      "##فهی": 5761,
      "نود": 5762,
      "پستان": 5763,
      "رسما": 5764,
      "استراتژی": 5765,
      "##ستهای": 5766,
      "قول": 5767,
      "خطرن": 5768,
      "##پزشک": 5769,
      "##اوم": 5770,
      "جمشید": 5771,
      "وقتیکه": 5772,
      "رنگی": 5773,
      "فلکی": 5774,
      "انفجار": 5775,
      "قش": 5776,
      "انتقام": 5777,
      "زاویه": 5778,
      "##اهیان": 5779,
      "کمرب": 5780,
      "ازمایشگاه": 5781,
      "درعین": 5782,
      "درونی": 5783,
      "انا": 5784,
      "انق": 5785,
      "دکترای": 5786,
      "شباهت": 5787,
      "رایانهای": 5788,
      "1998": 5789,
      "ازبک": 5790,
      "درعینحال": 5791,
      "شیش": 5792,
      "دربر": 5793,
      "مراج": 5794,
      "گندم": 5795,
      "خواهرخوان": 5796,
      "گوگل": 5797,
      "مرجع": 5798,
      "نگهبان": 5799,
      "گذراند": 5800,
      "بیمه": 5801,
      "باستانشناسی": 5802,
      "1388": 5803,
      "##ذی": 5804,
      "برتری": 5805,
      "یازده": 5806,
      "شدپس": 5807,
      "منطقی": 5808,
      "اتوب": 5809,
      "مهار": 5810,
      "دنباله": 5811,
      "##ازن": 5812,
      "ایالتی": 5813,
      "فلسفی": 5814,
      "خانههای": 5815,
      "##ld": 5816,
      "خیاب": 5817,
      "##لیان": 5818,
      "منظم": 5819,
      "زمینشناسی": 5820,
      "رقابتهای": 5821,
      "##کوت": 5822,
      "##لاط": 5823,
      "هکتار": 5824,
      "##گور": 5825,
      "کارکنان": 5826,
      "خالص": 5827,
      "نمایشی": 5828,
      "فقیه": 5829,
      "اردشیر": 5830,
      "##ردن": 5831,
      "کوهستان": 5832,
      "میخورد": 5833,
      "ویرجین": 5834,
      "##گوی": 5835,
      "روزگار": 5836,
      "صورتی": 5837,
      "تفک": 5838,
      "وحدت": 5839,
      "چمن": 5840,
      "قدم": 5841,
      "##بره": 5842,
      "ایمان": 5843,
      "##نیه": 5844,
      "رانند": 5845,
      "فاصلهی": 5846,
      "27": 5847,
      "محیطی": 5848,
      "بیبیسی": 5849,
      "سح": 5850,
      "اذربایجانی": 5851,
      "زرتشتی": 5852,
      "اسکی": 5853,
      "موز": 5854,
      "بازگرد": 5855,
      "ازار": 5856,
      "بازیگرانی": 5857,
      "میامد": 5858,
      "دفن": 5859,
      "##لاوی": 5860,
      "مکانهای": 5861,
      "غنی": 5862,
      "برنامهی": 5863,
      "حالی": 5864,
      "##سلطنه": 5865,
      "فشرده": 5866,
      "th": 5867,
      "فهم": 5868,
      "1997": 5869,
      "میماند": 5870,
      "متال": 5871,
      "حالیکه": 5872,
      "کامی": 5873,
      "وسیع": 5874,
      "یاری": 5875,
      "##دیه": 5876,
      "بنگل": 5877,
      "زنجان": 5878,
      "گوناگونی": 5879,
      "مبلغ": 5880,
      "عقیده": 5881,
      "جولی": 5882,
      "انزیم": 5883,
      "مقصد": 5884,
      "خانهی": 5885,
      "دوک": 5886,
      "مراکش": 5887,
      "هام": 5888,
      "##اریان": 5889,
      "کلان": 5890,
      "پیروان": 5891,
      "##خاص": 5892,
      "##اسف": 5893,
      "##ak": 5894,
      "الس": 5895,
      "مطلوب": 5896,
      "قفقاز": 5897,
      "استث": 5898,
      "استانبول": 5899,
      "##برو": 5900,
      "منی": 5901,
      "مذکور": 5902,
      "شاپور": 5903,
      "لیسانس": 5904,
      "کارایی": 5905,
      "مفاهیم": 5906,
      "##داول": 5907,
      "محققان": 5908,
      "##ph": 5909,
      "##اتس": 5910,
      "##بههای": 5911,
      "##پرداخت": 5912,
      "ظاهرا": 5913,
      "ویژهای": 5914,
      "عز": 5915,
      "مجتم": 5916,
      "ماریا": 5917,
      "سول": 5918,
      "پیانو": 5919,
      "مقدماتی": 5920,
      "مزار": 5921,
      "خودروی": 5922,
      "اضا": 5923,
      "بخشهایی": 5924,
      "تحق": 5925,
      "پولی": 5926,
      "28": 5927,
      "دایر": 5928,
      "فرماندار": 5929,
      "چوبی": 5930,
      "مغزی": 5931,
      "بلافاصله": 5932,
      "جزيیات": 5933,
      "رول": 5934,
      "حوزهی": 5935,
      "دیا": 5936,
      "اضافی": 5937,
      "ترد": 5938,
      "گربه": 5939,
      "##انسون": 5940,
      "ناه": 5941,
      "ترجیح": 5942,
      "انگاه": 5943,
      "متمای": 5944,
      "دهی": 5945,
      "رف": 5946,
      "گویند": 5947,
      "زیارت": 5948,
      "##گرایان": 5949,
      "مایکروسافت": 5950,
      "بعنوان": 5951,
      "عموم": 5952,
      "جوی": 5953,
      "دموکراتیک": 5954,
      "##فیلد": 5955,
      "لذا": 5956,
      "شکلگیری": 5957,
      "کشتن": 5958,
      "ریم": 5959,
      "نگرانی": 5960,
      "نانو": 5961,
      "##مجمو": 5962,
      "امواج": 5963,
      "بلور": 5964,
      "##کولی": 5965,
      "اشتراک": 5966,
      "اینچ": 5967,
      "خلبان": 5968,
      "کارافر": 5969,
      "قصر": 5970,
      "##اندی": 5971,
      "هشتاد": 5972,
      "یهود": 5973,
      "##سواری": 5974,
      "26": 5975,
      "نمیده": 5976,
      "بیانی": 5977,
      "تنوع": 5978,
      "عوارض": 5979,
      "دایره": 5980,
      "مجتمع": 5981,
      "##کهای": 5982,
      "لور": 5983,
      "##ge": 5984,
      "الد": 5985,
      "امل": 5986,
      "##حلیل": 5987,
      "پراکنده": 5988,
      "بازتاب": 5989,
      "اخذ": 5990,
      "##هرو": 5991,
      "سمی": 5992,
      "##اسری": 5993,
      "ايت": 5994,
      "بره": 5995,
      "##اعده": 5996,
      "بگیرند": 5997,
      "یوتی": 5998,
      "##ارهی": 5999,
      "روشی": 6000,
      "cont": 6001,
      "##خوانی": 6002,
      "تلفظ": 6003,
      "سوراخ": 6004,
      "مخالفان": 6005,
      "pro": 6006,
      "بیشازحد": 6007,
      "دهان": 6008,
      "برش": 6009,
      "کاک": 6010,
      "1999": 6011,
      "محروم": 6012,
      "صدور": 6013,
      "##فترین": 6014,
      "بیز": 6015,
      "بروک": 6016,
      "استحکام": 6017,
      "ویکیواژه": 6018,
      "بروج": 6019,
      "دبی": 6020,
      "##گذارند": 6021,
      "شین": 6022,
      "##سیری": 6023,
      "1384": 6024,
      "##ree": 6025,
      "##راحت": 6026,
      "ارومیه": 6027,
      "##بعدی": 6028,
      "نهایتا": 6029,
      "ایزد": 6030,
      "##استه": 6031,
      "صلاح": 6032,
      "وجه": 6033,
      "##حت": 6034,
      "براون": 6035,
      "کشیدن": 6036,
      "ساق": 6037,
      "ترش": 6038,
      "##وگرافی": 6039,
      "مونی": 6040,
      "##ابین": 6041,
      "##کشان": 6042,
      "##لاوه": 6043,
      "رفع": 6044,
      "##لیا": 6045,
      "##سبب": 6046,
      "بهز": 6047,
      "نقض": 6048,
      "##ادات": 6049,
      "ارتور": 6050,
      "سرنوشت": 6051,
      "مقداری": 6052,
      "##بورد": 6053,
      "تیپ": 6054,
      "واسطه": 6055,
      "معلوم": 6056,
      "نسبی": 6057,
      "الودگی": 6058,
      "هماهنگی": 6059,
      "چارچوب": 6060,
      "هالی": 6061,
      "طلای": 6062,
      "نوجوانان": 6063,
      "بازمیگردد": 6064,
      "بپرداز": 6065,
      "##گويه": 6066,
      "همسایه": 6067,
      "ولسوالی": 6068,
      "##يینگ": 6069,
      "یونسکو": 6070,
      "##نظام": 6071,
      "تزریق": 6072,
      "خانوادهاش": 6073,
      "معمار": 6074,
      "رسیدند": 6075,
      "دامن": 6076,
      "##ستها": 6077,
      "قبایل": 6078,
      "کیک": 6079,
      "صفحات": 6080,
      "ماسا": 6081,
      "##انای": 6082,
      "مرحلهی": 6083,
      "جادو": 6084,
      "##گرو": 6085,
      "ایه": 6086,
      "طباط": 6087,
      "##est": 6088,
      "میخواند": 6089,
      "مینامند": 6090,
      "احمدینژاد": 6091,
      "mar": 6092,
      "ریک": 6093,
      "##ارو": 6094,
      "بارسل": 6095,
      "یاس": 6096,
      "کالا": 6097,
      "الیاژ": 6098,
      "چل": 6099,
      "میدانی": 6100,
      "منحصربه": 6101,
      "خراب": 6102,
      "تکیه": 6103,
      "نمید": 6104,
      "فال": 6105,
      "انجامید": 6106,
      "##ادور": 6107,
      "##وتحلیل": 6108,
      "سلولی": 6109,
      "منحصربهفرد": 6110,
      "تجزیهوتحلیل": 6111,
      "پرفرو": 6112,
      "هاف": 6113,
      "شفاف": 6114,
      "##کها": 6115,
      "##ine": 6116,
      "اود": 6117,
      "سرچشم": 6118,
      "کسبوکار": 6119,
      "##وپر": 6120,
      "معنای": 6121,
      "سازماندهی": 6122,
      "معتقدند": 6123,
      "خلافت": 6124,
      "دب": 6125,
      "طبر": 6126,
      "##لینگ": 6127,
      "##مندی": 6128,
      "زندگین": 6129,
      "##لامی": 6130,
      "ابری": 6131,
      "واج": 6132,
      "##ختن": 6133,
      "2018": 6134,
      "ژیمن": 6135,
      "طاق": 6136,
      "دبلی": 6137,
      "بهسبب": 6138,
      "انات": 6139,
      "انبار": 6140,
      "##اسانی": 6141,
      "مینه": 6142,
      "پیروی": 6143,
      "دخالت": 6144,
      "ازای": 6145,
      "الیز": 6146,
      "ابراز": 6147,
      "##خانهای": 6148,
      "شبکهی": 6149,
      "بگذ": 6150,
      "استعد": 6151,
      "##مانند": 6152,
      "ارج": 6153,
      "1389": 6154,
      "فلوریدا": 6155,
      "فریدون": 6156,
      "تسلط": 6157,
      "هرگونه": 6158,
      "درجهی": 6159,
      "هشتمین": 6160,
      "##پذیرد": 6161,
      "ایلینوی": 6162,
      "زخمی": 6163,
      "##کنی": 6164,
      "شتاب": 6165,
      "فرهاد": 6166,
      "همهچیز": 6167,
      "ادرس": 6168,
      "پوشیده": 6169,
      "##احمد": 6170,
      "جاری": 6171,
      "##قراری": 6172,
      "ذهنی": 6173,
      "دايمی": 6174,
      "کنندگان": 6175,
      "یافتند": 6176,
      "متمایز": 6177,
      "##وتری": 6178,
      "تات": 6179,
      "##قد": 6180,
      "تلاشهای": 6181,
      "پارامتر": 6182,
      "برم": 6183,
      "بازرگان": 6184,
      "رنگهای": 6185,
      "بدنه": 6186,
      "تفکر": 6187,
      "منافع": 6188,
      "خدایان": 6189,
      "خنک": 6190,
      "##وسا": 6191,
      "احزاب": 6192,
      "##لندی": 6193,
      "اسپر": 6194,
      "دورهای": 6195,
      "توده": 6196,
      "ضعف": 6197,
      "میچ": 6198,
      "بازاری": 6199,
      "##اکبر": 6200,
      "هرات": 6201,
      "کناره": 6202,
      "ضریب": 6203,
      "سويی": 6204,
      "شیب": 6205,
      "انرا": 6206,
      "اسطور": 6207,
      "ریو": 6208,
      "##زو": 6209,
      "##یران": 6210,
      "کنم": 6211,
      "##وقت": 6212,
      "فقه": 6213,
      "چراغ": 6214,
      "جری": 6215,
      "معتر": 6216,
      "فرانسیس": 6217,
      "کتی": 6218,
      "نیازمند": 6219,
      "##سور": 6220,
      "پاش": 6221,
      "دستورالعمل": 6222,
      "##فون": 6223,
      "نژ": 6224,
      "بتن": 6225,
      "پرتغالی": 6226,
      "سیاره": 6227,
      "##گردی": 6228,
      "جزیر": 6229,
      "شکلی": 6230,
      "خطرناک": 6231,
      "##مندان": 6232,
      "دانشجو": 6233,
      "پرتو": 6234,
      "گناه": 6235,
      "کبک": 6236,
      "سیما": 6237,
      "معاونت": 6238,
      "الگوی": 6239,
      "اوهای": 6240,
      "مهاجم": 6241,
      "تلقی": 6242,
      "وسیعی": 6243,
      "##ارم": 6244,
      "زیرمجمو": 6245,
      "اصفهانی": 6246,
      "تعقیب": 6247,
      "ادعای": 6248,
      "بتوانند": 6249,
      "اجزای": 6250,
      "بزرگسال": 6251,
      "نشاندهنده": 6252,
      "اجتماع": 6253,
      "اینه": 6254,
      "رسول": 6255,
      "سوپ": 6256,
      "هندوستان": 6257,
      "کوز": 6258,
      "جشنوار": 6259,
      "شمس": 6260,
      "190": 6261,
      "فیلتر": 6262,
      "مدیران": 6263,
      "میدانست": 6264,
      "استیون": 6265,
      "قابلتوجه": 6266,
      "بهروز": 6267,
      "بنگلادش": 6268,
      "نجف": 6269,
      "شارل": 6270,
      "اسن": 6271,
      "سواح": 6272,
      "##ors": 6273,
      "اضطر": 6274,
      "کرک": 6275,
      "##گرام": 6276,
      "دیو": 6277,
      "پروانه": 6278,
      "مطالب": 6279,
      "لول": 6280,
      "##زایی": 6281,
      "پادشاهان": 6282,
      "مصوب": 6283,
      "کاربری": 6284,
      "همای": 6285,
      "##مرغ": 6286,
      "میتوانست": 6287,
      "ببین": 6288,
      "کمان": 6289,
      "باخ": 6290,
      "مرده": 6291,
      "##نوع": 6292,
      "مطبو": 6293,
      "##سیلو": 6294,
      "بابا": 6295,
      "##گوش": 6296,
      "پژوهشگر": 6297,
      "یازدهم": 6298,
      "بیلی": 6299,
      "صرفا": 6300,
      "حبس": 6301,
      "##ینش": 6302,
      "ثروت": 6303,
      "کرا": 6304,
      "متداول": 6305,
      "جمهوریخواه": 6306,
      "رعایت": 6307,
      "تولیدی": 6308,
      "ساختاری": 6309,
      "1385": 6310,
      "چنانکه": 6311,
      "هیپ": 6312,
      "محاک": 6313,
      "گلوله": 6314,
      "سیت": 6315,
      "شطر": 6316,
      "مزر": 6317,
      "ویديو": 6318,
      "بندی": 6319,
      "##clop": 6320,
      "زای": 6321,
      "نقشهای": 6322,
      "شکسته": 6323,
      "شیطان": 6324,
      "ماهیت": 6325,
      "لط": 6326,
      "تظاهرات": 6327,
      "##راط": 6328,
      "انتخابی": 6329,
      "##صلی": 6330,
      "قبیله": 6331,
      "احت": 6332,
      "معیار": 6333,
      "نمایندهی": 6334,
      "##کردن": 6335,
      "فوقالع": 6336,
      "##پیش": 6337,
      "نقلم": 6338,
      "پردازنده": 6339,
      "اوهایو": 6340,
      "نقلمکان": 6341,
      "##چر": 6342,
      "احتمالی": 6343,
      "##امله": 6344,
      "##ظمی": 6345,
      "گرما": 6346,
      "بلک": 6347,
      "ابراه": 6348,
      "##all": 6349,
      "##یای": 6350,
      "##cyclop": 6351,
      "سرود": 6352,
      "ارگ": 6353,
      "ساری": 6354,
      "گرا": 6355,
      "یادداشت": 6356,
      "مجهز": 6357,
      "هیدروژن": 6358,
      "encyclop": 6359,
      "راسته": 6360,
      "هزاران": 6361,
      "بهدر": 6362,
      "علیاکبر": 6363,
      "محاسبات": 6364,
      "هاو": 6365,
      "##ens": 6366,
      "تبار": 6367,
      "تحصیلی": 6368,
      "##ذر": 6369,
      "##اسو": 6370,
      "والدین": 6371,
      "مهی": 6372,
      "شناختی": 6373,
      "پیا": 6374,
      "ایام": 6375,
      "فرش": 6376,
      "هستیم": 6377,
      "منوچ": 6378,
      "بازیها": 6379,
      "گیم": 6380,
      "درم": 6381,
      "عراقی": 6382,
      "استودیو": 6383,
      "پتان": 6384,
      "الومینی": 6385,
      "فوری": 6386,
      "##فاری": 6387,
      "شورشی": 6388,
      "دزد": 6389,
      "اهنگسازی": 6390,
      "فای": 6391,
      "##نجان": 6392,
      "##فیق": 6393,
      "نوشتهی": 6394,
      "طرحهای": 6395,
      "ساختمانی": 6396,
      "افتاده": 6397,
      "سويدی": 6398,
      "ایندی": 6399,
      "دانشنامه": 6400,
      "پسران": 6401,
      "##قانونی": 6402,
      "وسعت": 6403,
      "افشار": 6404,
      "صالح": 6405,
      "نهمین": 6406,
      "هشدار": 6407,
      "کریس": 6408,
      "اساط": 6409,
      "پیدایش": 6410,
      "##جانی": 6411,
      "راهنمای": 6412,
      "محبوبیت": 6413,
      "تجمع": 6414,
      "زیبای": 6415,
      "قضیه": 6416,
      "ویرجینیا": 6417,
      "دستگیری": 6418,
      "بوم": 6419,
      "روحالله": 6420,
      "شاگردان": 6421,
      "خرس": 6422,
      "گچ": 6423,
      "هوان": 6424,
      "رسانهها": 6425,
      "مطبوعات": 6426,
      "میرسید": 6427,
      "عرصه": 6428,
      "جامعهشناسی": 6429,
      "فرن": 6430,
      "منوچهر": 6431,
      "محرک": 6432,
      "بهداشتی": 6433,
      "برف": 6434,
      "نفره": 6435,
      "حالا": 6436,
      "at": 6437,
      "ریت": 6438,
      "طنز": 6439,
      "کویت": 6440,
      "سراسری": 6441,
      "##پیم": 6442,
      "سرپرستی": 6443,
      "موش": 6444,
      "رساله": 6445,
      "وحشت": 6446,
      "رابطهی": 6447,
      "##یله": 6448,
      "دقیقا": 6449,
      "as": 6450,
      "یان": 6451,
      "ساختمانهای": 6452,
      "##فان": 6453,
      "##اردی": 6454,
      "منچستر": 6455,
      "معادله": 6456,
      "افکار": 6457,
      "حساس": 6458,
      "اردوگاه": 6459,
      "تومان": 6460,
      "تدا": 6461,
      "مداوم": 6462,
      "رسیدگی": 6463,
      "چن": 6464,
      "قهوهای": 6465,
      "ناحیهی": 6466,
      "پابکم": 6467,
      "غیرقانونی": 6468,
      "وع": 6469,
      "نویسندهی": 6470,
      "دکتری": 6471,
      "شهرستانهای": 6472,
      "بهن": 6473,
      "##ازهای": 6474,
      "اورش": 6475,
      "الیزابت": 6476,
      "لهستانی": 6477,
      "شکنجه": 6478,
      "مادی": 6479,
      "هرمزگان": 6480,
      "##فین": 6481,
      "موازی": 6482,
      "رویدادهای": 6483,
      "دستهبندی": 6484,
      "جنین": 6485,
      "##وتن": 6486,
      "تعمیر": 6487,
      "سهر": 6488,
      "میت": 6489,
      "معنوی": 6490,
      "رگ": 6491,
      "ابوهوای": 6492,
      "زندانیان": 6493,
      "ماندهاست": 6494,
      "هاکی": 6495,
      "1993": 6496,
      "com": 6497,
      "توقف": 6498,
      "منتخ": 6499,
      "اسلحه": 6500,
      "نوروز": 6501,
      "شاهنش": 6502,
      "مسیحیان": 6503,
      "29": 6504,
      "دختری": 6505,
      "فرق": 6506,
      "##خیلی": 6507,
      "سنگهای": 6508,
      "نتوانست": 6509,
      "جنایت": 6510,
      "جون": 6511,
      "کتب": 6512,
      "اشتی": 6513,
      "راههای": 6514,
      "صوفی": 6515,
      "برداری": 6516,
      "پاییز": 6517,
      "طلب": 6518,
      "جعبه": 6519,
      "هواد": 6520,
      "تصمیمگیری": 6521,
      "معکوس": 6522,
      "1390": 6523,
      "موجودات": 6524,
      "برساند": 6525,
      "سواحل": 6526,
      "دز": 6527,
      "##حق": 6528,
      "فاک": 6529,
      "##ورز": 6530,
      "فراتر": 6531,
      "بزن": 6532,
      "استادی": 6533,
      "یحی": 6534,
      "نوزاد": 6535,
      "مجل": 6536,
      "##چال": 6537,
      "##سنگی": 6538,
      "##بهای": 6539,
      "سازنده": 6540,
      "##ابک": 6541,
      "دموکراسی": 6542,
      "جناح": 6543,
      "شیکا": 6544,
      "میبین": 6545,
      "شاهنشاهی": 6546,
      "کلیدی": 6547,
      "رزمی": 6548,
      "حکومتی": 6549,
      "##وخ": 6550,
      "گفتهی": 6551,
      "چنگ": 6552,
      "تابش": 6553,
      "##بون": 6554,
      "فراز": 6555,
      "ماتریس": 6556,
      "پرک": 6557,
      "اردن": 6558,
      "ستارگان": 6559,
      "شیکاگو": 6560,
      "تول": 6561,
      "اعزام": 6562,
      "تسخیر": 6563,
      "اطلس": 6564,
      "مبد": 6565,
      "پودر": 6566,
      "هماهنگ": 6567,
      "هستم": 6568,
      "بهدور": 6569,
      "مالزی": 6570,
      "1386": 6571,
      "##الس": 6572,
      "شایع": 6573,
      "برکن": 6574,
      "وایت": 6575,
      "برقراری": 6576,
      "فاض": 6577,
      "تقدیر": 6578,
      "مراجعه": 6579,
      "پایینتر": 6580,
      "عمان": 6581,
      "خزر": 6582,
      "سکه": 6583,
      "##ستن": 6584,
      "ویران": 6585,
      "حامل": 6586,
      "مشخصات": 6587,
      "تندیس": 6588,
      "منتقد": 6589,
      "ایلام": 6590,
      "اعم": 6591,
      "ایروان": 6592,
      "سابقهی": 6593,
      "تراکم": 6594,
      "غیرنظ": 6595,
      "کوچه": 6596,
      "لام": 6597,
      "بماند": 6598,
      "یکپارچه": 6599,
      "رش": 6600,
      "##میز": 6601,
      "تعلی": 6602,
      "بدر": 6603,
      "اختصاصی": 6604,
      "کشتیگیر": 6605,
      "ابداع": 6606,
      "داوط": 6607,
      "##ory": 6608,
      "ماست": 6609,
      "##مق": 6610,
      "##ort": 6611,
      "تقلید": 6612,
      "تهاجم": 6613,
      "سپه": 6614,
      "بهوجود": 6615,
      "کاندید": 6616,
      "##ok": 6617,
      "اعطا": 6618,
      "چرخه": 6619,
      "اورشلیم": 6620,
      "مولکولی": 6621,
      "خامنهای": 6622,
      "استقرار": 6623,
      "قايم": 6624,
      "طالبان": 6625,
      "100": 6626,
      "رایگان": 6627,
      "##بریج": 6628,
      "طراحیشده": 6629,
      "قزاقستان": 6630,
      "دستیار": 6631,
      "الان": 6632,
      "شاهین": 6633,
      "غی": 6634,
      "میگذرد": 6635,
      "نکن": 6636,
      "##یشان": 6637,
      "1996": 6638,
      "باکو": 6639,
      "مستقیما": 6640,
      "sh": 6641,
      "سمن": 6642,
      "تاخیر": 6643,
      "اراضی": 6644,
      "دانه": 6645,
      "##ولن": 6646,
      "جنگلی": 6647,
      "نیازهای": 6648,
      "چندی": 6649,
      "##وههای": 6650,
      "شطرنج": 6651,
      "تاثیرگذار": 6652,
      "##ary": 6653,
      "نابودی": 6654,
      "عزیز": 6655,
      "##اییکه": 6656,
      "فرهنگستان": 6657,
      "پروژههای": 6658,
      "دهید": 6659,
      "قند": 6660,
      "##سیان": 6661,
      "فلزات": 6662,
      "مونیخ": 6663,
      "##our": 6664,
      "##الملک": 6665,
      "اوردند": 6666,
      "اموزشوپر": 6667,
      "اموزشوپرورش": 6668,
      "اتلت": 6669,
      "جذاب": 6670,
      "ضلع": 6671,
      "غالب": 6672,
      "تسه": 6673,
      "##رسون": 6674,
      "نفس": 6675,
      "فیلیپین": 6676,
      "انکار": 6677,
      "اشخاص": 6678,
      "افزود": 6679,
      "##زهای": 6680,
      "لحظه": 6681,
      "##ایلی": 6682,
      "سرپرست": 6683,
      "کمربند": 6684,
      "چالش": 6685,
      "کهکشان": 6686,
      "تصحیح": 6687,
      "اتوبوس": 6688,
      "میری": 6689,
      "میاور": 6690,
      "تحسین": 6691,
      "##گرفتگی": 6692,
      "همینطور": 6693,
      "نداشتند": 6694,
      "##وهان": 6695,
      "کرهای": 6696,
      "فساد": 6697,
      "اکشن": 6698,
      "##خانی": 6699,
      "رفتند": 6700,
      "کلین": 6701,
      "گلد": 6702,
      "پیشگیری": 6703,
      "##هنگام": 6704,
      "راستای": 6705,
      "موسسات": 6706,
      "شرک": 6707,
      "##rib": 6708,
      "دویست": 6709,
      "##وشیمی": 6710,
      "راهنمایی": 6711,
      "کوانتومی": 6712,
      "استعم": 6713,
      "هیتلر": 6714,
      "##میک": 6715,
      "اعضا": 6716,
      "امکانپذیر": 6717,
      "اثری": 6718,
      "1383": 6719,
      "وصل": 6720,
      "اثاری": 6721,
      "سمف": 6722,
      "##ابتی": 6723,
      "نز": 6724,
      "معروفترین": 6725,
      "##سیلوانیا": 6726,
      "مرتبه": 6727,
      "##منی": 6728,
      "##وردهای": 6729,
      "تونی": 6730,
      "مگر": 6731,
      "هاید": 6732,
      "##روژن": 6733,
      "مجاه": 6734,
      "خلاصه": 6735,
      "شدهبود": 6736,
      "##شترین": 6737,
      "حرکات": 6738,
      "##خدا": 6739,
      "هایی": 6740,
      "##چاق": 6741,
      "درج": 6742,
      "قاشق": 6743,
      "##ریر": 6744,
      "##ویسی": 6745,
      "افریقایی": 6746,
      "ونز": 6747,
      "برچ": 6748,
      "2019": 6749,
      "پاسداران": 6750,
      "کاناد": 6751,
      "طباطبایی": 6752,
      "حریف": 6753,
      "##نیز": 6754,
      "تقی": 6755,
      "حدیث": 6756,
      "محرم": 6757,
      "##ارها": 6758,
      "ارایش": 6759,
      "ویکیپدیا": 6760,
      "پرسش": 6761,
      "1392": 6762,
      "ایدي": 6763,
      "گورستان": 6764,
      "##اشناسی": 6765,
      "تلفات": 6766,
      "جوزف": 6767,
      "##دهایی": 6768,
      "طوف": 6769,
      "کوبا": 6770,
      "خلاق": 6771,
      "تیراندازی": 6772,
      "هیچگاه": 6773,
      "یعق": 6774,
      "میتوانید": 6775,
      "یحیی": 6776,
      "عقبنشینی": 6777,
      "پانزده": 6778,
      "مشتریان": 6779,
      "تیمی": 6780,
      "ناصرالدین": 6781,
      "جونز": 6782,
      "جانور": 6783,
      "سرچشمه": 6784,
      "همت": 6785,
      "##یدهاست": 6786,
      "##رايی": 6787,
      "new": 6788,
      "کیش": 6789,
      "معامله": 6790,
      "##فتی": 6791,
      "خاکستری": 6792,
      "ساو": 6793,
      "حوزههای": 6794,
      "##cess": 6795,
      "سرت": 6796,
      "بینی": 6797,
      "پیاز": 6798,
      "کنف": 6799,
      "مصاحب": 6800,
      "1995": 6801,
      "واسط": 6802,
      "##کسی": 6803,
      "مجلهی": 6804,
      "تخلیه": 6805,
      "##جیه": 6806,
      "انار": 6807,
      "معانی": 6808,
      "##ith": 6809,
      "ادب": 6810,
      "میرساند": 6811,
      "احساسات": 6812,
      "شنی": 6813,
      "##اچ": 6814,
      "اروپای": 6815,
      "ارشاد": 6816,
      "ملاح": 6817,
      "افتخاری": 6818,
      "پلاس": 6819,
      "##انوس": 6820,
      "امری": 6821,
      "نهادهای": 6822,
      "سارا": 6823,
      "##لاو": 6824,
      "ایتالله": 6825,
      "شکاف": 6826,
      "##الن": 6827,
      "رضایت": 6828,
      "تفکیک": 6829,
      "ناي": 6830,
      "1394": 6831,
      "press": 6832,
      "پهن": 6833,
      "مقدونی": 6834,
      "کاپیتان": 6835,
      "کوروش": 6836,
      "ايتلاف": 6837,
      "دک": 6838,
      "##گیلویه": 6839,
      "تایمز": 6840,
      "استادان": 6841,
      "فرس": 6842,
      "منف": 6843,
      "##ورند": 6844,
      "لیم": 6845,
      "##ابن": 6846,
      "بوکس": 6847,
      "مکر": 6848,
      "##64": 6849,
      "استفادهشده": 6850,
      "اکس": 6851,
      "##اهو": 6852,
      "##مرد": 6853,
      "##عباس": 6854,
      "والتر": 6855,
      "مباح": 6856,
      "کامپایل": 6857,
      "##پوست": 6858,
      "کهگیلویه": 6859,
      "دشمنان": 6860,
      "زخم": 6861,
      "اقلیت": 6862,
      "فعل": 6863,
      "موتورهای": 6864,
      "توالی": 6865,
      "ماژ": 6866,
      "1395": 6867,
      "نازک": 6868,
      "دفع": 6869,
      "خاموش": 6870,
      "قلی": 6871,
      "جنگلهای": 6872,
      "عقاید": 6873,
      "ارای": 6874,
      "مجاور": 6875,
      "چگالی": 6876,
      "##ویو": 6877,
      "ترانههای": 6878,
      "درگذشتهی": 6879,
      "عارف": 6880,
      "پژوهشگران": 6881,
      "نپ": 6882,
      "میپرداخت": 6883,
      "کوشش": 6884,
      "نیمی": 6885,
      "##رگ": 6886,
      "خودداری": 6887,
      "خصوصیات": 6888,
      "##ضاع": 6889,
      "رابین": 6890,
      "ازبکستان": 6891,
      "سیزده": 6892,
      "اشتغال": 6893,
      "##نتو": 6894,
      "قالی": 6895,
      "جعفری": 6896,
      "افسانه": 6897,
      "ماساچ": 6898,
      "عمارت": 6899,
      "##تنهایی": 6900,
      "اشکانیان": 6901,
      "مادری": 6902,
      "تطبی": 6903,
      "##شایی": 6904,
      "جنگنده": 6905,
      "##ies": 6906,
      "##خیز": 6907,
      "بایرن": 6908,
      "ریاضیدان": 6909,
      "سانس": 6910,
      "##الهی": 6911,
      "اتر": 6912,
      "نبوده": 6913,
      "مقررات": 6914,
      "متنا": 6915,
      "##ivers": 6916,
      "سازهای": 6917,
      "حساسی": 6918,
      "کردم": 6919,
      "کارافرین": 6920,
      "میپ": 6921,
      "##یلند": 6922,
      "بون": 6923,
      "هواداران": 6924,
      "ماساچوست": 6925,
      "دادگ": 6926,
      "ترویج": 6927,
      "##ولوژیکی": 6928,
      "سامانههای": 6929,
      "##انورد": 6930,
      "میشی": 6931,
      "خودمخت": 6932,
      "encyclopedia": 6933,
      "دانشاموزان": 6934,
      "سات": 6935,
      "##پین": 6936,
      "غذای": 6937,
      "منتهی": 6938,
      "پنجره": 6939,
      "معی": 6940,
      "گاهشماری": 6941,
      "بازنشسته": 6942,
      "##هایم": 6943,
      "مترو": 6944,
      "بهتنهایی": 6945,
      "اماری": 6946,
      "بهايی": 6947,
      "داور": 6948,
      "قایقران": 6949,
      "##فرم": 6950,
      "مینی": 6951,
      "یانگ": 6952,
      "##کنندگی": 6953,
      "سیال": 6954,
      "31": 6955,
      "معنا": 6956,
      "گوشی": 6957,
      "باخت": 6958,
      "رسانهای": 6959,
      "##سانان": 6960,
      "صفحهی": 6961,
      "شاخههای": 6962,
      "فرمانروایی": 6963,
      "توری": 6964,
      "هلی": 6965,
      "پرش": 6966,
      "صورتگرفته": 6967,
      "چسب": 6968,
      "گمان": 6969,
      "##ومیت": 6970,
      "اورت": 6971,
      "استون": 6972,
      "تاریک": 6973,
      "حرم": 6974,
      "##رداد": 6975,
      "##لای": 6976,
      "##گیرد": 6977,
      "روزه": 6978,
      "اوراق": 6979,
      "نوشتهاست": 6980,
      "اوضاع": 6981,
      "##بالله": 6982,
      "1396": 6983,
      "وود": 6984,
      "##ich": 6985,
      "مناسبت": 6986,
      "باک": 6987,
      "پتانسیل": 6988,
      "شکم": 6989,
      "انتخاباتی": 6990,
      "رقیب": 6991,
      "##گرمی": 6992,
      "رسانه": 6993,
      "لیور": 6994,
      "پیشروی": 6995,
      "اشیاء": 6996,
      "البرت": 6997,
      "دستکم": 6998,
      "متحرک": 6999,
      "ثروتمند": 7000,
      "چربی": 7001,
      "کوس": 7002,
      "خاصیت": 7003,
      "1393": 7004,
      "چندان": 7005,
      "امدند": 7006,
      "انتر": 7007,
      "پایداری": 7008,
      "گلهای": 7009,
      "گرداوری": 7010,
      "ویدی": 7011,
      "##ازهی": 7012,
      "ارایه": 7013,
      "مشتق": 7014,
      "##باشد": 7015,
      "##طب": 7016,
      "##اسمی": 7017,
      "یگان": 7018,
      "##دای": 7019,
      "انهم": 7020,
      "مثلث": 7021,
      "##پاشی": 7022,
      "مناسبی": 7023,
      "تونس": 7024,
      "الفا": 7025,
      "دولتهای": 7026,
      "سهبعدی": 7027,
      "اوب": 7028,
      "کای": 7029,
      "حکیم": 7030,
      "شعبه": 7031,
      "پنسیلوانیا": 7032,
      "دادگستری": 7033,
      "زرا": 7034,
      "##حات": 7035,
      "ژنتیکی": 7036,
      "بالاخ": 7037,
      "free": 7038,
      "کاراک": 7039,
      "جمال": 7040,
      "بردار": 7041,
      "گلدن": 7042,
      "##باد": 7043,
      "تعهد": 7044,
      "##زاس": 7045,
      "مخدر": 7046,
      "همایون": 7047,
      "ترسن": 7048,
      "بدل": 7049,
      "پروفس": 7050,
      "عاش": 7051,
      "گلوب": 7052,
      "جابجایی": 7053,
      "مند": 7054,
      "برگرد": 7055,
      "ناپل": 7056,
      "کلام": 7057,
      "کوهی": 7058,
      "باشید": 7059,
      "احمدی": 7060,
      "خطاب": 7061,
      "سعدی": 7062,
      "شکایت": 7063,
      "رسم": 7064,
      "باریک": 7065,
      "ازانج": 7066,
      "ملتهای": 7067,
      "علمیه": 7068,
      "نمیکنند": 7069,
      "زرهی": 7070,
      "مصالح": 7071,
      "سنا": 7072,
      "پیگیری": 7073,
      "##برده": 7074,
      "کوین": 7075,
      "##یافت": 7076,
      "میبیند": 7077,
      "پشتسر": 7078,
      "پیکر": 7079,
      "تضمین": 7080,
      "by": 7081,
      "شناگر": 7082,
      "##لن": 7083,
      "والت": 7084,
      "##چهی": 7085,
      "par": 7086,
      "موم": 7087,
      "مخابرات": 7088,
      "نرمافزاری": 7089,
      "مینمود": 7090,
      "البرز": 7091,
      "کورت": 7092,
      "صدها": 7093,
      "منتخب": 7094,
      "حید": 7095,
      "##ةال": 7096,
      "ژر": 7097,
      "پیوستن": 7098,
      "ادیان": 7099,
      "طبرستان": 7100,
      "سرب": 7101,
      "بازیابی": 7102,
      "##چیان": 7103,
      "##اسه": 7104,
      "سندی": 7105,
      "لوح": 7106,
      "لذت": 7107,
      "##عهای": 7108,
      "جایگزینی": 7109,
      "الاب": 7110,
      "خانوادهای": 7111,
      "عظ": 7112,
      "##غلی": 7113,
      "کرواسی": 7114,
      "شانزدهم": 7115,
      "##اسپ": 7116,
      "بیزانس": 7117,
      "لیبی": 7118,
      "میبایست": 7119,
      "لیزر": 7120,
      "جواه": 7121,
      "معص": 7122,
      "##کاران": 7123,
      "##گرهای": 7124,
      "مرکب": 7125,
      "کاظم": 7126,
      "شناسی": 7127,
      "لود": 7128,
      "##ملک": 7129,
      "قراردادی": 7130,
      "اموال": 7131,
      "الکل": 7132,
      "سبزی": 7133,
      "مصری": 7134,
      "شرایطی": 7135,
      "بادی": 7136,
      "املاک": 7137,
      "نهض": 7138,
      "تیمور": 7139,
      "میشیگان": 7140,
      "##ويلا": 7141,
      "اعتراف": 7142,
      "واقعه": 7143,
      "am": 7144,
      "کب": 7145,
      "نیکول": 7146,
      "وابستگی": 7147,
      "داوود": 7148,
      "لویی": 7149,
      "##يل": 7150,
      "کندی": 7151,
      "##ستد": 7152,
      "هرم": 7153,
      "مود": 7154,
      "##ونهای": 7155,
      "##شتاین": 7156,
      "##یتو": 7157,
      "مفصل": 7158,
      "##ribut": 7159,
      "sc": 7160,
      "عنکب": 7161,
      "کمترین": 7162,
      "##افل": 7163,
      "تراف": 7164,
      "پلیمر": 7165,
      "درگاه": 7166,
      "پیست": 7167,
      "مارش": 7168,
      "ترسناک": 7169,
      "بساز": 7170,
      "##برینز": 7171,
      "سپری": 7172,
      "حکمت": 7173,
      "بنیانگذاری": 7174,
      "پمپ": 7175,
      "ویکتوریا": 7176,
      "ازانجاییکه": 7177,
      "##بزرگ": 7178,
      "شدبا": 7179,
      "دوب": 7180,
      "ستایش": 7181,
      "گرمی": 7182,
      "مخزن": 7183,
      "بویر": 7184,
      "فیزیکدان": 7185,
      "میشدهاست": 7186,
      "زیرزمینی": 7187,
      "گردان": 7188,
      "1994": 7189,
      "شاگرد": 7190,
      "گفتهاست": 7191,
      "موزیکبرینز": 7192,
      "نشاندادن": 7193,
      "اوم": 7194,
      "کاو": 7195,
      "##قاسم": 7196,
      "univers": 7197,
      "واپ": 7198,
      "حوض": 7199,
      "رتبهی": 7200,
      "پروفسور": 7201,
      "علاقهمند": 7202,
      "فرعی": 7203,
      "##مره": 7204,
      "قوه": 7205,
      "##گونی": 7206,
      "رونق": 7207,
      "##سوتا": 7208,
      "بولی": 7209,
      "1382": 7210,
      "شبیهسازی": 7211,
      "زرتشت": 7212,
      "##ینگتون": 7213,
      "##ناک": 7214,
      "##خا": 7215,
      "مزرعه": 7216,
      "مرور": 7217,
      "بیتی": 7218,
      "لوت": 7219,
      "ریسک": 7220,
      "اراک": 7221,
      "زندگ": 7222,
      "سفارش": 7223,
      "خورشیدگرفتگی": 7224,
      "فوقالعاده": 7225,
      "شعار": 7226,
      "##میه": 7227,
      "##یتبار": 7228,
      "داوران": 7229,
      "نمایان": 7230,
      "##شع": 7231,
      "مشهورترین": 7232,
      "##وشت": 7233,
      "صلیب": 7234,
      "مقدمه": 7235,
      "تایلند": 7236,
      "نمودار": 7237,
      "تکنیکهای": 7238,
      "ساند": 7239,
      "نمیر": 7240,
      "انتخابیه": 7241,
      "1391": 7242,
      "رن": 7243,
      "سخنگ": 7244,
      "توط": 7245,
      "189": 7246,
      "##یان": 7247,
      "##بستگی": 7248,
      "خوردگی": 7249,
      "بارسلونا": 7250,
      "ناصرالدینشاه": 7251,
      "ترم": 7252,
      "هیچگونه": 7253,
      "رتبهبندی": 7254,
      "ماهواره": 7255,
      "الفبای": 7256,
      "گوشه": 7257,
      "صادرات": 7258,
      "فاکتور": 7259,
      "گوار": 7260,
      "##اسازی": 7261,
      "کرج": 7262,
      "سازگار": 7263,
      "میدهیم": 7264,
      "ژاک": 7265,
      "باشیم": 7266,
      "واکنشهای": 7267,
      "الومینیوم": 7268,
      "طرفدار": 7269,
      "نکرده": 7270,
      "هرچه": 7271,
      "هوی": 7272,
      "##اتوری": 7273,
      "پخت": 7274,
      "سینا": 7275,
      "رفتهاست": 7276,
      "همایش": 7277,
      "فرماندهان": 7278,
      "مینهسوتا": 7279,
      "جهاد": 7280,
      "##پزشکی": 7281,
      "انفر": 7282,
      "جامعهی": 7283,
      "##ودور": 7284,
      "برانگی": 7285,
      "چشماند": 7286,
      "جونی": 7287,
      "ناص": 7288,
      "کرون": 7289,
      "کانادایی": 7290,
      "استعفا": 7291,
      "مدی": 7292,
      "##گرافی": 7293,
      "جسد": 7294,
      "##نیف": 7295,
      "اپل": 7296,
      "اشپزی": 7297,
      "بلوچ": 7298,
      "اختلالات": 7299,
      "la": 7300,
      "سانتیگراد": 7301,
      "زبانشناسی": 7302,
      "##ant": 7303,
      "ید": 7304,
      "شرکتها": 7305,
      "ماجرای": 7306,
      "اسیر": 7307,
      "پرون": 7308,
      "فرقه": 7309,
      "سج": 7310,
      "امضای": 7311,
      "##ابهی": 7312,
      "ساع": 7313,
      "##لاحی": 7314,
      "اتن": 7315,
      "فاضل": 7316,
      "1380": 7317,
      "کاترین": 7318,
      "طبری": 7319,
      "میگردند": 7320,
      "جنبههای": 7321,
      "گازی": 7322,
      "تاثیرات": 7323,
      "پردیس": 7324,
      "نظریهی": 7325,
      "کارا": 7326,
      "نامید": 7327,
      "##هانی": 7328,
      "جمعیتی": 7329,
      "خانوادههای": 7330,
      "داروی": 7331,
      "ایرج": 7332,
      "منحنی": 7333,
      "دوچرخهسواری": 7334,
      "وسطی": 7335,
      "درخشان": 7336,
      "قرقی": 7337,
      "عمودی": 7338,
      "گزارشهای": 7339,
      "##ical": 7340,
      "خواسته": 7341,
      "قاچاق": 7342,
      "بحرین": 7343,
      "فیبر": 7344,
      "گرافیک": 7345,
      "الا": 7346,
      "دهک": 7347,
      "مینمای": 7348,
      "محاکمه": 7349,
      "داوری": 7350,
      "##تیس": 7351,
      "کریستین": 7352,
      "ماموران": 7353,
      "تروریستی": 7354,
      "دوری": 7355,
      "تبادل": 7356,
      "1379": 7357,
      "عبدالرح": 7358,
      "قطعی": 7359,
      "تشی": 7360,
      "##کنه": 7361,
      "##يول": 7362,
      "نفع": 7363,
      "توانستند": 7364,
      "یور": 7365,
      "ایس": 7366,
      "منسوب": 7367,
      "جانی": 7368,
      "نیازی": 7369,
      "متوالی": 7370,
      "سولف": 7371,
      "سازه": 7372,
      "عسل": 7373,
      "کشیش": 7374,
      "زه": 7375,
      "الوده": 7376,
      "مساوی": 7377,
      "contribut": 7378,
      "کتیبه": 7379,
      "لنین": 7380,
      "رسوب": 7381,
      "عاشقانه": 7382,
      "##وساز": 7383,
      "خوانندگان": 7384,
      "لحظ": 7385,
      "خشکی": 7386,
      "بازاریابی": 7387,
      "تسهیل": 7388,
      "عال": 7389,
      "بناهای": 7390,
      "##ضایی": 7391,
      "##امید": 7392,
      "کارنامه": 7393,
      "##نها": 7394,
      "تولیدکننده": 7395,
      "##اردو": 7396,
      "مذاکره": 7397,
      "##باغ": 7398,
      "اهنگهای": 7399,
      "ارزشم": 7400,
      "ابوالحسن": 7401,
      "تاریکی": 7402,
      "چهارده": 7403,
      "پیچیدگی": 7404,
      "مواقع": 7405,
      "کابینه": 7406,
      "ورق": 7407,
      "فقر": 7408,
      "سرنگ": 7409,
      "ساختارهای": 7410,
      "##ish": 7411,
      "انفرادی": 7412,
      "خواهان": 7413,
      "بدنی": 7414,
      "سامان": 7415,
      "access": 7416,
      "ثبات": 7417,
      "جیر": 7418,
      "##ومند": 7419,
      "بهعلاوه": 7420,
      "عصب": 7421,
      "جغرافیای": 7422,
      "بهشتی": 7423,
      "برمیگردد": 7424,
      "چو": 7425,
      "تفت": 7426,
      "صی": 7427,
      "سرهنگ": 7428,
      "اندک": 7429,
      "فروشگاه": 7430,
      "##بتی": 7431,
      "بههنگام": 7432,
      "غز": 7433,
      "اکو": 7434,
      "ارامش": 7435,
      "صاف": 7436,
      "مطب": 7437,
      "##کانی": 7438,
      "وج": 7439,
      "ترامپ": 7440,
      "ساوت": 7441,
      "الته": 7442,
      "زادگاه": 7443,
      "بلی": 7444,
      "لات": 7445,
      "بزرگسالان": 7446,
      "حضرت": 7447,
      "مصدق": 7448,
      "الو": 7449,
      "تاریخچه": 7450,
      "فانت": 7451,
      "##ورها": 7452,
      "وو": 7453,
      "استین": 7454,
      "استانه": 7455,
      "پزشکان": 7456,
      "باتری": 7457,
      "تران": 7458,
      "##دون": 7459,
      "استوار": 7460,
      "##ثبیت": 7461,
      "کیهان": 7462,
      "میتر": 7463,
      "رزم": 7464,
      "اسکن": 7465,
      "دوازدهم": 7466,
      "نقص": 7467,
      "جانش": 7468,
      "ارمنیان": 7469,
      "بخت": 7470,
      "ارتفاعات": 7471,
      "برگزید": 7472,
      "مقبره": 7473,
      "عبری": 7474,
      "تقسیمبندی": 7475,
      "مبدل": 7476,
      "تثبیت": 7477,
      "معادن": 7478,
      "##پیوند": 7479,
      "پراک": 7480,
      "مداخ": 7481,
      "روایات": 7482,
      "افزون": 7483,
      "ویلیامز": 7484,
      "##ادف": 7485,
      "##پشت": 7486,
      "ریس": 7487,
      "مدارک": 7488,
      "وه": 7489,
      "##ستهی": 7490,
      "الفرد": 7491,
      "مذاکرات": 7492,
      "نامبرده": 7493,
      "قدس": 7494,
      "شاهان": 7495,
      "##ارتمان": 7496,
      "ناشن": 7497,
      "##ang": 7498,
      "تورم": 7499,
      "##ساوی": 7500,
      "1992": 7501,
      "جابه": 7502,
      "کامپیوتری": 7503,
      "##وزه": 7504,
      "کارکرد": 7505,
      "کارشناسان": 7506,
      "اساطیر": 7507,
      "رطوب": 7508,
      "یادبود": 7509,
      "ناگهانی": 7510,
      "اسماعی": 7511,
      "##گم": 7512,
      "##سیلی": 7513,
      "پلت": 7514,
      "بالینی": 7515,
      "غذاهای": 7516,
      "شوالی": 7517,
      "مختصات": 7518,
      "##qu": 7519,
      "میشل": 7520,
      "ارباب": 7521,
      "شهردار": 7522,
      "برابری": 7523,
      "##ریحی": 7524,
      "متروی": 7525,
      "bo": 7526,
      "##ug": 7527,
      "بط": 7528,
      "##وات": 7529,
      "##ial": 7530,
      "محکم": 7531,
      "نمودهاست": 7532,
      "بردند": 7533,
      "##لههای": 7534,
      "تخممرغ": 7535,
      "جود": 7536,
      "ربات": 7537,
      "الیس": 7538,
      "اینبار": 7539,
      "##نهار": 7540,
      "اطلاعرسانی": 7541,
      "گرگان": 7542,
      "کپی": 7543,
      "ویسک": 7544,
      "مراد": 7545,
      "1990": 7546,
      "ضخامت": 7547,
      "رقابتها": 7548,
      "استیو": 7549,
      "طن": 7550,
      "سیزدهم": 7551,
      "تهیهکنندگی": 7552,
      "مباحث": 7553,
      "contributors": 7554,
      "قوای": 7555,
      "مکه": 7556,
      "##گارت": 7557,
      "ایووا": 7558,
      "نقطهی": 7559,
      "معاه": 7560,
      "نامزدی": 7561,
      "واقعا": 7562,
      "1397": 7563,
      "##ry": 7564,
      "هستی": 7565,
      "ونزويلا": 7566,
      "##pt": 7567,
      "بنت": 7568,
      "accessed": 7569,
      "محافظه": 7570,
      "قاه": 7571,
      "پرداختند": 7572,
      "مهد": 7573,
      "خوی": 7574,
      "ناق": 7575,
      "##ond": 7576,
      "جانسون": 7577,
      "خوراکی": 7578,
      "شورا": 7579,
      "ثبتشده": 7580,
      "1991": 7581,
      "خلال": 7582,
      "##نیم": 7583,
      "##ومان": 7584,
      "##طاف": 7585,
      "ممل": 7586,
      "کنش": 7587,
      "##سوزی": 7588,
      "اسامی": 7589,
      "##مانده": 7590,
      "دهلی": 7591,
      "راین": 7592,
      "لایههای": 7593,
      "تان": 7594,
      "چهرههای": 7595,
      "نقشی": 7596,
      "نظرات": 7597,
      "##رغ": 7598,
      "نهضت": 7599,
      "رفس": 7600,
      "عملا": 7601,
      "فراموش": 7602,
      "تله": 7603,
      "سزار": 7604,
      "##man": 7605,
      "##ایس": 7606,
      "##اریو": 7607,
      "ژیمناست": 7608,
      "بودم": 7609,
      "میکر": 7610,
      "فروپاشی": 7611,
      "توانسته": 7612,
      "فضل": 7613,
      "بارت": 7614,
      "##اندو": 7615,
      "کمکهای": 7616,
      "##یمیر": 7617,
      "##نع": 7618,
      "خاتمی": 7619,
      "هیچیک": 7620,
      "حرکتی": 7621,
      "مهران": 7622,
      "صندلی": 7623,
      "قاتل": 7624,
      "برپا": 7625,
      "اشور": 7626,
      "حیدر": 7627,
      "گرجی": 7628,
      "ملقب": 7629,
      "انتظامی": 7630,
      "مقاوم": 7631,
      "##رایی": 7632,
      "##جوانی": 7633,
      "دانشجویی": 7634,
      "متاسف": 7635,
      "بهطرف": 7636,
      "هیچکس": 7637,
      "برایان": 7638,
      "شاهی": 7639,
      "هاد": 7640,
      "##ودین": 7641,
      "اوردهاست": 7642,
      "ابتلا": 7643,
      "حساسیت": 7644,
      "50": 7645,
      "کنوان": 7646,
      "کوهن": 7647,
      "افتخارات": 7648,
      "استانداردهای": 7649,
      "تکه": 7650,
      "عادل": 7651,
      "روحی": 7652,
      "بوسی": 7653,
      "1381": 7654,
      "اشراف": 7655,
      "ماندن": 7656,
      "کارمند": 7657,
      "کنستان": 7658,
      "گفتار": 7659,
      "بلندی": 7660,
      "میدارد": 7661,
      "مشخصی": 7662,
      "هانس": 7663,
      "##وانا": 7664,
      "دوز": 7665,
      "غزل": 7666,
      "مقالهای": 7667,
      "1988": 7668,
      "##بیان": 7669,
      "نواوری": 7670,
      "کارش": 7671,
      "مخصوصا": 7672,
      "نیوزیلند": 7673,
      "سلطه": 7674,
      "##ht": 7675,
      "دارال": 7676,
      "کپ": 7677,
      "شماری": 7678,
      "ازمایشهای": 7679,
      "واژگان": 7680,
      "نیوجر": 7681,
      "هیچک": 7682,
      "سعد": 7683,
      "سمنان": 7684,
      "متناسب": 7685,
      "##دو": 7686,
      "پیشگام": 7687,
      "##ord": 7688,
      "##روس": 7689,
      "کنوانسیون": 7690,
      "دانشجوی": 7691,
      "حامی": 7692,
      "داعش": 7693,
      "##سفورد": 7694,
      "سردبیر": 7695,
      "مجزا": 7696,
      "پوند": 7697,
      "همسای": 7698,
      "توت": 7699,
      "متقابل": 7700,
      "جالب": 7701,
      "سکوت": 7702,
      "رمزنگاری": 7703,
      "##شب": 7704,
      "قربانیان": 7705,
      "کتابها": 7706,
      "صخ": 7707,
      "الاباما": 7708,
      "طلاق": 7709,
      "روبهرو": 7710,
      "##راض": 7711,
      "شهاب": 7712,
      "شیرینی": 7713,
      "غارت": 7714,
      "##رفته": 7715,
      "شدبه": 7716,
      "اصالت": 7717,
      "انتونیو": 7718,
      "##سکا": 7719,
      "پارچه": 7720,
      "حملهی": 7721,
      "شادی": 7722,
      "##استین": 7723,
      "متنوع": 7724,
      "ملیاش": 7725,
      "##لحاظ": 7726,
      "سیصد": 7727,
      "##انیوم": 7728,
      "پالایش": 7729,
      "راند": 7730,
      "طرز": 7731,
      "راج": 7732,
      "لوازم": 7733,
      "مهاجران": 7734,
      "بوسنی": 7735,
      "ناس": 7736,
      "هرز": 7737,
      "132": 7738,
      "فعالان": 7739,
      "ارسن": 7740,
      "مکعب": 7741,
      "عددی": 7742,
      "##اورت": 7743,
      "##وخته": 7744,
      "##جویان": 7745,
      "فورد": 7746,
      "##شای": 7747,
      "ویتامین": 7748,
      "##زون": 7749,
      "##لف": 7750,
      "لرد": 7751,
      "خیانت": 7752,
      "نیوجرسی": 7753,
      "##گشت": 7754,
      "پویان": 7755,
      "عمران": 7756,
      "قطبی": 7757,
      "گالری": 7758,
      "جیمی": 7759,
      "پیرو": 7760,
      "غیرنظامی": 7761,
      "رطوبت": 7762,
      "سران": 7763,
      "جاد": 7764,
      "1985": 7765,
      "نمونهای": 7766,
      "صلاحیت": 7767,
      "کانزاس": 7768,
      "برپایه": 7769,
      "بنیادی": 7770,
      "لینوکس": 7771,
      "اختلافات": 7772,
      "تقاضای": 7773,
      "##الها": 7774,
      "ذیل": 7775,
      "ارمان": 7776,
      "هوشنگ": 7777,
      "ماهیچه": 7778,
      "##فروشی": 7779,
      "ترکان": 7780,
      "##اروس": 7781,
      "اتری": 7782,
      "اخیرا": 7783,
      "اپی": 7784,
      "الیاف": 7785,
      "طوفان": 7786,
      "شریک": 7787,
      "##رکشی": 7788,
      "پانصد": 7789,
      "لبه": 7790,
      "##رايیلی": 7791,
      "اولویت": 7792,
      "انعطاف": 7793,
      "university": 7794,
      "مستعم": 7795,
      "بیروت": 7796,
      "پوت": 7797,
      "اوک": 7798,
      "استناد": 7799,
      "انب": 7800,
      "ابوالقاسم": 7801,
      "خونی": 7802,
      "مکت": 7803,
      "هجوم": 7804,
      "تروریسم": 7805,
      "##میلی": 7806,
      "راهحل": 7807,
      "عثمان": 7808,
      "##يوپ": 7809,
      "برهم": 7810,
      "اندیسهای": 7811,
      "بریتانی": 7812,
      "اسیاب": 7813,
      "ماور": 7814,
      "گوسف": 7815,
      "پویا": 7816,
      "قرقیز": 7817,
      "لیورپول": 7818,
      "گست": 7819,
      "تحریر": 7820,
      "نرمافزارهای": 7821,
      "خورده": 7822,
      "ارنست": 7823,
      "##لانی": 7824,
      "هاپ": 7825,
      "##اینکه": 7826,
      "سوگ": 7827,
      "هواپیماهای": 7828,
      "ازمایشی": 7829,
      "##ادهشده": 7830,
      "اقلیم": 7831,
      "جغراف": 7832,
      "تیلور": 7833,
      "##محمد": 7834,
      "قاهره": 7835,
      "مفهومی": 7836,
      "ارتس": 7837,
      "##خه": 7838,
      "انست": 7839,
      "سندرم": 7840,
      "سرگرمی": 7841,
      "زبانها": 7842,
      "##نبرگ": 7843,
      "پایهگذاری": 7844,
      "ناخال": 7845,
      "روبر": 7846,
      "عروس": 7847,
      "نورد": 7848,
      "##الوگ": 7849,
      "اصغر": 7850,
      "خرده": 7851,
      "راننده": 7852,
      "احکام": 7853,
      "سیستمعامل": 7854,
      "اقتباس": 7855,
      "نخل": 7856,
      "کشتیهای": 7857,
      "##ماهی": 7858,
      "ثبتنام": 7859,
      "روده": 7860,
      "##اوردهای": 7861,
      "##وون": 7862,
      "نوجوانی": 7863,
      "ناوگان": 7864,
      "##رویی": 7865,
      "##uc": 7866,
      "زار": 7867,
      "لانگ": 7868,
      "مسافت": 7869,
      "شیوهی": 7870,
      "تاسیسات": 7871,
      "نبودند": 7872,
      "میاورند": 7873,
      "##عکس": 7874,
      "##گزار": 7875,
      "##چن": 7876,
      "بویراحمد": 7877,
      "##وسن": 7878,
      "افقی": 7879,
      "نوسان": 7880,
      "ممنو": 7881,
      "ببرد": 7882,
      "##یته": 7883,
      "##رق": 7884,
      "##اشاه": 7885,
      "الکتروم": 7886,
      "میتوانیم": 7887,
      "باقر": 7888,
      "اسکل": 7889,
      "##وزوم": 7890,
      "سریعتر": 7891,
      "##نون": 7892,
      "نمیشوند": 7893,
      "رساندن": 7894,
      "جبران": 7895,
      "ژرف": 7896,
      "کیر": 7897,
      "کاشی": 7898,
      "##فو": 7899,
      "موریس": 7900,
      "طعم": 7901,
      "دیزنی": 7902,
      "نادرست": 7903,
      "خرماباد": 7904,
      "کلارک": 7905,
      "مرگش": 7906,
      "جنی": 7907,
      "1378": 7908,
      "هق": 7909,
      "عروسی": 7910,
      "ورم": 7911,
      "اندرو": 7912,
      "روسها": 7913,
      "بابک": 7914,
      "امامی": 7915,
      "جهش": 7916,
      "خطا": 7917,
      "بازارهای": 7918,
      "بهزودی": 7919,
      "هاین": 7920,
      "پوسته": 7921,
      "شخصیتی": 7922,
      "نعمت": 7923,
      "##ey": 7924,
      "##افرینی": 7925,
      "قاعده": 7926,
      "لاس": 7927,
      "فقیر": 7928,
      "شنبه": 7929,
      "جورجیا": 7930,
      "اوری": 7931,
      "فراری": 7932,
      "تزيین": 7933,
      "##صدی": 7934,
      "انگور": 7935,
      "دانشگاهها": 7936,
      "1398": 7937,
      "تبریزی": 7938,
      "قضاوت": 7939,
      "زیستم": 7940,
      "غلظت": 7941,
      "برت": 7942,
      "ارزان": 7943,
      "بانوان": 7944,
      "افسران": 7945,
      "اکسفورد": 7946,
      "ابیاری": 7947,
      "hist": 7948,
      "##ینگن": 7949,
      "گذاشتن": 7950,
      "پند": 7951,
      "الز": 7952,
      "مدرسهی": 7953,
      "بلندترین": 7954,
      "تخصص": 7955,
      "بقایای": 7956,
      "مدینه": 7957,
      "برداشته": 7958,
      "##شکدهی": 7959,
      "اتل": 7960,
      "دايم": 7961,
      "##rom": 7962,
      "ورد": 7963,
      "##بورن": 7964,
      "زمستانی": 7965,
      "نمیدهد": 7966,
      "ییل": 7967,
      "برایش": 7968,
      "نقلیه": 7969,
      "نادی": 7970,
      "نصفال": 7971,
      "ویراست": 7972,
      "مزد": 7973,
      "کسر": 7974,
      "میزبانی": 7975,
      "##ويید": 7976,
      "جلسات": 7977,
      "جوز": 7978,
      "مرطوب": 7979,
      "رفتاری": 7980,
      "مسيولان": 7981,
      "##جب": 7982,
      "اعصاب": 7983,
      "تجرب": 7984,
      "گزارشی": 7985,
      "خشن": 7986,
      "دیوارهای": 7987,
      "رحیم": 7988,
      "دیپلمات": 7989,
      "کمبریج": 7990,
      "کالاهای": 7991,
      "بروس": 7992,
      "##اتان": 7993,
      "پارتی": 7994,
      "شوک": 7995,
      "یعقوب": 7996,
      "##لسون": 7997,
      "عامه": 7998,
      "فسف": 7999,
      "انقدر": 8000,
      "##فیا": 8001,
      "##ویض": 8002,
      "بلوار": 8003,
      "داوطلب": 8004,
      "سهگانه": 8005,
      "old": 8006,
      "##دهندهی": 8007,
      "کاشان": 8008,
      "##لد": 8009,
      "اعلامی": 8010,
      "##io": 8011,
      "درسی": 8012,
      "بهلحاظ": 8013,
      "اپرا": 8014,
      "غول": 8015,
      "رازی": 8016,
      "گردیدهاست": 8017,
      "تمایز": 8018,
      "##اطقی": 8019,
      "مطلب": 8020,
      "بهنح": 8021,
      "فلی": 8022,
      "##فسی": 8023,
      "گذار": 8024,
      "##جمان": 8025,
      "میشده": 8026,
      "گا": 8027,
      "تبلیغاتی": 8028,
      "دخترش": 8029,
      "ویلسون": 8030,
      "روشنایی": 8031,
      "پاول": 8032,
      "میپردازند": 8033,
      "ایند": 8034,
      "ولاد": 8035,
      "برقی": 8036,
      "نیج": 8037,
      "البانی": 8038,
      "کارگاه": 8039,
      "دانستهاند": 8040,
      "##اثر": 8041,
      "ترسیم": 8042,
      "بالاخره": 8043,
      "شدهی": 8044,
      "##فتگی": 8045,
      "زاوی": 8046,
      "عجیب": 8047,
      "دمشق": 8048,
      "رکوردهای": 8049,
      "یوک": 8050,
      "وزنه": 8051,
      "نهاده": 8052,
      "تمیز": 8053,
      "فریب": 8054,
      "نمیتوانند": 8055,
      "##ust": 8056,
      "##ate": 8057,
      "متاسفانه": 8058,
      "اسرايیلی": 8059,
      "ساختوساز": 8060,
      "دبلیو": 8061,
      "##شاف": 8062,
      "راحت": 8063,
      "##حیطی": 8064,
      "بادام": 8065,
      "ro": 8066,
      "درب": 8067,
      "استراحت": 8068,
      "نصفالنهار": 8069,
      "مجاورت": 8070,
      "رایت": 8071,
      "##ایری": 8072,
      "مزایای": 8073,
      "##دیده": 8074,
      "نفی": 8075,
      "##یف": 8076,
      "##کوب": 8077,
      "علامه": 8078,
      "دهها": 8079,
      "کریمی": 8080,
      "عید": 8081,
      "شاخهای": 8082,
      "نشانههای": 8083,
      "فروخته": 8084,
      "رصد": 8085,
      "تبعی": 8086,
      "ترافیک": 8087,
      "##ماری": 8088,
      "بالق": 8089,
      "ازان": 8090,
      "روت": 8091,
      "جسمی": 8092,
      "##ys": 8093,
      "متفق": 8094,
      "هرد": 8095,
      "مطم": 8096,
      "زندگینامه": 8097,
      "شیشهای": 8098,
      "یوگس": 8099,
      "##ناپذیر": 8100,
      "لرز": 8101,
      "فرخ": 8102,
      "فضانورد": 8103,
      "عهدهدار": 8104,
      "کج": 8105,
      "کهنه": 8106,
      "منه": 8107,
      "شراب": 8108,
      "عرفان": 8109,
      "زیستمحیطی": 8110,
      "فتحعلی": 8111,
      "مینمایند": 8112,
      "##عام": 8113,
      "فرشته": 8114,
      "منشور": 8115,
      "رانندگی": 8116,
      "دشتی": 8117,
      "مناطقی": 8118,
      "نشریات": 8119,
      "دنده": 8120,
      "اختصار": 8121,
      "داير": 8122,
      "فردریک": 8123,
      "سخنان": 8124,
      "رین": 8125,
      "میپذیرد": 8126,
      "##گلاس": 8127,
      "شناور": 8128,
      "زور": 8129,
      "بیانیه": 8130,
      "محمدحسین": 8131,
      "##ast": 8132,
      "خاکی": 8133,
      "دلخواه": 8134,
      "کودتای": 8135,
      "قواع": 8136,
      "##ib": 8137,
      "##نگری": 8138,
      "##جمله": 8139,
      "1989": 8140,
      "غم": 8141,
      "##کسید": 8142,
      "پلیاست": 8143,
      "عقاب": 8144,
      "##حم": 8145,
      "##هرانی": 8146,
      "واض": 8147,
      "کوچکترین": 8148,
      "میدانستند": 8149,
      "نکند": 8150,
      "##فورت": 8151,
      "##پوستان": 8152,
      "استانی": 8153,
      "اوس": 8154,
      "##خورده": 8155,
      "##کند": 8156,
      "##خود": 8157,
      "##صور": 8158,
      "انصاری": 8159,
      "معن": 8160,
      "##ارید": 8161,
      "رمضان": 8162,
      "واکسن": 8163,
      "فلسطینی": 8164,
      "بیگانه": 8165,
      "یاران": 8166,
      "##لاغ": 8167,
      "صفویه": 8168,
      "35": 8169,
      "co": 8170,
      "هندسه": 8171,
      "بص": 8172,
      "ارايهشده": 8173,
      "##شهری": 8174,
      "ابریشم": 8175,
      "جانشینی": 8176,
      "##21": 8177,
      "زاگر": 8178,
      "دوگانه": 8179,
      "خواهرخواندهی": 8180,
      "##کال": 8181,
      "بیلبورد": 8182,
      "سلاحهای": 8183,
      "فخر": 8184,
      "##طانی": 8185,
      "خوانندگی": 8186,
      "جنایی": 8187,
      "علمای": 8188,
      "##گراف": 8189,
      "نسب": 8190,
      "نواخت": 8191,
      "قارچ": 8192,
      "قرقیزستان": 8193,
      "درهم": 8194,
      "قبرس": 8195,
      "شبان": 8196,
      "پانزدهم": 8197,
      "تلف": 8198,
      "الماس": 8199,
      "یکمین": 8200,
      "##سبورگ": 8201,
      "اتشسوزی": 8202,
      "##لاگ": 8203,
      "##ction": 8204,
      "استعداد": 8205,
      "رکورددار": 8206,
      "گمشده": 8207,
      "##ولوژیک": 8208,
      "##ردام": 8209,
      "##باع": 8210,
      "چاق": 8211,
      "##یتون": 8212,
      "الخ": 8213,
      "ابزاری": 8214,
      "بارداری": 8215,
      "مجاهدین": 8216,
      "tit": 8217,
      "##سنت": 8218,
      "فضاهای": 8219,
      "##پرو": 8220,
      "##ساله": 8221,
      "##باخ": 8222,
      "رفتارهای": 8223,
      "سرشناس": 8224,
      "مخرو": 8225,
      "1986": 8226,
      "غرق": 8227,
      "اناتولی": 8228,
      "دهستانی": 8229,
      "##ork": 8230,
      "توه": 8231,
      "میشناس": 8232,
      "پدربزرگ": 8233,
      "صوم": 8234,
      "##دات": 8235,
      "php": 8236,
      "هات": 8237,
      "##الیست": 8238,
      "تقریبی": 8239,
      "حالتی": 8240,
      "مشابهی": 8241,
      "چندانی": 8242,
      "هالیوود": 8243,
      "پد": 8244,
      "##ae": 8245,
      "##يینی": 8246,
      "لطف": 8247,
      "برچسب": 8248,
      "##اییها": 8249,
      "##رزاده": 8250,
      "موضع": 8251,
      "استیل": 8252,
      "دهخدا": 8253,
      "ابادان": 8254,
      "مکرر": 8255,
      "##جمی": 8256,
      "##bn": 8257,
      "خیالی": 8258,
      "خنثی": 8259,
      "گینه": 8260,
      "تعلیم": 8261,
      "وطن": 8262,
      "##فار": 8263,
      "یورش": 8264,
      "دیویس": 8265,
      "بهکارگیری": 8266,
      "ثان": 8267,
      "هارت": 8268,
      "عکاس": 8269,
      "جماعت": 8270,
      "کرت": 8271,
      "استودیویی": 8272,
      "شعری": 8273,
      "خودمختار": 8274,
      "##کره": 8275,
      "تحولات": 8276,
      "لاله": 8277,
      "##ندرانی": 8278,
      "سلیمانی": 8279,
      "##ندها": 8280,
      "لری": 8281,
      "زغال": 8282,
      "دادستان": 8283,
      "نشانگر": 8284,
      "تشدید": 8285,
      "مبدا": 8286,
      "هاروارد": 8287,
      "مسیری": 8288,
      "باق": 8289,
      "حفاری": 8290,
      "دهههای": 8291,
      "تولیدات": 8292,
      "طرفین": 8293,
      "زیستگاه": 8294,
      "##غد": 8295,
      "##هرم": 8296,
      "##نات": 8297,
      "باس": 8298,
      "شجاع": 8299,
      "افسانهای": 8300,
      "زع": 8301,
      "##الث": 8302,
      "استار": 8303,
      "حسب": 8304,
      "افسردگی": 8305,
      "##فشان": 8306,
      "مشروط": 8307,
      "پیل": 8308,
      "##تها": 8309,
      "پاتریک": 8310,
      "##طح": 8311,
      "##دیس": 8312,
      "##سیسی": 8313,
      "اکل": 8314,
      "میرسند": 8315,
      "توجیه": 8316,
      "اذری": 8317,
      "فردا": 8318,
      "بشری": 8319,
      "فاج": 8320,
      "##امو": 8321,
      "مدتها": 8322,
      "اعتصاب": 8323,
      "ابشارها": 8324,
      "گروهها": 8325,
      "سیمرغ": 8326,
      "تسلی": 8327,
      "نورث": 8328,
      "طبقات": 8329,
      "سنجش": 8330,
      "مزیت": 8331,
      "##سایی": 8332,
      "##ec": 8333,
      "فرضی": 8334,
      "نجفی": 8335,
      "نژادی": 8336,
      "نگاهی": 8337,
      "یوش": 8338,
      "یکشنبه": 8339,
      "نوش": 8340,
      "روشنفکر": 8341,
      "پلاستیک": 8342,
      "کمین": 8343,
      "##ii": 8344,
      "زاهدان": 8345,
      "ونیز": 8346,
      "##لیو": 8347,
      "188": 8348,
      "گس": 8349,
      "2020": 8350,
      "نگهداشت": 8351,
      "انبوه": 8352,
      "##شکاری": 8353,
      "سلامتی": 8354,
      "سپاهیان": 8355,
      "موقع": 8356,
      "نصف": 8357,
      "خبرنگار": 8358,
      "حیاط": 8359,
      "##پتون": 8360,
      "##وژ": 8361,
      "تصنیف": 8362,
      "سرتاسر": 8363,
      "انالیز": 8364,
      "فمینی": 8365,
      "گفتند": 8366,
      "یوگسلاوی": 8367,
      "دونالد": 8368,
      "اقتصاددان": 8369,
      "باله": 8370,
      "مطبوع": 8371,
      "##اخان": 8372,
      "همبستگی": 8373,
      "##ساب": 8374,
      "افرا": 8375,
      "مهرداد": 8376,
      "گرمسیری": 8377,
      "بطور": 8378,
      "سراغ": 8379,
      "گواهی": 8380,
      "مجرو": 8381,
      "سیدنی": 8382,
      "اپر": 8383,
      "شوش": 8384,
      "جشنوارهی": 8385,
      "قهوه": 8386,
      "بهدستامده": 8387,
      "اقبال": 8388,
      "بگذارد": 8389,
      "پلیاستیشن": 8390,
      "بخصوص": 8391,
      "ترانس": 8392,
      "تبعیض": 8393,
      "هفدهم": 8394,
      "تذ": 8395,
      "ریه": 8396,
      "دستهای": 8397,
      "خوانندهی": 8398,
      "40": 8399,
      "بنز": 8400,
      "##ure": 8401,
      "مازندرانی": 8402,
      "vol": 8403,
      "##حاق": 8404,
      "کشی": 8405,
      "مراجع": 8406,
      "منق": 8407,
      "##خورد": 8408,
      "##راق": 8409,
      "ترانهی": 8410,
      "بیاید": 8411,
      "ادامهی": 8412,
      "سیلیک": 8413,
      "بحرانی": 8414,
      "ربی": 8415,
      "لوب": 8416,
      "برایاینکه": 8417,
      "زیرساخت": 8418,
      "لامپ": 8419,
      "##وینی": 8420,
      "هندسی": 8421,
      "کویر": 8422,
      "مدیرعامل": 8423,
      "##نمایی": 8424,
      "هندو": 8425,
      "کنتاکی": 8426,
      "شیوههای": 8427,
      "صدی": 8428,
      "فوک": 8429,
      "##یع": 8430,
      "نیجریه": 8431,
      "گلو": 8432,
      "کمپین": 8433,
      "##سالی": 8434,
      "سمفونی": 8435,
      "یام": 8436,
      "غلبه": 8437,
      "لوس": 8438,
      "تحلیلی": 8439,
      "##انتس": 8440,
      "ناهم": 8441,
      "برترین": 8442,
      "ریخت": 8443,
      "زنجیرهای": 8444,
      "پخته": 8445,
      "سوک": 8446,
      "فه": 8447,
      "1987": 8448,
      "استراتژیک": 8449,
      "##توس": 8450,
      "میگذارند": 8451,
      "##امیکی": 8452,
      "##سیوس": 8453,
      "یکنو": 8454,
      "بیابان": 8455,
      "اساسا": 8456,
      "چشمگیری": 8457,
      "زنجیره": 8458,
      "سحر": 8459,
      "صفت": 8460,
      "ود": 8461,
      "##پو": 8462,
      "اغازین": 8463,
      "دراینمیان": 8464,
      "چنانچه": 8465,
      "مارشال": 8466,
      "تدارک": 8467,
      "قبرستان": 8468,
      "دلا": 8469,
      "راهبرد": 8470,
      "ناشناخته": 8471,
      "هجدهم": 8472,
      "##جینی": 8473,
      "اتفاقی": 8474,
      "دوش": 8475,
      "خوزه": 8476,
      "گزین": 8477,
      "##اهما": 8478,
      "انجیل": 8479,
      "اسکند": 8480,
      "اکتشاف": 8481,
      "##ولان": 8482,
      "سلجوقیان": 8483,
      "فضاپیم": 8484,
      "خواهیم": 8485,
      "لشکرکشی": 8486,
      "##ادگان": 8487,
      "استعمار": 8488,
      "فیش": 8489,
      "دوشنبه": 8490,
      "اشع": 8491,
      "غلامحسین": 8492,
      "##بیاس": 8493,
      "توطيه": 8494,
      "1377": 8495,
      "بشک": 8496,
      "برندگان": 8497,
      "سازد": 8498,
      "چهاردهم": 8499,
      "title": 8500,
      "دانشکدهی": 8501,
      "##پیچ": 8502,
      "دبیرکل": 8503,
      "اصطلاحات": 8504,
      "##اوا": 8505,
      "بازماند": 8506,
      "تحقق": 8507,
      "سرقت": 8508,
      "کويین": 8509,
      "نمیکرد": 8510,
      "##ass": 8511,
      "سدیم": 8512,
      "رفاه": 8513,
      "شیوع": 8514,
      "دوستانه": 8515,
      "##انتا": 8516,
      "مسیرهای": 8517,
      "تزی": 8518,
      "شانزده": 8519,
      "دیواره": 8520,
      "##ain": 8521,
      "مظفر": 8522,
      "##یست": 8523,
      "پیادهنظام": 8524,
      "سازگاری": 8525,
      "تلم": 8526,
      "خونریزی": 8527,
      "pl": 8528,
      "##ساری": 8529,
      "سخنگوی": 8530,
      "کشورهایی": 8531,
      "نادیده": 8532,
      "داکوت": 8533,
      "ناپدید": 8534,
      "لید": 8535,
      "کارمندان": 8536,
      "چندینبار": 8537,
      "131": 8538,
      "خاتمه": 8539,
      "محدودیتهای": 8540,
      "تنیس": 8541,
      "##ah": 8542,
      "##خواهی": 8543,
      "گد": 8544,
      "کمکی": 8545,
      "خوراک": 8546,
      "حبیب": 8547,
      "تفریحی": 8548,
      "تقاضا": 8549,
      "##oh": 8550,
      "ایات": 8551,
      "دعا": 8552,
      "##ly": 8553,
      "مسد": 8554,
      "سادات": 8555,
      "##ازگی": 8556,
      "##یترانه": 8557,
      "##استی": 8558,
      "بارز": 8559,
      "##نگاران": 8560,
      "رضاشاه": 8561,
      "##فلد": 8562,
      "ایندیانا": 8563,
      "##ذه": 8564,
      "تونل": 8565,
      "اصلا": 8566,
      "##ica": 8567,
      "مسافران": 8568,
      "رستوران": 8569,
      "داکوتای": 8570,
      "##قانی": 8571,
      "میس": 8572,
      "##ازان": 8573,
      "مرکزیت": 8574,
      "خیال": 8575,
      "اسقف": 8576,
      "بب": 8577,
      "##ستمی": 8578,
      "تکثیر": 8579,
      "لیتوانی": 8580,
      "##ویهی": 8581,
      "##مکن": 8582,
      "مدیترانه": 8583,
      "حرفه": 8584,
      "بوش": 8585,
      "حیاتی": 8586,
      "یوتیوب": 8587,
      "فرزندش": 8588,
      "تعبیر": 8589,
      "افزودن": 8590,
      "##ندرت": 8591,
      "سنتز": 8592,
      "یزدی": 8593,
      "نمودن": 8594,
      "رید": 8595,
      "فات": 8596,
      "هدیه": 8597,
      "کارگری": 8598,
      "##اقب": 8599,
      "##احتی": 8600,
      "##انسین": 8601,
      "جنسیت": 8602,
      "کریستال": 8603,
      "قواعد": 8604,
      "کلاسهای": 8605,
      "اندره": 8606,
      "##کردهای": 8607,
      "فرص": 8608,
      "کمیک": 8609,
      "بارش": 8610,
      "مشاوره": 8611,
      "بپردازد": 8612,
      "oldid": 8613,
      "فاکس": 8614,
      "شیء": 8615,
      "اتفاقات": 8616,
      "کروز": 8617,
      "سالگرد": 8618,
      "##ایب": 8619,
      "ارزشهای": 8620,
      "شتر": 8621,
      "مابین": 8622,
      "گرام": 8623,
      "پهنای": 8624,
      "##مرور": 8625,
      "تساوی": 8626,
      "همکاران": 8627,
      "بهندرت": 8628,
      "شهریار": 8629,
      "متوسطه": 8630,
      "معادلات": 8631,
      "هافبک": 8632,
      "##طلب": 8633,
      "##لاع": 8634,
      "بیانگر": 8635,
      "رضایی": 8636,
      "شیل": 8637,
      "گویا": 8638,
      "خودرویی": 8639,
      "روحانیون": 8640,
      "هون": 8641,
      "##صب": 8642,
      "لاری": 8643,
      "ادیب": 8644,
      "کتیب": 8645,
      "##کبیر": 8646,
      "واژههای": 8647,
      "نداد": 8648,
      "توسعهیافته": 8649,
      "رمانتیک": 8650,
      "بصری": 8651,
      "##رام": 8652,
      "منحل": 8653,
      "##olog": 8654,
      "بکشد": 8655,
      "ارزشمند": 8656,
      "##eb": 8657,
      "پرفروشترین": 8658,
      "##فاده": 8659,
      "میفر": 8660,
      "کجا": 8661,
      "جونیور": 8662,
      "##پز": 8663,
      "##ضوح": 8664,
      "راجع": 8665,
      "فناوریهای": 8666,
      "چارلی": 8667,
      "زدند": 8668,
      "میگفتند": 8669,
      "کوری": 8670,
      "cl": 8671,
      "ایسل": 8672,
      "کشم": 8673,
      "علف": 8674,
      "ارتقاء": 8675,
      "##وتیک": 8676,
      "فلفل": 8677,
      "مفسر": 8678,
      "##الان": 8679,
      "برنامهها": 8680,
      "بسط": 8681,
      "مایه": 8682,
      "بوستون": 8683,
      "رسان": 8684,
      "عایق": 8685,
      "قوس": 8686,
      "##گردها": 8687,
      "مسابقهی": 8688,
      "اراده": 8689,
      "کنفد": 8690,
      "ارتساخ": 8691,
      "قور": 8692,
      "انه": 8693,
      "##قای": 8694,
      "بهمرور": 8695,
      "الام": 8696,
      "میزد": 8697,
      "اکسپ": 8698,
      "شعاع": 8699,
      "گریخت": 8700,
      "محاسباتی": 8701,
      "##سوس": 8702,
      "کنارهگیری": 8703,
      "لیلی": 8704,
      "پش": 8705,
      "الج": 8706,
      "اسارت": 8707,
      "##ايیل": 8708,
      "حکایت": 8709,
      "میزنند": 8710,
      "کریستی": 8711,
      "##دست": 8712,
      "##لال": 8713,
      "##per": 8714,
      "##وریا": 8715,
      "جاسوسی": 8716,
      "بروجرد": 8717,
      "لک": 8718,
      "کراس": 8719,
      "منتظر": 8720,
      "نقطهای": 8721,
      "دیانای": 8722,
      "اجتن": 8723,
      "چهارصد": 8724,
      "دستان": 8725,
      "فیفا": 8726,
      "##اریا": 8727,
      "##تره": 8728,
      "انگیزه": 8729,
      "##لود": 8730,
      "سونی": 8731,
      "##اگاس": 8732,
      "##ومیر": 8733,
      "تلس": 8734,
      "هورمون": 8735,
      "سراب": 8736,
      "بهینهسازی": 8737,
      "اصیل": 8738,
      "##پایان": 8739,
      "بنیانگذاران": 8740,
      "معتدل": 8741,
      "isbn": 8742,
      "الاسکا": 8743,
      "پویانمایی": 8744,
      "ختم": 8745,
      "عاط": 8746,
      "منظر": 8747,
      "مارکس": 8748,
      "بمباران": 8749,
      "تنگه": 8750,
      "گونهی": 8751,
      "##اقت": 8752,
      "مبانی": 8753,
      "کوره": 8754,
      "درگیریهای": 8755,
      "کریستوفر": 8756,
      "متفقین": 8757,
      "زام": 8758,
      "هوس": 8759,
      "گرمای": 8760,
      "گذاری": 8761,
      "چیست": 8762,
      "مریلند": 8763,
      "##پرستی": 8764,
      "چشمانداز": 8765,
      "تاجر": 8766,
      "سیمای": 8767,
      "تنفسی": 8768,
      "1984": 8769,
      "فرضیه": 8770,
      "موزیکال": 8771,
      "پود": 8772,
      "داگلاس": 8773,
      "دراینصورت": 8774,
      "اجتناب": 8775,
      "فرمانداری": 8776,
      "##ics": 8777,
      "##سیو": 8778,
      "##انتو": 8779,
      "ناظر": 8780,
      "1376": 8781,
      "##فول": 8782,
      "زنبور": 8783,
      "حصار": 8784,
      "گرافیکی": 8785,
      "بابت": 8786,
      "سیمون": 8787,
      "رحم": 8788,
      "حاي": 8789,
      "##عان": 8790,
      "درای": 8791,
      "بهتری": 8792,
      "964": 8793,
      "لت": 8794,
      "##پایی": 8795,
      "مشا": 8796,
      "مخف": 8797,
      "شکستن": 8798,
      "##روب": 8799,
      "بزند": 8800,
      "تقدیم": 8801,
      "کنفدراسیون": 8802,
      "محر": 8803,
      "بانکداری": 8804,
      "کاراکتر": 8805,
      "اجسام": 8806,
      "سیف": 8807,
      "اشرف": 8808,
      "اصرار": 8809,
      "تماش": 8810,
      "اتشفشان": 8811,
      "نگران": 8812,
      "##فره": 8813,
      "سرس": 8814,
      "مارول": 8815,
      "فیلمساز": 8816,
      "خصوصا": 8817,
      "ساب": 8818,
      "بالگرد": 8819,
      "فلات": 8820,
      "جت": 8821,
      "##هری": 8822,
      "کارلوس": 8823,
      "لهجه": 8824,
      "سواد": 8825,
      "ادارهی": 8826,
      "ماههای": 8827,
      "واری": 8828,
      "##ارب": 8829,
      "وند": 8830,
      "کیا": 8831,
      "##وطی": 8832,
      "پهلوان": 8833,
      "سنگاپور": 8834,
      "مبارز": 8835,
      "هاشم": 8836,
      "نجیب": 8837,
      "جنج": 8838,
      "گرمایی": 8839,
      "##فسکی": 8840,
      "رمانی": 8841,
      "تنک": 8842,
      "تعویض": 8843,
      "مدلسازی": 8844,
      "inter": 8845,
      "دامداری": 8846,
      "نهنگ": 8847,
      "##هیز": 8848,
      "br": 8849,
      "راجعبه": 8850,
      "قصه": 8851,
      "استالین": 8852,
      "رودبار": 8853,
      "مخاطبان": 8854,
      "خلیل": 8855,
      "حدودی": 8856,
      "بکش": 8857,
      "میپوش": 8858,
      "درختی": 8859,
      "##وانگ": 8860,
      "فریاد": 8861,
      "دگرگونی": 8862,
      "مسم": 8863,
      "نقاشیهای": 8864,
      "تصدی": 8865,
      "زاي": 8866,
      "سوری": 8867,
      "قفل": 8868,
      "##ect": 8869,
      "کشش": 8870,
      "امیرکبیر": 8871,
      "##und": 8872,
      "پاره": 8873,
      "زمانهای": 8874,
      "تیغ": 8875,
      "جداسازی": 8876,
      "##حدی": 8877,
      "نقشافرینی": 8878,
      "فورت": 8879,
      "##ظری": 8880,
      "فرنگی": 8881,
      "دانیل": 8882,
      "سروده": 8883,
      "پدیدار": 8884,
      "with": 8885,
      "رهایی": 8886,
      "##اموز": 8887,
      "توقی": 8888,
      "مجلات": 8889,
      "ریلی": 8890,
      "##استیکی": 8891,
      "##یکت": 8892,
      "ارث": 8893,
      "جنبه": 8894,
      "برگهای": 8895,
      "be": 8896,
      "شانس": 8897,
      "نگرفت": 8898,
      "تنسی": 8899,
      "اقتدار": 8900,
      "ماندگار": 8901,
      "قشلاق": 8902,
      "لیتر": 8903,
      "کریک": 8904,
      "ماهوار": 8905,
      "تصادف": 8906,
      "حشره": 8907,
      "##ff": 8908,
      "بات": 8909,
      "پیون": 8910,
      "روزنامهی": 8911,
      "کاد": 8912,
      "مطلع": 8913,
      "ویرجینی": 8914,
      "بالقوه": 8915,
      "يی": 8916,
      "نوشید": 8917,
      "##اهه": 8918,
      "رفتو": 8919,
      "تغییراتی": 8920,
      "کاشت": 8921,
      "سامويل": 8922,
      "ماشینهای": 8923,
      "رپ": 8924,
      "دنیل": 8925,
      "مخاطب": 8926,
      "دهیم": 8927,
      "##راتب": 8928,
      "خیابانی": 8929,
      "دیدگاههای": 8930,
      "الپ": 8931,
      "مقیم": 8932,
      "ذخیرهسازی": 8933,
      "شغلی": 8934,
      "کبد": 8935,
      "گزی": 8936,
      "موضوعی": 8937,
      "##ویگ": 8938,
      "کاف": 8939,
      "گي": 8940,
      "##ثری": 8941,
      "میشن": 8942,
      "کلسیم": 8943,
      "ماداگاس": 8944,
      "رادیک": 8945,
      "قايل": 8946,
      "##اسکا": 8947,
      "دادهی": 8948,
      "حسابداری": 8949,
      "##السلطنه": 8950,
      "راوی": 8951,
      "منگ": 8952,
      "دیوانه": 8953,
      "دزدی": 8954,
      "بودایی": 8955,
      "te": 8956,
      "طاهر": 8957,
      "ex": 8958,
      "##تقی": 8959,
      "بسیج": 8960,
      "##ینگز": 8961,
      "##78": 8962,
      "##استر": 8963,
      "##ولار": 8964,
      "##رسمی": 8965,
      "ترکمنستان": 8966,
      "سپرد": 8967,
      "##مزد": 8968,
      "گرایی": 8969,
      "سرنشین": 8970,
      "تالاب": 8971,
      "کاشانی": 8972,
      "##سری": 8973,
      "تایوان": 8974,
      "##ویر": 8975,
      "ولادیمیر": 8976,
      "کیسه": 8977,
      "گواهین": 8978,
      "نگاشت": 8979,
      "الکترومغ": 8980,
      "##ice": 8981,
      "شدیدی": 8982,
      "##میده": 8983,
      "توربین": 8984,
      "انحراف": 8985,
      "##خار": 8986,
      "مرسوم": 8987,
      "چهارشنبه": 8988,
      "##کوف": 8989,
      "##پردازی": 8990,
      "دیپلماتیک": 8991,
      "مداخله": 8992,
      "مسدود": 8993,
      "مورخان": 8994,
      "سبزوار": 8995,
      "سودان": 8996,
      "زهرا": 8997,
      "فتو": 8998,
      "تصویربرداری": 8999,
      "رويینگ": 9000,
      "بیژن": 9001,
      "اندی": 9002,
      "تلخ": 9003,
      "التهاب": 9004,
      "##ومتر": 9005,
      "اوپ": 9006,
      "##زادگان": 9007,
      "واضح": 9008,
      "bl": 9009,
      "ذره": 9010,
      "بایستی": 9011,
      "##جهای": 9012,
      "گردو": 9013,
      "اشکانی": 9014,
      "استرالیایی": 9015,
      "me": 9016,
      "دستهی": 9017,
      "شال": 9018,
      "air": 9019,
      "فصلی": 9020,
      "طناب": 9021,
      "نرس": 9022,
      "باه": 9023,
      "##اریه": 9024,
      "پروان": 9025,
      "احسان": 9026,
      "پرستاری": 9027,
      "##ترال": 9028,
      "پاشا": 9029,
      "گفتن": 9030,
      "تهرانی": 9031,
      "منز": 9032,
      "منشی": 9033,
      "اثارش": 9034,
      "شعله": 9035,
      "میکروسکو": 9036,
      "سلجوقی": 9037,
      "تعلیق": 9038,
      "##النهر": 9039,
      "محفظ": 9040,
      "حریم": 9041,
      "رباط": 9042,
      "میزوری": 9043,
      "##سرو": 9044,
      "اسرار": 9045,
      "تنفس": 9046,
      "گزینه": 9047,
      "ad": 9048,
      "تناس": 9049,
      "اوگ": 9050,
      "شهادت": 9051,
      "فرایندی": 9052,
      "ماداگاسکار": 9053,
      "ايین": 9054,
      "سوسیالیست": 9055,
      "غلامرضا": 9056,
      "مصاحبهای": 9057,
      "خوارزم": 9058,
      "44": 9059,
      "هاست": 9060,
      "محمدتقی": 9061,
      "1374": 9062,
      "جراح": 9063,
      "تشکیلات": 9064,
      "طوای": 9065,
      "اسمانی": 9066,
      "پیشنهادی": 9067,
      "لژی": 9068,
      "پارت": 9069,
      "##یمه": 9070,
      "هفده": 9071,
      "##تز": 9072,
      "##نما": 9073,
      "ابوع": 9074,
      "##اطه": 9075,
      "اریز": 9076,
      "ماجراهای": 9077,
      "صم": 9078,
      "تابلو": 9079,
      "رونمایی": 9080,
      "یی": 9081,
      "##حمد": 9082,
      "سونگ": 9083,
      "##وبا": 9084,
      "1980": 9085,
      "تخیلی": 9086,
      "عازم": 9087,
      "راسل": 9088,
      "مهره": 9089,
      "دیکت": 9090,
      "عبارتاند": 9091,
      "بانکی": 9092,
      "##واک": 9093,
      "نفری": 9094,
      "دیرین": 9095,
      "پله": 9096,
      "بانوی": 9097,
      "شبانه": 9098,
      "##مرانی": 9099,
      "خراسانی": 9100,
      "غیررسمی": 9101,
      "دراینباره": 9102,
      "براورده": 9103,
      "ریشههای": 9104,
      "##تاباد": 9105,
      "تورنتو": 9106,
      "پرین": 9107,
      "بوستان": 9108,
      "صحت": 9109,
      "شست": 9110,
      "##امیزی": 9111,
      "شکوه": 9112,
      "ایمن": 9113,
      "شرکتکنندگان": 9114,
      "اشوری": 9115,
      "ضرورت": 9116,
      "الگوهای": 9117,
      "وادار": 9118,
      "##ob": 9119,
      "خانهای": 9120,
      "ایستگاههای": 9121,
      "##age": 9122,
      "##يیه": 9123,
      "بیخ": 9124,
      "##ویتسه": 9125,
      "##بوتر": 9126,
      "##رها": 9127,
      "##وندا": 9128,
      "مبارزات": 9129,
      "جاوا": 9130,
      "##فعال": 9131,
      "مولکولهای": 9132,
      "مقت": 9133,
      "##وکل": 9134,
      "حدس": 9135,
      "سانتا": 9136,
      "ap": 9137,
      "بدهی": 9138,
      "پدری": 9139,
      "دمک": 9140,
      "نقرهای": 9141,
      "سازمانها": 9142,
      "عشایر": 9143,
      "لایحه": 9144,
      "عاملی": 9145,
      "ممتاز": 9146,
      "حامیان": 9147,
      "سفال": 9148,
      "حاکی": 9149,
      "##رال": 9150,
      "زیرمجموعه": 9151,
      "وعده": 9152,
      "سپید": 9153,
      "میخواهند": 9154,
      "پورنو": 9155,
      "بالت": 9156,
      "##ولای": 9157,
      "سرای": 9158,
      "مردگان": 9159,
      "وحش": 9160,
      "قشر": 9161,
      "##نجانی": 9162,
      "پروس": 9163,
      "گوهر": 9164,
      "لنز": 9165,
      "بینایی": 9166,
      "##سیه": 9167,
      "گیرند": 9168,
      "بیانیهای": 9169,
      "مجروح": 9170,
      "تنا": 9171,
      "رایان": 9172,
      "درامده": 9173,
      "قوچ": 9174,
      "بههر": 9175,
      "طرفی": 9176,
      "معترضان": 9177,
      "##یتس": 9178,
      "##زیکو": 9179,
      "نوشیدنی": 9180,
      "فوتسال": 9181,
      "خویشا": 9182,
      "##te": 9183,
      "ایرلندی": 9184,
      "معارف": 9185,
      "##اینی": 9186,
      "مستعار": 9187,
      "انتقادی": 9188,
      "##che": 9189,
      "برنامهای": 9190,
      "##گذشت": 9191,
      "جهانگیر": 9192,
      "مرتفع": 9193,
      "اریزونا": 9194,
      "##اداری": 9195,
      "##اشند": 9196,
      "دهقان": 9197,
      "نمیشد": 9198,
      "غلط": 9199,
      "کربلا": 9200,
      "دوق": 9201,
      "اندازهی": 9202,
      "پاکسازی": 9203,
      "وحید": 9204,
      "هخامنشیان": 9205,
      "امیدوار": 9206,
      "شیمیدان": 9207,
      "اجاره": 9208,
      "ملحق": 9209,
      "محیطهای": 9210,
      "pp": 9211,
      "##01": 9212,
      "دیدنی": 9213,
      "##صرف": 9214,
      "مغلوب": 9215,
      "حسی": 9216,
      "هریک": 9217,
      "##ینک": 9218,
      "ظهر": 9219,
      "الر": 9220,
      "گذرگاه": 9221,
      "هوم": 9222,
      "ترانهای": 9223,
      "وقف": 9224,
      "سلولها": 9225,
      "قوام": 9226,
      "باربار": 9227,
      "##ition": 9228,
      "گفتهشده": 9229,
      "گه": 9230,
      "سلمان": 9231,
      "##بست": 9232,
      "ناسیون": 9233,
      "##خانو": 9234,
      "بیاب": 9235,
      "ناگهان": 9236,
      "انقراض": 9237,
      "گروگان": 9238,
      "شمارش": 9239,
      "طوری": 9240,
      "معده": 9241,
      "احیای": 9242,
      "بستری": 9243,
      "حلال": 9244,
      "راب": 9245,
      "ارجاع": 9246,
      "بانی": 9247,
      "فراه": 9248,
      "##شکر": 9249,
      "رنس": 9250,
      "گسل": 9251,
      "##iz": 9252,
      "استوارت": 9253,
      "اقد": 9254,
      "##ern": 9255,
      "برکنار": 9256,
      "##ence": 9257,
      "بولیوی": 9258,
      "##یشی": 9259,
      "میلر": 9260,
      "خانهها": 9261,
      "##انزاس": 9262,
      "بکر": 9263,
      "ترابری": 9264,
      "حدودا": 9265,
      "##هرا": 9266,
      "ممنوعیت": 9267,
      "جسی": 9268,
      "قرص": 9269,
      "نظامیان": 9270,
      "عذ": 9271,
      "نخواه": 9272,
      "##ادیان": 9273,
      "زیم": 9274,
      "##سالاری": 9275,
      "اکلاهما": 9276,
      "بوند": 9277,
      "بستن": 9278,
      "صفی": 9279,
      "قمر": 9280,
      "رومیان": 9281,
      "قید": 9282,
      "برعکس": 9283,
      "پیشرو": 9284,
      "##معارف": 9285,
      "##گوری": 9286,
      "##ادری": 9287,
      "خدمه": 9288,
      "دومی": 9289,
      "تجویز": 9290,
      "البومهای": 9291,
      "1375": 9292,
      "##ive": 9293,
      "میسیسی": 9294,
      "کفش": 9295,
      "##لیف": 9296,
      "col": 9297,
      "ایزو": 9298,
      "مشرق": 9299,
      "تراز": 9300,
      "یونگ": 9301,
      "ذوال": 9302,
      "رال": 9303,
      "##هایت": 9304,
      "نظرس": 9305,
      "روشها": 9306,
      "##ورم": 9307,
      "مربوطه": 9308,
      "##ue": 9309,
      "کوپ": 9310,
      "اسفندی": 9311,
      "گازهای": 9312,
      "میریزد": 9313,
      "##اپی": 9314,
      "حکمرانی": 9315,
      "زره": 9316,
      "گشته": 9317,
      "##ونو": 9318,
      "ویرجینیای": 9319,
      "بابی": 9320,
      "بازرسی": 9321,
      "ادرار": 9322,
      "میسیسیپی": 9323,
      "میسازند": 9324,
      "دپ": 9325,
      "راکت": 9326,
      "طولانیمدت": 9327,
      "پروژهی": 9328,
      "دهکده": 9329,
      "نوبت": 9330,
      "سیگار": 9331,
      "تورن": 9332,
      "##حلال": 9333,
      "سوزان": 9334,
      "احاطه": 9335,
      "بلاروس": 9336,
      "خیریه": 9337,
      "محافظهکار": 9338,
      "جونگ": 9339,
      "کبوتر": 9340,
      "نمونههایی": 9341,
      "ممتنع": 9342,
      "میکنید": 9343,
      "مسلم": 9344,
      "ظریف": 9345,
      "##يید": 9346,
      "بهرهگیری": 9347,
      "انهایی": 9348,
      "محدو": 9349,
      "1982": 9350,
      "بیاورد": 9351,
      "دوام": 9352,
      "فهرستی": 9353,
      "بچهها": 9354,
      "لیل": 9355,
      "##تبی": 9356,
      "معامل": 9357,
      "نظرسنجی": 9358,
      "لیلا": 9359,
      "عقد": 9360,
      "شایسته": 9361,
      "مزبور": 9362,
      "بههرحال": 9363,
      "تخته": 9364,
      "##زبورگ": 9365,
      "##امان": 9366,
      "کلن": 9367,
      "پوستی": 9368,
      "توقیف": 9369,
      "طوایف": 9370,
      "اسحاق": 9371,
      "اسباب": 9372,
      "یوهان": 9373,
      "بهط": 9374,
      "کارخانهی": 9375,
      "##شدهی": 9376,
      "گلوک": 9377,
      "الص": 9378,
      "جوشکاری": 9379,
      "نیکی": 9380,
      "واتر": 9381,
      "##ویژن": 9382,
      "جزیرهی": 9383,
      "زاک": 9384,
      "##وانند": 9385,
      "سختافزار": 9386,
      "لباسهای": 9387,
      "مشاغل": 9388,
      "##جنگ": 9389,
      "استری": 9390,
      "##end": 9391,
      "1976": 9392,
      "ستی": 9393,
      "ارکانزاس": 9394,
      "کله": 9395,
      "کرونا": 9396,
      "سس": 9397,
      "کنده": 9398,
      "##جند": 9399,
      "1370": 9400,
      "میاند": 9401,
      "##ژو": 9402,
      "دانههای": 9403,
      "بلخ": 9404,
      "میکش": 9405,
      "چهارمحال": 9406,
      "##ack": 9407,
      "خوشب": 9408,
      "سروش": 9409,
      "پیاپی": 9410,
      "مخفف": 9411,
      "ماکس": 9412,
      "1372": 9413,
      "ویسکانسین": 9414,
      "هیچکدام": 9415,
      "نین": 9416,
      "دوبل": 9417,
      "انهاست": 9418,
      "مرمت": 9419,
      "نامدار": 9420,
      "پسری": 9421,
      "بهنحوی": 9422,
      "تلسکوپ": 9423,
      "ماي": 9424,
      "دوپ": 9425,
      "##ایشی": 9426,
      "روزمره": 9427,
      "اسکان": 9428,
      "موب": 9429,
      "گفتهاند": 9430,
      "قدرتهای": 9431,
      "ویولن": 9432,
      "کودتا": 9433,
      "عضوی": 9434,
      "##مور": 9435,
      "مرحوم": 9436,
      "عضلات": 9437,
      "کلرادو": 9438,
      "گوسفند": 9439,
      "حامد": 9440,
      "##خون": 9441,
      "فراگیر": 9442,
      "معش": 9443,
      "لیز": 9444,
      "اسکیت": 9445,
      "احتیا": 9446,
      "فانتزی": 9447,
      "عامی": 9448,
      "##ارض": 9449,
      "پلنگ": 9450,
      "خزانه": 9451,
      "##ubl": 9452,
      "یخچال": 9453,
      "from": 9454,
      "ساختهی": 9455,
      "ناپليون": 9456,
      "خطای": 9457,
      "چارت": 9458,
      "##تیم": 9459,
      "##استفاده": 9460,
      "رماننویس": 9461,
      "سکس": 9462,
      "##یکن": 9463,
      "شنیدن": 9464,
      "سنند": 9465,
      "نزدیکترین": 9466,
      "ريیسجمهوری": 9467,
      "علوی": 9468,
      "رابطهای": 9469,
      "توهین": 9470,
      "فان": 9471,
      "یورک": 9472,
      "##شتین": 9473,
      "مهارتهای": 9474,
      "نقدی": 9475,
      "man": 9476,
      "گلن": 9477,
      "عبدالع": 9478,
      "بازنشستگی": 9479,
      "im": 9480,
      "همانجا": 9481,
      "عروسک": 9482,
      "پلا": 9483,
      "گورد": 9484,
      "راجر": 9485,
      "##خاذ": 9486,
      "فیسب": 9487,
      "قطعنامههای": 9488,
      "قابلم": 9489,
      "حاکمان": 9490,
      "شناگران": 9491,
      "زبال": 9492,
      "##وجهی": 9493,
      "پلتفرم": 9494,
      "فاجعه": 9495,
      "مستم": 9496,
      "سیاستمداران": 9497,
      "##دال": 9498,
      "اتخاذ": 9499,
      "راهپیم": 9500,
      "##فلی": 9501,
      "مناز": 9502,
      "##زدایی": 9503,
      "##فیع": 9504,
      "بهسادگی": 9505,
      "##وتخت": 9506,
      "تکواند": 9507,
      "1979": 9508,
      "پیراهن": 9509,
      "or": 9510,
      "همدیگر": 9511,
      "باغهای": 9512,
      "هوانوردی": 9513,
      "هارد": 9514,
      "تاریخنگار": 9515,
      "تاجوتخت": 9516,
      "##وشن": 9517,
      "مربیگری": 9518,
      "سیلی": 9519,
      "زیان": 9520,
      "##اضع": 9521,
      "جاند": 9522,
      "##قین": 9523,
      "##ورث": 9524,
      "بیسیم": 9525,
      "تشریح": 9526,
      "مولوی": 9527,
      "مییابند": 9528,
      "مریخ": 9529,
      "##ight": 9530,
      "خیابانهای": 9531,
      "همیل": 9532,
      "##وریس": 9533,
      "بیچ": 9534,
      "بهتازگی": 9535,
      "مادهای": 9536,
      "تفر": 9537,
      "سیار": 9538,
      "بزرگداشت": 9539,
      "مزمن": 9540,
      "کنستانتین": 9541,
      "##اریخ": 9542,
      "##دد": 9543,
      "اعتی": 9544,
      "##غیب": 9545,
      "کامرون": 9546,
      "بیات": 9547,
      "##فیف": 9548,
      "اسپین": 9549,
      "##کون": 9550,
      "عبدالحسین": 9551,
      "اولیهی": 9552,
      "بهاء": 9553,
      "میبخش": 9554,
      "نجوم": 9555,
      "موسسهی": 9556,
      "هجده": 9557,
      "بیدار": 9558,
      "قریب": 9559,
      "کشاورز": 9560,
      "گوست": 9561,
      "نوتر": 9562,
      "اروگويه": 9563,
      "داماد": 9564,
      "خودروسازی": 9565,
      "اتلتیکو": 9566,
      "هفتصد": 9567,
      "##ev": 9568,
      "حجاب": 9569,
      "شهرام": 9570,
      "عمدهای": 9571,
      "امادهسازی": 9572,
      "اسلواکی": 9573,
      "لیبرال": 9574,
      "کارها": 9575,
      "ادمی": 9576,
      "##مام": 9577,
[...]
