[PAD]
[UNK]
[CLS]
[SEP]
[MASK]
!
"
#
$
%
&
'
(
)
*
+
,
-
.
/
0
1
2
3
4
5
6
7
8
9
:
;
<
=
>
?
@
[
]
_
a
b
c
d
e
f
g
h
i
j
k
l
m
n
o
p
q
r
s
t
u
v
w
x
y
z
{
|
}
«
»
¼
½
¾
×
،
؛
؟
ء
ا
ب
ة
ت
ث
ج
ح
خ
د
ذ
ر
ز
س
ش
ص
ض
ط
ظ
ع
غ
ف
ق
ل
م
ن
ه
و
ي
٫
پ
چ
ژ
ک
گ
ی
…
⅛
##ل
##ا
##ی
##ه
##ق
##س
##ت
##م
##پ
##ن
##و
##ج
##ر
##ف
##ب
##ک
##ش
##e
##c
##a
##n
##خ
##ع
##ز
##گ
##د
##w
##l
##y
##i
##p
##s
##v
##m
##t
##ط
##ح
##0
##2
##3
##o
##r
##k
##غ
##9
##5
##7
##g
##d
##ژ
##چ
##ي
##ذ
##ء
##h
##ظ
##ض
##b
##f
##ث
##u
##1
##ص
##ة
##z
##8
##6
##x
##4
##j
##q
##×
##¼
##½
##¾
##ان
##ای
##ست
##ار
در
##ین
##ده
##ال
به
##ند
##ور
از
##ود
می
##ام
##های
با
است
##یر
که
بر
##اد
ان
##اه
##لی
##ری
##رد
##ون
##ات
این
را
##سی
##اب
##وی
##از
یک
##شت
##هر
##ها
##انی
##یت
##ول
##است
ام
##اری
##وان
##یل
##فت
##تر
##زی
##وم
سال
##یم
هم
##ید
##اس
##رو
##دهاست
##هی
شد
فر
بود
رو
##اده
##خت
##گاه
او
##مان
##ستان
##ارد
##نگ
##ایی
من
برای
ال
##رک
شهر
کرد
##را
تو
##گر
##یک
##وت
میش
##کن
اس
تا
##بی
مو
##اق
مح
ای
ایر
##یا
یا
##فر
شدهاست
##بر
خود
نی
سر
مس
##لا
##تی
مع
##یش
##اند
ار
کار
دا
دارد
جم
##ادی
دی
##اش
ایران
قر
##نی
میشود
دو
##وری
##ههای
نم
کر
بازی
باش
وی
##قی
##اخت
##می
##گی
##له
##نده
##ورد
مد
مر
گر
کش
##بال
مت
نو
بی
میک
##اقع
مج
##اره
واقع
##انه
##اک
سی
##وز
نام
##ریک
اب
##ساز
##الی
##مت
##نام
دست
اه
##مین
##شک
##دی
فیل
##خش
کن
داشت
##هرست
##ونی
شده
فهرست
##نوان
##اع
نق
بو
فوت
قرار
##توان
##دا
دان
##زار
ده
فوتبال
##وس
نیز
##نا
##وب
##عیت
امریک
دار
بهع
مق
##الات
اش
فیلم
##عه
توس
##فی
میتوان
نفر
##اح
روست
##در
##گیر
انت
دور
بخش
بهعنوان
هر
عم
##نین
##رب
##امی
##اپ
##که
##وش
همچ
ات
میکند
##گان
##عد
استف
##شم
بین
نظ
انها
##وه
##طق
استفاده
اد
ساخت
پر
شم
اص
##وند
جمعیت
اف
اث
کم
##ایش
##زر
##بار
##فته
جه
یکی
##بان
داد
##اف
مش
کشور
##جه
##مد
##ورت
توسط
تر
پای
اع
پیش
تح
اج
##به
امریکا
##بت
باشگاه
پساز
نش
شهرستان
مرک
##جود
انج
##عی
تاری
##ترین
##هایی
هست
زیر
میب
ملی
اول
اهل
دیگر
جن
استان
##رکت
##وک
##يی
شهرهای
##تاب
خان
تاریخ
عل
##انس
##من
##شته
##اص
دانش
میل
مه
انگ
پی
##وار
همچنین
19
روی
##امل
مرد
منطق
##رف
##اید
اما
##گرد
##مانی
شک
##خص
13
##نج
کل
زاده
##گذ
باز
ساز
##حده
ایالات
بزر
##هنگ
##کی
بد
##اط
##متحده
ایالاتمتحده
کتاب
بسی
اق
##مل
میباش
##ایت
##شی
روز
اک
مورد
تن
##ارک
شر
کو
##مو
شرکت
نقش
##وا
##ینی
##واه
20
##نامه
##لس
ارت
اح
چه
##این
##سر
تیم
هن
بل
زی
##یه
بودهاست
اشاره
هستند
گرو
##زه
باشد
سپ
وجود
میباشد
میلادی
زبان
جنگ
اند
##انند
بزرگ
##دار
تص
##مه
##شن
##رات
فرهنگ
##ره
گرفت
ترک
رس
##زد
##لو
##الت
نس
##اهی
سو
##کار
بن
تم
دریا
میکن
منت
انگلی
میده
روستا
زند
کند
##ابق
گرد
##بد
سه
چند
##تم
##رس
بیشت
زمان
##خی
سط
زمین
##رز
دانشگاه
##ویس
کردهاست
فع
بال
##لام
##قل
جای
##ابر
##ارت
زادهی
##طور
##اتی
مجمو
هی
مک
کرده
ری
حس
##گری
مص
##ربی
متر
دوم
##دید
کیل
مط
انگلیسی
##شر
##ونه
##حی
##ادر
##لید
اغ
نخ
##رم
##اخ
لی
##ندی
##گیری
##شتی
اط
اخ
شن
انجام
تق
مرب
بار
##ابل
تج
##چه
علی
##ومی
شود
تل
سطح
##سته
شه
بیشتر
فعال
داده
بعد
##جی
میکنند
مرکز
##دن
حد
##لیل
##کر
سن
راه
دول
فرانس
طول
##نه
##فه
##شده
##ابع
نیر
##ودی
##وط
گل
شور
بازیکن
سازمان
##هران
شاه
محمد
زن
##هم
##هاست
جام
##اي
اثار
کیلوم
##برد
##انیا
##ستر
چهار
##اور
مانند
فرود
##صورت
دارای
قب
##دهای
فار
تهران
پرو
خط
گروه
##شار
شی
تع
سل
##با
##ستم
داشته
مل
مسک
##خاب
##یمی
##سان
تولید
گذ
##غی
مید
میان
بودند
##ضی
##او
بهطور
##حال
دهستان
شب
##امبر
##عات
دوره
غیر
##ازی
میدهد
حم
ماه
مست
##ینگ
##بری
##یکی
##ولی
##ایل
##فا
##سید
هو
##ختل
اسپ
نخست
میشوند
##ایر
مث
اولین
قط
اصلی
اثر
##وبی
معم
##وق
المان
انتخاب
##ژه
##ضا
اور
نشان
بسیار
برگ
##کت
##رین
مسکونی
مردم
بهصورت
##er
خواه
جان
##گو
##شماری
##المل
جهان
##راه
##ناسی
اگر
شامل
##ضو
##قیق
فرودگاه
میکرد
##ما
کوچ
##شان
موسی
##کان
مرکزی
##يیس
##کس
ایت
بیم
منطقه
کردن
##سازی
##انت
نظر
منتشر
##اج
بع
دارند
جز
##عت
زندگی
ایج
##ازه
حک
سرشماری
##ندگان
مخ
کیلومتر
برخی
فعالیت
##ویی
بینالمل
منطقهی
یافت
رفت
اسل
کردند
##یکه
ایجاد
##الیا
##کتر
##لق
صن
##هوری
سب
##صد
##غییر
قل
##شد
تغییر
ساخته
اغاز
##ریق
مختل
##دم
دولت
فی
کلی
جمهوری
مم
وا
مسابق
##مای
پیر
##کو
بهنام
باید
##ابی
##یره
گفت
##ستی
ایرانی
بینالمللی
##صل
برابر
##شناسی
200
شکل
خار
شدن
دل
سری
نه
##دهی
نزد
سین
بریت
کارگرد
فرانسه
شخص
##سیس
##جر
##ژی
جو
مار
ولی
پنج
ممکن
ارو
اسلامی
افز
مین
جهانی
روستایی
##پی
##نت
شدند
تشک
حق
##ایج
##in
##یشه
بهد
کان
اطلا
خوان
بسیاری
##an
نیست
سیستم
##یده
جدید
##اساس
هنر
نمایش
ما
##on
بالات
اینکه
##سب
میشد
##جمه
##اخته
##یری
##سه
##اعی
نمای
##احت
حوز
تنها
میتواند
##ولا
میر
جمله
تشکیل
##وهای
ترکی
بوده
روش
اذ
##صی
##امه
گرفته
نویس
کام
##داری
##ران
بیش
وق
##اسی
امار
201
##راي
تعد
قدر
مدیر
مساحت
موسیقی
کی
سنگ
##ریان
##وید
ريیس
##فق
##ومت
حدود
افر
فل
سیارک
اقت
##ورش
میلی
سف
اسی
همان
حض
خی
##ندهی
##بط
##داشت
##ویزی
نمود
هند
##ونت
هنگ
##گذاری
##انک
دن
پرد
تلویزی
##ضای
##رسی
##سم
مربوط
ست
نخستین
میز
طب
##بود
تک
سوم
بازیگر
##خانه
##شاه
##وست
برنامه
سیا
فرو
ورز
##صر
خانوار
تحت
##لاح
ور
مجموع
قهر
##ینه
دید
اجر
##پا
دوران
پار
رود
کنند
مجموعه
فرد
صف
##گز
مختلف
اساس
اخت
فرمان
توان
خانو
بالاتر
یون
##ویه
هزار
##اباد
قان
##بور
##تو
##ایع
کشتی
نسبت
میگیر
پاد
همه
##لب
اموز
صورت
کوچک
##الد
##دام
شیر
داست
##نو
توابع
##اگ
عمل
نوع
##راف
پایان
ژاپ
داخ
تاسیس
##وف
پل
##یدی
##ستانی
##وي
نگ
بریتانیا
##یدا
##پر
حوزه
##عث
وز
افت
حضور
##یتی
مهم
براساس
##اشی
بیشاز
الب
پدر
باعث
هد
قد
##رح
##ذیر
##فاع
طرا
رسید
هیچ
بهدلیل
فرهنگی
##اض
##کل
شهری
اقتص
بهترین
رای
سپس
ابت
تمام
جایزه
حال
ول
فق
##رخ
سیاسی
نور
شناخته
شع
روسی
##جم
کشف
مجلس
جنوب
ثبت
##or
امریکایی
شمال
##سل
قابل
وب
هنگام
انتشار
وارد
##کنون
خانواده
ایتالیا
##چی
##ندان
کمک
##واست
ژان
ارد
افزایش
##نان
یاد
##امد
##ویت
طی
##ابت
##بانی
لغ
عنوان
کوه
##دها
##سیم
##ar
##سن
##سال
##تا
اعلام
مسابقات
دری
##he
توجه
سالهای
دربار
ره
فارسی
##باط
رنگ
هفت
جنوبی
پیشاز
مرگ
داستان
##لند
##اتین
گی
گستر
زنان
موارد
زیادی
مغ
موس
##صول
گفته
بدون
دخ
حز
الم
##دان
لو
##خان
اطلاعات
کود
اجتم
ناح
یع
##اران
##es
دریافت
زمانی
مرا
چاپ
مربع
کا
نتی
##کننده
سید
غربی
طبق
کری
##مر
قبل
طبی
تعداد
درحال
##سون
قس
##ولد
##en
محل
خر
طریق
##طی
الی
##یند
انسان
شیمی
##روف
##مز
عربی
نوشت
##بدیل
درگذ
##واره
تبدیل
انتق
موفق
عمومی
##زشک
له
نیاز
فصل
سلط
ادامه
خاص
کاه
بهکار
مواد
علوم
قرن
بههم
کد
دیگری
صد
افراد
محصول
کارگردانی
معمولا
پسر
رسمی
##بل
##کرد
##ثیر
بنی
شرقی
سیاست
شرو
مسي
##لاف
##کاری
لاتین
##ریف
مشت
شورای
خواهد
گو
موجود
##شهای
##تن
رق
قسمت
تلویزیونی
تاب
ارتباط
138
##باس
قانون
عضو
بالا
شمار
مدال
##al
سمت
سوی
##صیل
امپ
##غان
چون
یعنی
جشن
حزب
باشگاههایی
اجتماعی
##فاوت
نظامی
ژاپن
##تری
نیم
اتح
امرو
روستای
##وده
##وریه
مذ
چی
نیروهای
مطال
ازاد
ایالت
صح
محد
فرز
##ثر
جریان
##وسی
شروع
همراه
انقل
کوت
عبد
نسخ
##ایه
معین
199
##شکل
##ولو
گزار
اذرب
ترکیب
حکومت
خورش
جهت
پیدا
جل
برخ
اهنگ
اذربایج
تاریخی
روسیه
خانه
##ارستان
اروپا
میگیرد
شدهاند
میخ
تهی
کاهش
##at
اسک
عبار
انجا
ند
خد
چشم
دربارهی
##میت
ابر
سام
دستی
اراي
منا
##اسب
##is
تور
قدرت
البوم
طراحی
اورد
علمی
تاثیر
امن
لغت
تب
مشخص
پزشک
مرت
های
##ic
نتیجه
معر
شکست
##ریه
تخ
ناحیه
##اعت
دختر
##سک
تف
##الله
##بیر
##نش
##اله
##مع
پلی
گون
شمالی
##سا
##زیک
کنتر
بیر
پاس
ارايه
نزدیک
##سانی
عملی
##نظ
کنار
پژ
تش
##نای
توسعه
همین
مدت
نیروی
ارز
برگزار
ازم
حتی
##بندی
ارتش
##نز
چین
استر
میدان
دم
سابق
طرف
##وزی
the
بیماری
نوشته
مشه
گردش
مسل
اسلام
##دری
تهیه
برد
##ندگی
حقوق
##دهم
##لیه
محم
##تل
میلیون
ویر
##وپ
##قر
جوان
##طه
##زمین
کال
##افظ
##it
موضو
عبارت
نف
امپرات
##حه
گردید
139
امد
قبلاز
##واج
ادبی
مناطق
میگ
##اسان
مدل
صنایع
##وال
##اکی
اکت
##نامههای
##اتر
##گردد
##میم
##قیم
اذربایجان
کنترل
حمله
##اطر
بررسی
تی
##ایند
بههمراه
عر
ها
حالت
##سین
لیگ
##جا
پایه
احمد
مهند
##انگ
مدرس
##تون
##کا
اموزش
دستگاه
##باره
##جو
کسب
##سیون
پرداخت
مال
دقیق
همچون
شبکه
افغان
هدف
##وص
هشت
احتم
ماده
مالی
انقلاب
##امین
ویژ
موت
##رید
برج
##لهی
##وین
حسین
انگل
سایر
##گونه
##اسم
علا
میرس
مای
تای
بودن
دنیا
گونه
تحقیق
پوش
جامعه
پژوه
نویسنده
##اپیم
تقسیم
لهستان
##لم
نسبتبه
مادر
کامل
چنین
محی
تلا
کمی
##ندر
##بین
دهه
عرا
گزارش
میرا
الکتر
درصد
پس
##ed
مول
تحصیل
رسی
##ادا
طبیعی
قم
ارتفاع
غرب
##انهای
اسپانیا
##ویش
داشتهاست
حرکت
مقام
تصو
بح
وزار
##پرد
بخشی
موج
سخ
فقط
##وله
ازد
##زاده
بازار
میرود
##حد
معروف
##تق
یه
وزارت
##ارهای
مان
مور
##تیب
غذ
سا
##سو
یو
فلس
سرد
##الب
خارج
عد
خبر
ندارد
په
##ابه
##وع
موق
کشورهای
##رژی
امکان
درجه
##لاق
اجرا
میراث
باشند
درگذشت
بهخ
انگلستان
##ادل
کرمان
رابط
بیان
میدهند
سیاه
چندین
اپ
خاک
حرف
حمل
گرم
خص
مرح
بنا
مثال
##ورک
##ويی
رشته
منابع
مهر
مشکل
بنابر
##الدین
شخصیت
طرح
پن
زمینه
هواپیم
##گن
برادر
دکتر
##گران
تي
نرم
بهمن
واح
ساعت
اسم
انرژی
حی
شرای
##فظ
سیم
سبک
کاربرد
بازیهای
مقابل
داشتند
جد
ساختمان
نگه
بازگ
سپت
##قب
شیمیایی
هج
دستور
##يت
مدیریت
سفر
##عا
تیر
بخ
مارس
استاد
افغانستان
اشک
ازدواج
دام
ایل
##باز
##علی
اعضای
گردشگری
معرفی
اقتصادی
ابتدا
سپتامبر
جی
ابی
دهد
##ویان
##رافی
##ابد
##اضر
قهرمانی
##داد
##ژن
ویکی
پاک
##اشت
انان
احتمال
انجمن
روم
شرق
همکاری
هز
دین
##خته
اشت
نب
کردهاند
شددر
##ازم
نا
مها
عراق
حسن
اوت
میکردند
ارم
وبگاه
##گانی
مب
اکتبر
کشته
مف
قهرمان
فروش
##نر
سک
امام
اصفه
مثل
##پیک
##لت
ازمایش
اخرین
فرانسوی
موضوع
شش
کور
زیرا
##انو
##انا
هنری
پایین
ترجمه
پذیر
المانی
محیط
پزشکی
شوروی
ایست
برنامههای
داخلی
میزان
##وانی
وسی
شوند
##نس
محلی
فاص
198
##یار
##وين
##us
خوش
درحالیکه
اقدام
وس
##وریت
##اوی
تصمیم
مام
##گذار
##گار
##ههایی
مخال
وض
برخورد
مسی
##انیایی
##غول
اتش
جلو
دس
جدا
وزیر
##نگی
کوتاه
سرزمین
موتور
استخ
حمایت
فرزند
تقری
##اسا
اغلب
##مایی
مسیر
ترکیه
##لیت
خودرو
شعر
محدود
سع
##جد
تصویر
18
##ابان
رشد
##واع
خون
##وران
پخش
مشغول
کاربر
##مند
عه
اض
همسر
کشاور
نیک
عرب
امیر
علیه
137
اندازه
##جای
قلعه
شمارهی
امور
##امت
بااین
فض
داخل
شرایط
متن
کات
بزرگترین
##ناوری
بدن
اوریل
ظاه
پادشاه
ویژگی
انتخابات
##په
متفاوت
of
نفت
درخت
##گون
##اورد
پیشر
ریاست
خدم
دادن
رخ
##شق
سنت
عملیات
خدا
##بات
سخت
ژانویه
نج
##شکده
جشنواره
##اها
جنب
نوامبر
مهندسی
معنی
کسی
بنابراین
میاید
##وتی
انتقال
میرسد
##فاق
##اتا
گیر
ورزش
کارگردان
ماد
ژوين
دسامبر
کشت
##ریب
وال
اولیه
میرز
بازگشت
سفید
مقدار
##ظور
تلاش
اجرای
بانک
بلند
هوا
##زن
باغ
اینتر
ازادی
پشت
دیده
an
فارس
##ونگ
نسخه
تعریف
امنیت
##همین
##برداری
خارجی
باستان
##جهی
##برت
گذشته
ژويی
مصرف
روح
مدرسه
##انیان
برندهی
زمانیکه
##مال
##ارا
المپیک
##شاهی
کشوری
علاوه
فناوری
روان
##یدن
اتحادی
##اصر
##یتر
فشار
##ایان
##ریم
##ربه
##اصل
عو
دومین
شو
##پیشه
سرعت
شاع
نهای
هوایی
سریال
##سوب
شماره
ایم
##يین
##ia
میگردد
بهره
درون
برز
مذه
ارمن
هیيت
میتوانند
علاوهبر
چهارم
عبدال
##عیین
سق
دلیل
گیل
متولد
پارک
##غال
##لین
##بیه
ریا
عرض
##ریش
اسف
##نظر
قطع
سرمای
کانادا
##رن
تعیین
##ثب
کمتر
گیاه
اصفهان
نبرد
##افه
استاند
##گاهی
رمان
فیلمی
##بع
##ویل
##ol
##el
فرم
باند
مبار
##کم
ماهی
مسجد
انواع
##اهم
##ion
##هام
نوعی
##انج
بهخاطر
##پرداز
##اخر
سور
مشترک
اقتصاد
مقد
چرا
ارام
مصر
##ظیم
برنده
##پذیر
مشهور
شناس
##رت
ريیسجمه
##00
##انده
درمان
درامد
پول
وقت
خو
توانست
ژويیه
سالگی
اتفاق
عالی
خدمات
خواست
##کش
ادبیات
##دیگر
امپراتوری
تس
فوریه
بست
دسته
فرایند
گسترش
منجر
##خصوص
کره
میگوید
صفحه
بهتر
بور
سینما
##عتی
واکن
بیست
سرخ
دریایی
##لز
تقریبا
##بن
ضد
##انز
انتشارات
ماش
##اهای
##ur
هنوز
##لیم
##افزار
مهمترین
خورشیدی
##گرفت
حو
کنید
##دههای
خلی
نص
دانشکده
##میر
##فتر
دوست
جغ
##ايل
باب
رشت
هنرپیشه
افریق
مرحله
رض
بعضی
نبود
نمیت
جنسی
##افر
ایک
کشاورزی
##نویس
فرا
in
استرالیا
هنرم
##ونا
##اسر
پروت
##داران
رادی
رهبر
کاری
##گاههای
منص
واحد
##شهر
برتر
197
زیاد
میرزا
گری
##مرب
حذ
##واهد
بههمین
##وشی
دوباره
حاک
وقتی
##il
خراسان
تکن
بس
اتحادیه
سرمایه
##نوی
گاز
انکه
فرودگاهی
بهجای
ویکیپ
ویل
خیابان
مشاه
اداره
طلا
ماند
##احب
##هها
جزیره
##زاری
مقا
##الیایی
مکانی
خرد
##زمان
##گل
متع
##ايو
ساختار
تاج
خواننده
##ابط
مهاجر
خل
نت
توصی
ساکن
##گانه
یهودی
تاکنون
##سیده
رت
درام
##مربع
نمونه
رک
##بو
##بته
هنگامیکه
ارمنستان
سپاه
بسته
دولتی
نظام
ارمنی
پیشنه
پاسخ
کلم
البته
حر
برزیل
راست
شاخ
لح
ريیسجمهور
##جان
##یس
وضعیت
##ینا
پیوست
علم
اصط
مارک
##ویژه
مرز
معماری
##ماند
مستقیم
##لهای
##سای
ترانه
سلول
مز
سرده
مسلمان
ترا
فیلمهای
شهرد
##as
##شناس
داری
نیوی
پادشاهی
بگیر
قتل
میلاد
اضافه
روستاهای
دنی
##گین
محسوب
ساده
شا
##برگ
دبیر
##اهیم
##پور
الکترون
##افق
نیمه
حفظ
شرح
اطراف
دفتر
دادند
سوي
نداشت
##لر
مراسم
نمیش
رابطه
امر
هجری
یکدیگر
لازم
رقابت
شخصی
دلار
فاصله
نظریه
بلکه
خدمت
حل
نمیتوان
استقل
روشن
##فن
شما
مسابقه
عامل
مناسب
استقلال
##ro
روابط
##يو
##ریت
اعتر
الگ
چیزی
##وصی
##ترسیده
حافظ
سبز
شیخ
##یدان
نیویورک
##ولوژی
کیلومترمربع
موجب
بهثب
بهثبترسیده
##زا
##نتی
خودش
ته
چار
قدیم
ویژه
مکان
خرو
##اون
اواخر
اساسی
عدم
فت
##لح
سان
فعالیتهای
اختص
##افت
اعد
بااینحال
بهویژه
##پس
قاب
جا
فضای
اجازه
##ظم
لند
پشتی
چک
گرفتن
نامهای
##ظه
توم
رهبری
الف
عض
گن
نهایت
موقعیت
ماشین
نامیده
اصلاح
##رايیل
نمی
زبانهای
عمر
صدا
جع
فیلمها
تجاری
پژوهش
پرت
کیلومتری
##قان
حاصل
پیروزی
کاملا
پیچ
توصیف
قز
##et
ابن
دفاع
##وای
بیت
رد
پیک
مبت
فن
سیاستمد
کلا
##راج
موسسه
ساله
نمایندگان
اصل
جر
قرارد
##نیا
سایت
##نامهی
نماینده
##انههای
عشق
پا
فرست
10
مستقل
علاق
196
خصوصی
پدرش
فراهم
مدار
جذ
##سپ
نزدیکی
سم
ناسا
##دهاند
##دین
بیشتری
پهل
تامین
مطلق
اسیا
##فس
پیشنهاد
عن
##لیک
امروزه
##شمار
ویلی
کودکان
زنده
##حل
سوریه
ایتالیایی
انسانی
درو
قمری
تاک
##حاضر
هل
خورد
تبری
##ریزی
گاهی
گذر
##فع
واب
درحالحاضر
اختیار
اطلاع
ثابت
جایگز
تياتر
میباشند
تال
##خواست
##چار
زیست
بدست
ابزار
بهدن
##راک
گروهی
تحقیقات
رز
طبقه
اسرايیل
صنعت
اوایل
مردان
ناب
کالی
ورود
##تهای
##جز
نقطه
زندان
نرمافزار
##بک
دورهی
مجد
خلق
اتحاد
گرفتهاست
##دیای
ماز
خورشید
##وگ
تمامی
عهده
##شین
##ژیک
عص
مخالف
صنعتی
شاعر
میداد
تشخی
قاج
میی
خشک
اچ
واکنش
ماری
##ادهای
اولینبار
تپه
عدد
شبیه
پاری
پرواز
احس
عملکرد
نقاشی
بنیان
##re
اروپ
هار
بعدی
زم
##am
لندن
##خواه
اباد
انچه
##زات
##وج
بعدها
رضا
نشر
رودخانه
ذکر
##سد
12
##اما
بهمع
فول
متحد
طل
فری
اسیب
بیرون
وزن
ویکیپدیای
حساب
سنتی
سیر
تری
قدیمی
روزنامه
گذاشت
##ژاد
بتوان
پروژه
باور
جوای
جلوگیری
یافته
همزمان
سرباز
and
عباس
خور
بالای
یاتا
تد
##فای
گوش
دانشج
##ویب
تایید
مدتی
پال
هلند
ذخ
عث
پیم
##انجام
##وو
قوان
ریاضی
نمیک
جغرافی
مقاومت
##شا
##طان
##اتور
جرم
مون
اجرام
##عهی
وظ
مفه
جیم
اهدا
تلویزیون
ملل
باد
کنگ
محله
رساند
کمپ
سرانجام
سانت
##ch
سلطان
##ته
تیمهای
نامگذاری
روشهای
وین
عصر
بم
گور
##le
درست
وید
صاد
واقعی
محمود
واژه
تنظیم
تصویب
##ing
قیم
سود
جایی
پیام
موزه
معتق
##ولین
سرو
شهرداری
##انش
##وچ
بهدنبال
لای
بهمعنای
پاپ
اصطلاح
##رکز
مطرح
لب
##رخه
تشخیص
##ستگی
پلیس
##غذ
توزی
کمیت
طولانی
باقی
اتاق
سیاستمدار
##ورا
دنبال
ولایت
افتخ
مهدی
امدهاست
پایگاه
وح
##وذ
لشک
روب
شبک
لین
مسيله
مجله
ستاره
##اکس
##شیر
اکنون
میگو
##ونده
دادگان
موفقیت
گشت
مذهبی
##ادن
دموک
ویت
رفتار
##قیان
##ختی
ساس
پاکستان
بزرگی
سیل
هفته
گوناگ
نهایی
جست
مشابه
نیرو
##طر
توپ
##زاد
گمین
اسپانیایی
ویلیام
زنج
متو
سراسر
توزیع
محصولات
##ایق
ابتد
الکت
حرفهای
اهمیت
حلق
کیف
##فل
##om
هید
احساس
تفاوت
عق
##شه
زیب
##تب
##وتر
مطالعه
معتقد
بهمنظور
ساختهشده
ورزشی
##تور
بومی
##عم
خیلی
توانایی
متری
ساح
##الهای
هوش
نامزد
سای
قوانین
ظرف
واژ
##نهای
بافت
دشم
##اقل
##id
ارشد
متوس
قلم
##اندازی
امتی
135
جنبش
کلاس
دیوار
فیزیک
دسترسی
زد
بهنظر
##سکی
استاندارد
##گرفته
فوق
نقره
مشاهده
خوب
##ویز
جمع
کریست
پهلوی
اگرچه
اختصاص
منبع
##ارش
##بینی
درخواست
تیره
تابع
##غیر
پوشش
جاده
ارزش
پشتیبانی
پاریس
##عود
نار
اخیر
گروههای
##ارات
بهشمار
اختلاف
همیشه
مرتبط
قالب
بیمارستان
متعد
مطالعات
دانشم
اعمال
##الم
دقیقه
صاحب
عبور
ناشی
گسترده
##اشته
برق
کارهای
##ولیت
صرف
##الع
میگویند
لباس
کوم
lin
تعدادی
ناش
گاه
136
وار
منتقل
امروز
شنا
ارک
##ادث
##گا
##روز
رتبه
هما
بنیاد
رم
عبارتند
اری
195
دارو
اتم
محب
رده
##زل
استی
اسب
بدین
بحث
پست
بخشهای
##کوم
سریع
194
اینده
##اوری
میگذ
مشکلات
قاجار
ظاهر
اعتراض
##ادگی
مییابد
نظری
بازر
##شید
ورودی
شدید
فد
##سیر
فرمانده
##اظ
ابراهیم
بشر
هدایت
محافظ
مقای
##اشق
نسل
جلد
حکم
##ینز
فلسفه
##ut
##بورگ
خام
مری
خاند
میپرداز
##مینی
پیوند
سخن
تبریز
11
کالیفر
بند
##گرایی
میگیرند
پایت
پیاده
شناسایی
منتق
مختلفی
ویژگیهای
دیوان
فرار
##قیه
الکتریک
##ارف
ایستگاه
ذه
دریای
کاپ
##کشی
کننده
پنجم
15
پور
خوز
دادگاه
حذف
مدرن
جایگزین
##ویم
قابلیت
اخر
داشتن
فیلمنامه
پیشرفت
عنا
##ناد
عکس
وسیله
دع
رسیدن
##گرم
ایز
شهرت
پیشین
##هاش
برنز
##قه
##op
link
##انیه
##راسیون
##بیل
قران
یکم
برجسته
نات
تغییرات
دچار
عرو
اموزشی
خویش
##ظت
عرضه
نگهداری
اوکر
نقاط
نر
سرک
یونانی
سلام
##نویسی
نفوذ
##وارد
##یکا
معت
درگذشته
امی
##یشن
سیستمهای
نمون
گمینا
انتظ
صرب
##ra
کف
14
جور
اید
فیلی
ورزشک
سد
پایتخت
کامپی
ناپ
چهر
قی
##مون
بان
نگاه
خلیج
لوک
##سیل
##ازده
همچنان
جدول
مقدس
بهعلت
عثمانی
حداقل
##اتیک
کالیفرنیا
ذخیره
##ri
شهرک
ورزشگاه
ماج
مفهوم
سند
##وما
برگزی
17
##راح
##ستون
اکثر
ترتیب
گراف
میکنیم
قبیل
متعلق
روحانی
اتریش
صلح
کتابهای
##انگی
شناخت
صدای
تدری
خاصی
##رده
حاکم
زرد
##قرار
پرداز
احتمالا
هزینه
##اهنگ
شداو
مهاجرت
مسکن
##os
بهبود
توضی
محبوب
سويد
ضر
ضرب
##زهی
##انتین
رون
میبرد
تخص
مقاله
##قا
##سکو
##نجی
##زیست
اعت
رح
سوسی
ارژ
طراح
مبارزه
دود
اینگونه
##ویا
کسانی
دیر
شیراز
میانه
هماکنون
سومین
رایج
اخلاق
تام
خلا
وابسته
مقایسه
پو
سازی
امتیاز
سده
جیمز
کافی
##سف
چپ
بیل
حج
##اندر
##سیک
دوچ
جایگاه
قطعه
بری
نادر
فیزی
روایت
سینمایی
دیوید
عقب
##فرو
نوری
قیمت
کارشناسی
تبلی
مسيول
##ظر
تجارت
##غل
##يون
بازیگران
خاندان
فرمول
جغرافیایی
کودک
تازه
##دل
رمز
ابوال
اروپایی
پوست
##ندهای
##پل
قا
ریشه
کتابخانه
قادر
فرماندهی
علیر
کنیم
مایکل
##ینو
جذب
##زم
همهی
دادهاست
اصول
فنی
##صه
نشد
خس
##ویچ
دراین
الگوریت
پری
قابلتو
کاربردی
اماده
مارت
ملک
متصل
ایشان
##حسین
معادل
نواز
سیستان
سبب
##زیه
مالک
نمیشود
دانست
کرمانشاه
مقدم
##ent
جامع
اسکار
همانند
کلیسای
##um
مشارک
ژاپنی
قرمز
دمای
دهند
فتح
لا
##وسف
##جمهوری
مسیحی
برده
اژ
مات
یونان
فردی
مستند
ارا
عبدالله
ریچ
توضیح
پرا
16
گیت
مسايل
نویسندگان
بهار
##کتری
گیلان
##ادو
الکتریکی
داي
بزرگتر
الکس
برخوردار
193
تبلیغ
قانونی
سلی
اقیان
دای
اختل
صربستان
بیشترین
##شنبه
تحصیلات
فکر
باستانی
معاصر
##کنندگان
قصد
بای
شار
اندازهگیری
عوامل
تجربه
درگیری
مربی
اقای
اتص
هیدرو
##واری
ادی
شبه
نخستوز
غل
دنیای
ریاستجمهوری
ویک
رابرت
هنرمند
تحلیل
مینم
حقیق
والی
میشدند
##ورو
##اویر
صحنه
فین
##ابری
مونت
مشرو
حفا
الن
امید
دیگران
نای
یخ
چینی
خطی
بازیکنان
نشده
معاون
مجارستان
##دارند
زر
منح
##داشته
خطر
نرو
##ثی
حیوان
دوچرخه
مسافر
اجرایی
لر
##un
تز
امپراتور
گویش
سقوط
مجبور
الگوریتم
##جع
بید
##ct
دشت
اسکات
گز
تخت
خش
مشاور
کیلو
متغیر
##اندن
عربستان
اظه
دوستان
پناه
##ادار
سلس
دینی
خال
کرو
معمول
نتایج
بش
رادیو
##ومه
فرای
محکوم
st
##حیح
##بیا
نان
محق
##ip
موسس
کمیته
##الح
بندر
صفح
امده
درک
کنونی
پدید
گرفتند
گذشت
مخت
##رای
مشهد
##کام
جزيی
جوانان
مخصوص
دیدار
##عار
نامه
متوسط
فضایی
##صت
قوی
رکورد
اوکراین
اذر
اوست
دره
نظیر
فرض
زا
ارژانتین
فارغ
دموکرات
کاخ
مجموعهای
بهر
##یترین
استودی
##ers
کیفیت
سیتی
##ادت
چنان
کمونی
رقص
ژانر
اعتق
بیمار
شرکتهای
روغ
##انهی
مقر
##نشین
صحبت
میلیارد
##کول
ششم
##احی
##edia
##ندران
نهاد
کاش
خرید
ابان
روزنام
فرانک
ریز
##امون
##وکی
بلغ
##شتر
یواساس
مغز
ادم
امریکای
شناختهشده
حقیقت
برنامهریزی
##درضا
شیعه
لایه
واس
ماس
قض
کاب
##واند
کارل
ون
سعی
مسیح
مشارکت
طبیعت
##جوان
مازندران
ورزشکار
نشست
انگلیس
سکونت
صلی
ضبط
مثلا
هستهای
صفر
درد
قرارداد
ناصر
غذا
حاضر
قطر
افرادی
بیا
تجهی
##کز
##قت
غذایی
موشک
معد
ترب
اواز
##خیر
تابستان
وظی
بده
##وتا
تار
نظارت
##ess
##طرف
##iv
نها
کشیده
الح
گال
##باب
گوناگون
باقیم
قن
##ik
تدریس
نموده
چرخ
##em
خوزستان
##کری
پان
مهمی
##افع
ادعا
##انهها
گنج
ایفای
اختر
جلس
##اعیل
##لاند
تنگ
موثر
مسلمانان
علت
تابستانی
اعدام
جدیدی
##شدت
گذاشته
رفتن
بودهاند
##اشد
خواهر
نصب
اسید
ژن
سوخت
باری
چیز
##اهن
یکسال
قلب
خوانده
##ولف
##ریس
##ul
روزنامهنگ
زیبا
##کلی
خصوص
میپردازد
##میل
سلطنت
نماد
تون
##یلد
سوسیالی
جبه
##مار
##اژ
بعدا
لشکر
شهروند
اهنگساز
سوز
##وجود
جمعا
مجاز
خواب
##پوش
##لاک
کلمه
ایکايو
میداند
چوب
اسفند
حفاظت
نجات
##ولت
##گردان
##اجی
سرویس
دف
##رود
تکر
دما
فضا
##وردی
##باری
تمد
##ناطی
شهید
پروتيین
ناخ
عمده
تجزیه
سار
ماموریت
فرودگاههای
سلطنتی
##هور
قبلی
چر
##نایی
صب
جنگل
##لوچ
تاکید
روس
##زان
لحاظ
اسماعیل
مدنی
اینترنت
ماک
فیلیپ
مدرک
هنرهای
شاید
##ذیری
زمینی
فدراسیون
دون
عمد
##کور
سويیس
##ستری
الع
پدی
##التح
بگیرد
امنیتی
میدانند
نوشتن
##باسی
عک
واش
خرداد
کهن
افریقا
متم
عناصر
یهودیان
ارزی
ران
امین
##گه
فارغالتح
##ad
##ation
روند
##راب
دریاچه
محمدرضا
##تان
##بخش
بازسازی
اعتقاد
گیاهان
##ir
دعوت
الجز
##زنی
سالها
اهن
اهداف
موافق
##قات
##زای
گم
راهاندازی
بکار
##امیز
وای
خاور
کشورها
مادرش
امت
نح
##وود
ندارند
جنگی
زدن
##امده
اقیانوس
عی
موزیک
##ot
##وام
راک
##یکس
##لوچستان
دیپ
موا
##وبلوچستان
پیمان
سیستانوبلوچستان
هندی
هواپیما
شکار
##ارتی
##يه
دانشجویان
منفی
تولد
کاست
##وح
##ستند
##بلی
افس
##یاش
میساز
کلاسیک
تفسیر
##باه
##اشا
کوب
یزد
##پار
برداشت
اکاد
134
##زدهم
هفتم
شهریور
استخوان
خرم
پرچ
ایرانیان
مواجه
بیستم
اینجا
راهن
##ist
منطقهای
بهشدت
##تمند
رومی
##سلط
کامپیوتر
سعید
خیر
برگزاری
##نوعی
اورده
مراکز
نقل
چال
قطعات
عمدتا
رفته
تصاد
##کوه
تهیهکننده
ناگ
کربن
ظرفیت
دانشام
ترکیبی
##الیف
تگز
ادر
##جایی
نخستوزیر
##ac
نیستند
دستگیر
اتصال
خری
جورج
عاشق
ایا
هرگز
سامانه
ناز
حاوی
اظهار
ریچارد
##فرد
اهالی
خات
اردی
تگزاس
##روی
ارسال
حافظه
##ویسد
نقد
بق
##بند
##امپ
سنگین
میکرو
سرمایهگذاری
سرم
راس
اطلاعاتی
##رهای
##جیت
##ايی
ثرو
بلژیک
مقامات
فیزیکی
چشمه
ممن
قبر
لذ
##گاری
##انید
دیدگاه
جمعاوری
جزایر
کوش
تماس
تهدید
محاس
نفوس
فران
کدام
نواحی
زده
سلاح
بازداشت
مثبت
محور
سنج
سفارت
مخالفت
سینمای
رام
عف
تجهیزات
فلزی
حملون
عضویت
ارتباطات
بروز
منصوب
##ایم
تصرف
ویدي
حملونقل
##غه
انتقاد
گران
افتاد
فدر
روغن
مسلح
اشغال
مجدد
بلغارستان
موسیق
بغ
سلولهای
ایده
##چند
حجم
گوشت
بمب
##اقی
وک
پیشبینی
فلور
توافق
تخم
##ag
سلسله
زخ
##بهشت
اتوم
##بول
محاسبه
چهل
شداز
تخریب
##فری
نرخ
پرست
هور
بیک
ایین
مبتنی
تقویت
لیست
فرزندان
کردستان
نقشه
کاربران
ردی
شاهزاده
سرطان
دسترس
هاش
قربانی
متوجه
##راحی
##اپور
بهت
##زدی
پتر
##مولی
یکبار
اولی
##بس
##ینت
##عیف
##یدر
اردیبهشت
صند
بریتانیایی
##دریایی
ستار
نکرد
##لوب
##نرانی
مرداد
مایع
خانم
سخنرانی
بت
##تماد
معل
خطوط
نماید
##وایی
اندیس
en
فلسط
##التی
##زام
پارسی
نروژ
##جوی
##وهی
جنس
کتابی
ستون
دبیرستان
دشمن
##ایف
##گرا
بهترتیب
همواره
جایزهی
زمستان
هال
تض
شهرها
پات
میزبان
##قابل
##امن
ارزیابی
زیردریایی
##زده
##لاین
کول
پنه
فارغالتحصیل
جانشین
##لات
سگ
حادث
امضا
##ایتد
انیم
استرات
مجموعهی
امروزی
مایک
بالایی
##وکار
خروجی
چاه
##وتو
زیبایی
غلام
اوج
کوچکتر
##ter
سوار
##فورد
##طفی
##غم
صادر
##ig
##وکس
کابل
ازاین
دههی
حیات
تلفن
ریش
خوبی
بنگ
خاط
نوجوان
حاج
مرغ
همگانی
##وفی
کنسر
قه
خارجه
ادوارد
مخلو
##وستان
حدی
##وردین
میگرفت
تالیف
##قیقی
دیپلم
بهوسی
رایانه
##جین
##سایت
دیجیت
فیر
##زیم
مطابق
شورش
شاهد
بز
خشونت
192
##انداز
##انیم
##یلا
قلمرو
تکنیک
قوم
اسناد
##لان
هرچند
گونههای
برن
یونایتد
##وقی
الق
دوربین
فعلی
ابشار
کلید
##od
افسر
ملت
##اسیون
شیرین
ساحل
##قیب
نک
##هایش
کمدی
همسرش
هنرمندان
قطب
نژاد
برس
ایرلند
اکث
##مح
تمرکز
محیطزیست
علاقه
باقیمانده
سرپر
##ناطیسی
نیش
کنت
مینویسد
##بازی
جوایز
شبکههای
برقرار
میرفت
خواهند
##اماس
2008
بتواند
رست
اسمان
جراحی
اشنا
##ونز
اردو
قص
اکسی
##وسته
وبسایت
کامپ
فراو
نگر
زرت
امدن
افتخار
وظیفه
نتوان
اشکار
پیچیده
میاورد
حملات
اشعار
مستقر
راهی
##دهنده
گام
سهام
فروردین
نقاش
ضمن
ابوه
##قدر
تصاویر
معمولی
بهسر
بک
جبهه
دادههای
ادام
نویسندگی
بهداشت
اوردن
میرو
هیل
فیلمبرداری
##ودر
پارل
قایق
واک
##قیاس
رضوی
رسیدهاست
شف
تدوین
انتظار
کانال
کاس
مض
خلاف
##متری
بهطوریکه
پیامبر
طلایی
کارخانه
تروری
##میان
##گزاری
جزو
پیرامون
ایوان
رژ
کیم
##انکا
اقدامات
نمایشگاه
کیلوگرم
شاخص
##جار
فراوانی
انح
پرتاب
سالن
ویروس
عصبی
مناس
کمیسیون
الجزایر
هویت
##کته
لبنان
حداک
برمی
درباره
عنصر
پرچم
de
ملاق
همدان
الک
محاسب
گیرد
مخفی
##ظاه
حلقه
پرس
چهارمین
##ایای
همج
##ینگتن
##گونهای
راد
منظور
درس
con
خسرو
فراوان
##ریح
مقیاس
هشتم
##نم
پروژ
متعددی
صبح
تکرار
حرارت
مینماید
اکادمی
ري
مغول
هواگرد
تصور
##غام
مجموعههای
نسبتا
هزین
re
دندان
جوایزی
دوی
خن
عمی
صادق
ذرات
##سوار
چگونه
میافت
احتر
غیره
برگزیده
مسيولیت
یافتن
##شناسان
##ناس
ترجم
فرمانرو
لوله
فدرال
##اهیر
un
شان
##یدند
محسن
سیگن
فاز
معدنی
گرایش
رسیده
قابلتوجهی
2009
##im
ch
مکزیک
##ونیک
انف
##st
لقب
نیو
##خصص
##یمتر
مقالات
نیا
نمیکند
حداکثر
پیتر
##فات
سرا
درگیر
##یتا
شیوه
محدوده
##صاب
##غر
زنی
مشک
گیاهی
محدودیت
شای
دش
عام
جدی
##سوف
شج
عب
طال
خانگی
##روم
متخصص
کوههای
منتقدان
##بهی
بازدید
##پت
اعداد
##گس
##اکا
کالج
مکتب
ظهور
مذهب
جین
دانشگاهی
مصنوعی
##عید
واشینگتن
رویداد
الله
افتت
کنس
##اء
اداری
اعتماد
##وقف
رها
ابتدای
اشتباه
استق
قهرمانان
##ازدهم
کوک
مترجم
تغذ
شاخه
سالی
گردد
مارتین
دوازده
تخصصی
##چیز
واقعیت
##ورهای
##واز
کودکی
2006
سوپر
اثبات
میتو
##استیک
دروازه
جماهیر
کلمبیا
##وانه
##ولیک
فاط
بهسرعت
##فرانس
مجمع
2010
##پذیری
حیوانات
متوقف
زندانی
درمانی
نمک
استع
##ومن
الهی
##اصره
##کیه
ثانیه
بسکت
متح
کلیسا
محض
##ورن
قره
گفتگو
الت
2007
فولاد
قاضی
ملاقات
##عهد
کنگره
اقامت
والیبال
بسکتبال
فایل
##رون
پرنده
فنلاند
الهام
ابتدایی
کمونیست
اگ
##ويل
قزوین
لیت
مسعود
نمیتواند
چش
جعفر
همس
مخاط
مایل
پورت
رنج
##ولیس
صفوی
لاک
درخش
افتتاح
مردی
غر
##og
سعودی
رژیم
##ودن
ساختن
بهوسیلهی
دهم
پنجاه
مراحل
##ارن
##فران
مینام
2012
##ran
##ابور
یافتهاست
هسته
اون
بهگونهای
محاصره
اختلال
گش
##خر
سلامت
دارایی
دال
کت
نهم
2011
دامنه
اوقات
حرک
اتهام
سدهی
پرونده
عزی
قسم
بهخصوص
نباید
توماس
همانطور
خز
میروند
کارت
##وخت
البر
##ختیاری
2013
2005
تقد
زلز
نمایندگی
دانشمندان
مبل
کس
##عهده
دیک
دلایل
عادی
خالی
ویند
حسینی
پم
دگر
بنام
##برند
##خل
اعتبار
خواندن
دانسته
خروج
دادهاند
کارگران
ارش
##زید
سانتیمتر
بوت
گند
کلاه
سربازان
ذهن
نیت
نمایشنامه
##ورتی
فیلمنامهنویس
نع
##قف
میانگین
حادثه
##ریز
انتونی
ناحی
##الا
سالانه
نیل
انتهای
##تیو
پذیرش
جلب
مذاک
##مارک
بخار
کاغذ
##پن
بیبی
بول
بردن
محوط
فرید
مظ
کمپانی
پرورش
برلین
فرام
افریقای
##راسی
صحیح
##خانهی
محافظت
##لیس
فرستاد
عهد
##وزف
تکنولوژی
مالیات
##تس
فور
چارلز
فیلمهایی
هواپیمایی
حقوقی
میسازد
##ادیر
تقویم
خواند
ابد
ساسانی
اسیای
##ایات
راهاهن
موسیقیدان
دراز
صدر
دهنده
عرف
بغداد
تغذیه
گستردهای
مقط
##چوب
نیوز
پژوهشی
##ودا
##انگیز
شخصیتهای
وان
ناو
##یشده
تمایل
ازمون
سابقه
جفت
شری
قبلا
برسد
مسکو
متشکل
سازمانهای
زود
یوسف
پذیرفت
گرین
بنای
ویديویی
##طبی
تکمیل
بهرهبرداری
بازنش
روزهای
توی
کنفرانس
##ردی
میخواهد
طبقهبندی
روبرو
پیوسته
محمدعلی
همر
##فال
##ce
بهدست
بیگ
شیعی
دیدن
داستانهای
دورههای
هتل
فیلسوف
صلیبی
خبرگزاری
اخلاقی
##جستان
شدوی
خم
##ایا
تحریک
لويی
استدل
نصر
خداوند
نداشته
حاجی
عقی
##سوم
تمدن
##ay
همکار
پایانی
پایدار
تاجیک
حذفی
الکساندر
جنگهای
##ویق
جوانی
اندکی
برعهده
محت
ملکه
بحران
##امیان
is
##خوار
متهم
##هان
##اهنگی
##رانی
الکترونیکی
رج
فلز
##الدوله
انسانها
##یمن
وسایل
مولکول
wik
##گراد
رب
کاز
##گفت
برخلاف
غیرم
منع
روید
##گیل
al
رشتهی
اگاهی
##ian
##ستا
نوک
پردازش
هری
##یکو
مصاح
سنگی
باکتری
دادهها
مخلوط
پنجمین
##انزده
##یرو
##مدت
ترس
بچه
معرض
گلی
هخ
##طیل
خاطرات
##ضه
تقسیمات
علیرضا
##ie
##نگاری
25
دانشمند
ایمنی
گره
عباسی
زین
##طن
##لع
##صار
##سیا
تالار
خواص
یابد
##and
##داث
اندیش
نوشتهشده
بیماریهای
وقوع
##چههای
ph
کومونه
##oc
اکبر
##مدی
##اختی
wikip
فره
خبری
چای
ویکتور
##جن
هرمز
مهارت
بیماران
##ادله
مدارس
اینها
تربیت
انداز
مقادیر
ar
سرکوب
مبتلا
مفید
wikipedia
طر
پنهان
فیروز
داغ
##امع
##ماه
2014
نازی
مبنی
لرستان
نسخهی
سنای
ابع
191
فس
داشتهاند
انقلابی
گیتار
برادرش
##صری
ضعیف
دانشگاههای
کوان
ازاینرو
تيوری
مصاحبه
##نگار
پذیرفته
هواپیمای
ارکستر
##ابله
نوار
##نند
##اطع
داریم
متعدد
اعط
ملا
یکسان
ثمر
هوای
موری
حین
دیل
داریوش
اي
زمینهای
امکانات
##خور
##مینان
اسفالت
##رار
احداث
روزنامهنگار
بازیگری
دیجیتال
قبول
فرستاده
##یاء
##نوشت
مامور
دستگاههای
قار
خوار
سیب
رهبران
##امنشی
خمینی
##فش
میافتد
روانشناسی
دانمارک
##انزدهم
عش
##تاژ
لار
##چین
هخامنشی
حش
جک
اسیایی
کلیه
##ow
مصطفی
میخواه
پید
بهخوبی
##بای
بهم
pr
غار
##اکو
تپ
مانع
##تنها
21
استن
ادغام
یادگیری
طیف
##th
بینالملل
کوتاهی
سطوح
تمرین
هان
اچاماس
کریم
نکر
بهرام
مجوز
##اتل
تاون
ویندوز
بنیانگذار
سفیر
خودکشی
بالغ
مبنیبر
پیت
انع
خانوادگی
عط
سلیمان
نشدهاست
##طوب
مقابله
سون
سالم
##تیک
کانون
مجددا
باران
گیرنده
هلندی
خودم
بقیه
دوچرخهسوار
گرگ
اگو
رشتههای
##ایتی
معا
شمسی
زمینهی
شغل
بگ
گرچه
##پای
جاب
نوزدهم
جاس
##طل
الکترونیک
ابو
##کیو
کردی
کاند
کاروان
الدین
تخمین
ژنر
سریل
تصادفی
ستاد
خدای
برنامهنویسی
##کوپ
##عب
کمال
ظاهری
اختراع
عموما
اوی
محقق
نقط
توسعهی
دودمان
درختان
##بیت
نوین
تحول
جبر
مغناطیسی
اطمینان
##وکو
فو
جرج
مردمی
##زلی
شل
برون
پیروز
2004
جسم
مقطع
بیه
اندر
فینال
ed
پسرش
هول
گواه
حمام
میکشد
جلال
لن
هش
منط
##تین
##رنگ
بهینه
لسان
چهره
گرفتهاند
نگارش
معتبر
##یما
##کوس
کوچکی
ارامگاه
اشکال
جزء
مرتضی
متمرکز
سریلانکا
نخواهد
عوض
پیشرفته
ایفا
وست
خواستار
##وره
##ختری
شدت
کین
##ap
گود
سینه
##جلس
میایند
##اندازه
ارتباطی
##منت
انس
سوال
##یرا
مجازی
ریاضیات
کاتولیک
کنی
اینترنتی
نماز
نهتنها
قسمتی
جمعی
قطعنامه
مردمان
##اسط
روانی
برود
جستجوی
ارس
ne
مراق
کرب
عیسی
اسلو
استانهای
قاي
جس
ناشر
اکثریت
بارد
احترام
پراکن
عمیق
علامت
بازمی
ارن
سپرده
نامی
تکاهنگ
مصد
##ادش
وات
تجدید
##اگا
پارلمان
گرجستان
کوهستانی
ترجمهی
مهندس
تها
گوی
##خانههای
##وریان
##ity
##زرگ
ابعاد
امامزاده
پرتغال
##اعد
موقت
جوش
خریداری
فلسطین
دختران
پاب
مدلهای
نابود
تظاه
کارولین
##وزان
وکیل
گاو
بالاترین
هزاره
بابل
##عامل
میوه
اندیشه
شرط
سناتور
ایکس
##اوز
اشپ
2003
استاندار
صعود
انگی
داستانی
کارد
درصورت
تجربی
قدیمیترین
اله
زاد
طاه
سازمانی
کانت
ترور
سوره
##سنی
کنون
مخاب
تست
فردوسی
معبد
استقبال
سانتی
جستجو
ضربه
پاي
ممنوع
نایب
اکران
##صیلی
##ونزی
علاي
استدلال
دقت
مالکیت
##ين
ناک
مولف
پدیده
لیک
خودکار
هرک
لسانجلس
جمعه
وسط
سیگنال
مرو
دراورد
##حسن
##جیب
دهانه
میانی
ساسانیان
ژنت
##الیسم
همجنس
اسکاتلند
##ورف
میگرد
شکن
##ابادی
تحویل
ویرایش
زلزله
شباه
##ترتیب
معلم
حمید
نباشد
##عف
سطحی
امتداد
ژنرال
مدافع
بورس
##cl
##وزن
مگ
##وارت
##یدگی
2015
شام
##جات
24
برگشت
مولی
لم
##نشینی
خشم
##ber
بهس
تقا
##ووا
اژانس
##زمینی
سوس
کیت
افتاب
ماجرا
سیاستهای
بلا
2000
داروهای
##وکا
##عین
انلاین
خاورمی
هیر
عمق
وضع
مورخ
پین
قسمتهای
##صیه
گنبد
کروم
قضا
رسانههای
هکت
اسد
کمتری
انتی
نوشتههای
پارام
منظ
ساکنان
##توای
نشریه
حبی
##زش
توصیه
خلیفه
##ودهاست
روزی
##ویک
##ومر
بایر
قنات
طرفداران
وام
##ساخت
اسان
نمودند
30
عدالت
کشتار
رومانی
22
جامد
##نامهای
##تای
باشگاههای
سوء
نمونههای
##داشتی
میدادند
اقوام
##وندی
عقل
نکته
پرندگان
رویکرد
##ودگی
زهر
کنسول
قاره
##راتی
تیت
الوم
جانبی
##هده
برنج
زبانی
هفتاد
استخراج
حوالی
اقا
یونی
##وفر
##پایه
بهاندازه
قرون
حومه
##خوان
شمشیر
اتمام
مراقبت
ابادی
##کین
حرارتی
علیا
متون
صحن
##اشیه
خوا
فرصت
اتمی
##دریج
on
همگی
وقایع
گردن
تصویری
متفاوتی
بودجه
محلول
اکسیژن
##ورگ
بوشهر
سقف
کون
##چشم
##لرزه
##قلی
بستگی
شریف
2002
بهاین
خاورمیانه
تسلیم
هف
##يوس
اگاه
بهعهده
ارتقا
##متر
##ینژاد
##ov
شاهنامه
ردیف
محوطه
##رسانی
قدرتمند
تبعید
جلسه
ادع
لیس
##یاط
##لولی
##مج
هیت
نفتی
بیرونی
حفر
سوسیالیستی
سهم
وحشی
ساحلی
عکاسی
تایل
متحده
اندام
رع
میگذارد
##صاری
##گام
انگشت
کاربردهای
جکس
بهشت
##کنان
ولتاژ
##چستر
##اته
استونی
برادران
استح
اسکندر
2016
##ضان
##رضا
میه
##اصله
گونهای
برگرفته
##کب
بارها
شهروندان
فراخ
زمینلرزه
گلستان
بیس
##البا
میگفت
لويیس
همراهی
تماشا
مانی
توکیو
##فور
کارگر
زوج
##والی
شیرازی
لز
مادهی
پروتکل
خوردن
چرخش
شکر
استخدام
سرزمینهای
##حالله
اگوست
مهمان
شناسه
برند
واحدهای
قضایی
پرسپ
تکامل
خواجه
کمون
ممت
واگذار
ششمین
معدن
یمن
بدی
شصت
زنجیر
ترکیبات
مریم
غیرقابل
قلبی
##وها
##افی
اندونزی
نسخههای
##الیز
دفاعی
لیبر
##کانس
##سرا
سختی
کبیر
مبنای
کنسرت
نیشابور
نگار
خاطر
یکپار
بهاینترتیب
بااینوجود
مایکرو
حاشیه
##ژیکی
پرویز
##ریا
پرده
##سرای
لنگ
کیه
منحص
انداخت
اصلاحات
جواب
بخاطر
علیرغم
ریخته
گردیده
انجامشده
اروم
##لیلی
بازرگانی
##گویی
مواردی
بزرگر
##غالی
##پول
نامش
تند
درصورتیکه
کمبود
اتومبیل
صوتی
رسمیت
اطلاق
شوهر
پایهی
to
ضخ
هاشمی
پارس
##ابند
اکسید
بوی
##اقد
##واژه
مکمل
##زین
محمدی
نشاند
##ایفه
کرم
افزوده
قفق
دادهشده
تحقیقاتی
علايم
عالم
کاپیت
ضروری
ریاض
##ایست
پرداخته
عدهای
میکنم
مدعی
زیستی
منش
تحریم
فرایندهای
قزاق
براورد
رادیویی
عین
##سام
##حان
الاس
اثرات
حوادث
عظیم
مجازات
علاقهم
شیشه
دارویی
تشویق
بام
فجر
##ادها
مجری
رقم
##گونگی
وف
یار
الگو
صندوق
##امیک
##سمه
براد
##راحتی
انیمیشن
2001
قیام
مشروطه
فاطمه
سنی
زنگ
غالبا
##شدن
میلیمتر
تاجیکستان
حقیقی
مانده
حروف
جانب
گار
##عش
##سار
خودروهای
خودشان
##سافت
مادرید
مکانیکی
تیل
##شاری
ترو
نیروگاه
##ab
تبلیغات
شیم
ريال
ترجی
مرتب
جکسون
مشتری
همد
میلان
خمیر
عفونت
تفنگ
طایفه
دستیابی
اواسط
میزند
نوبل
دورانهای
##ونها
کشید
میخواست
دوستی
اردبیل
فکری
روزانه
معرو
وص
خانوادهی
اخراج
دیم
##چهای
اسمیت
سفلی
تعطیل
رستم
##ایز
جوامع
سرمربی
فروند
##ard
ac
اخبار
23
اعتراضات
مرزی
##العمل
گارد
##اتو
موسوی
##شو
نظم
پیشتر
چگونگی
ساک
##ub
تعلق
زمینههای
ليون
ترکمن
بهراحتی
انی
سلجو
##اورده
سایه
امارات
##کتور
شیعیان
اجباری
##فکر
sp
منصور
تجاوز
جلوی
مجسمه
133
لغو
مجه
1387
##کنندهی
سکونتگاه
شگفت
وحد
افسان
##av
بزرگراه
##لاس
##سلی
مختص
شاد
بلو
سدههای
پت
تعامل
se
قدمت
##دیا
##اندا
متق
اعظم
فرکانس
چگ
نمایند
##cy
بدهد
ابهای
قومی
##افزاری
جواد
ایلین
پیادهسازی
##ویج
##عل
میبرند
موض
دشوار
##if
اریک
##بایی
##ud
دیسک
یورو
بهتدریج
شلیک
نشری
موافقت
##ضل
بدان
کوانت
هزینههای
مدیره
عملیاتی
##ونیا
ردهبندی
نشانه
موضوعات
تحمل
تنی
جنا
هفتمین
راز
زیستشناسی
جاذ
نبر
سردار
##خو
فون
گوت
پرسپولیس
کینگ
نحوه
هوشمند
for
فشر
اشنایی
نوازنده
دژ
ذوب
دروغ
##ومتی
بلوک
بزرگان
شیلی
وظایف
مجید
کلر
##جویی
بختیاری
امان
تندی
دارا
منشا
کارولینای
تعادل
##گذاران
نشود
##الین
کاوش
حاکمیت
le
محتوای
ویتنام
بستر
کرسی
اعراب
##مانه
رواج
شواهد
تولی
##ردگی
چم
واژهی
فاقد
قله
دانی
ناد
تانک
##ell
کلمات
تنش
قطار
##زاب
جدایی
دارم
ابزارهای
ولز
سرور
کانی
جانوران
##زبان
##سنگ
منزل
##ill
جداگانه
##گرای
خواهرخ
سیک
اموخت
مکانیک
بلاف
موسوم
##چو
##املی
##باران
شاعران
##افته
##20
مرزهای
##بردار
عوار
پایی
اهواز
##فیه
ترین
2017
نتیجهی
پژوهشهای
مسیحیت
##الو
##شناختی
قاسم
هادی
ولس
کوی
زاه
زرین
##جام
##فهی
نود
پستان
رسما
استراتژی
##ستهای
قول
خطرن
##پزشک
##اوم
جمشید
وقتیکه
رنگی
فلکی
انفجار
قش
انتقام
زاویه
##اهیان
کمرب
ازمایشگاه
درعین
درونی
انا
انق
دکترای
شباهت
رایانهای
1998
ازبک
درعینحال
شیش
دربر
مراج
گندم
خواهرخوان
گوگل
مرجع
نگهبان
گذراند
بیمه
باستانشناسی
1388
##ذی
برتری
یازده
شدپس
منطقی
اتوب
مهار
دنباله
##ازن
ایالتی
فلسفی
خانههای
##ld
خیاب
##لیان
منظم
زمینشناسی
رقابتهای
##کوت
##لاط
هکتار
##گور
کارکنان
خالص
نمایشی
فقیه
اردشیر
##ردن
کوهستان
میخورد
ویرجین
##گوی
روزگار
صورتی
تفک
وحدت
چمن
قدم
##بره
ایمان
##نیه
رانند
فاصلهی
27
محیطی
بیبیسی
سح
اذربایجانی
زرتشتی
اسکی
موز
بازگرد
ازار
بازیگرانی
میامد
دفن
##لاوی
مکانهای
غنی
برنامهی
حالی
##سلطنه
فشرده
th
فهم
1997
میماند
متال
حالیکه
کامی
وسیع
یاری
##دیه
بنگل
زنجان
گوناگونی
مبلغ
عقیده
جولی
انزیم
مقصد
خانهی
دوک
مراکش
هام
##اریان
کلان
پیروان
##خاص
##اسف
##ak
الس
مطلوب
قفقاز
استث
استانبول
##برو
منی
مذکور
شاپور
لیسانس
کارایی
مفاهیم
##داول
محققان
##ph
##اتس
##بههای
##پرداخت
ظاهرا
ویژهای
عز
مجتم
ماریا
سول
پیانو
مقدماتی
مزار
خودروی
اضا
بخشهایی
تحق
پولی
28
دایر
فرماندار
چوبی
مغزی
بلافاصله
جزيیات
رول
حوزهی
دیا
اضافی
ترد
گربه
##انسون
ناه
ترجیح
انگاه
متمای
دهی
رف
گویند
زیارت
##گرایان
مایکروسافت
بعنوان
عموم
جوی
دموکراتیک
##فیلد
لذا
شکلگیری
کشتن
ریم
نگرانی
نانو
##مجمو
امواج
بلور
##کولی
اشتراک
اینچ
خلبان
کارافر
قصر
##اندی
هشتاد
یهود
##سواری
26
نمیده
بیانی
تنوع
عوارض
دایره
مجتمع
##کهای
لور
##ge
الد
امل
##حلیل
پراکنده
بازتاب
اخذ
##هرو
سمی
##اسری
ايت
بره
##اعده
بگیرند
یوتی
##ارهی
روشی
cont
##خوانی
تلفظ
سوراخ
مخالفان
pro
بیشازحد
دهان
برش
کاک
1999
محروم
صدور
##فترین
بیز
بروک
استحکام
ویکیواژه
بروج
دبی
##گذارند
شین
##سیری
1384
##ree
##راحت
ارومیه
##بعدی
نهایتا
ایزد
##استه
صلاح
وجه
##حت
براون
کشیدن
ساق
ترش
##وگرافی
مونی
##ابین
##کشان
##لاوه
رفع
##لیا
##سبب
بهز
نقض
##ادات
ارتور
سرنوشت
مقداری
##بورد
تیپ
واسطه
معلوم
نسبی
الودگی
هماهنگی
چارچوب
هالی
طلای
نوجوانان
بازمیگردد
بپرداز
##گويه
همسایه
ولسوالی
##يینگ
یونسکو
##نظام
تزریق
خانوادهاش
معمار
رسیدند
دامن
##ستها
قبایل
کیک
صفحات
ماسا
##انای
مرحلهی
جادو
##گرو
ایه
طباط
##est
میخواند
مینامند
احمدینژاد
mar
ریک
##ارو
بارسل
یاس
کالا
الیاژ
چل
میدانی
منحصربه
خراب
تکیه
نمید
فال
انجامید
##ادور
##وتحلیل
سلولی
منحصربهفرد
تجزیهوتحلیل
پرفرو
هاف
شفاف
##کها
##ine
اود
سرچشم
کسبوکار
##وپر
معنای
سازماندهی
معتقدند
خلافت
دب
طبر
##لینگ
##مندی
زندگین
##لامی
ابری
واج
##ختن
2018
ژیمن
طاق
دبلی
بهسبب
انات
انبار
##اسانی
مینه
پیروی
دخالت
ازای
الیز
ابراز
##خانهای
شبکهی
بگذ
استعد
##مانند
ارج
1389
فلوریدا
فریدون
تسلط
هرگونه
درجهی
هشتمین
##پذیرد
ایلینوی
زخمی
##کنی
شتاب
فرهاد
همهچیز
ادرس
پوشیده
##احمد
جاری
##قراری
ذهنی
دايمی
کنندگان
یافتند
متمایز
##وتری
تات
##قد
تلاشهای
پارامتر
برم
بازرگان
رنگهای
بدنه
تفکر
منافع
خدایان
خنک
##وسا
احزاب
##لندی
اسپر
دورهای
توده
ضعف
میچ
بازاری
##اکبر
هرات
کناره
ضریب
سويی
شیب
انرا
اسطور
ریو
##زو
##یران
کنم
##وقت
فقه
چراغ
جری
معتر
فرانسیس
کتی
نیازمند
##سور
پاش
دستورالعمل
##فون
نژ
بتن
پرتغالی
سیاره
##گردی
جزیر
شکلی
خطرناک
##مندان
دانشجو
پرتو
گناه
کبک
سیما
معاونت
الگوی
اوهای
مهاجم
تلقی
وسیعی
##ارم
زیرمجمو
اصفهانی
تعقیب
ادعای
بتوانند
اجزای
بزرگسال
نشاندهنده
اجتماع
اینه
رسول
سوپ
هندوستان
کوز
جشنوار
شمس
190
فیلتر
مدیران
میدانست
استیون
قابلتوجه
بهروز
بنگلادش
نجف
شارل
اسن
سواح
##ors
اضطر
کرک
##گرام
دیو
پروانه
مطالب
لول
##زایی
پادشاهان
مصوب
کاربری
همای
##مرغ
میتوانست
ببین
کمان
باخ
مرده
##نوع
مطبو
##سیلو
بابا
##گوش
پژوهشگر
یازدهم
بیلی
صرفا
حبس
##ینش
ثروت
کرا
متداول
جمهوریخواه
رعایت
تولیدی
ساختاری
1385
چنانکه
هیپ
محاک
گلوله
سیت
شطر
مزر
ویديو
بندی
##clop
زای
نقشهای
شکسته
شیطان
ماهیت
لط
تظاهرات
##راط
انتخابی
##صلی
قبیله
احت
معیار
نمایندهی
##کردن
فوقالع
##پیش
نقلم
پردازنده
اوهایو
نقلمکان
##چر
احتمالی
##امله
##ظمی
گرما
بلک
ابراه
##all
##یای
##cyclop
سرود
ارگ
ساری
گرا
یادداشت
مجهز
هیدروژن
encyclop
راسته
هزاران
بهدر
علیاکبر
محاسبات
هاو
##ens
تبار
تحصیلی
##ذر
##اسو
والدین
مهی
شناختی
پیا
ایام
فرش
هستیم
منوچ
بازیها
گیم
درم
عراقی
استودیو
پتان
الومینی
فوری
##فاری
شورشی
دزد
اهنگسازی
فای
##نجان
##فیق
نوشتهی
طرحهای
ساختمانی
افتاده
سويدی
ایندی
دانشنامه
پسران
##قانونی
وسعت
افشار
صالح
نهمین
هشدار
کریس
اساط
پیدایش
##جانی
راهنمای
محبوبیت
تجمع
زیبای
قضیه
ویرجینیا
دستگیری
بوم
روحالله
شاگردان
خرس
گچ
هوان
رسانهها
مطبوعات
میرسید
عرصه
جامعهشناسی
فرن
منوچهر
محرک
بهداشتی
برف
نفره
حالا
at
ریت
طنز
کویت
سراسری
##پیم
سرپرستی
موش
رساله
وحشت
رابطهی
##یله
دقیقا
as
یان
ساختمانهای
##فان
##اردی
منچستر
معادله
افکار
حساس
اردوگاه
تومان
تدا
مداوم
رسیدگی
چن
قهوهای
ناحیهی
پابکم
غیرقانونی
وع
نویسندهی
دکتری
شهرستانهای
بهن
##ازهای
اورش
الیزابت
لهستانی
شکنجه
مادی
هرمزگان
##فین
موازی
رویدادهای
دستهبندی
جنین
##وتن
تعمیر
سهر
میت
معنوی
رگ
ابوهوای
زندانیان
ماندهاست
هاکی
1993
com
توقف
منتخ
اسلحه
نوروز
شاهنش
مسیحیان
29
دختری
فرق
##خیلی
سنگهای
نتوانست
جنایت
جون
کتب
اشتی
راههای
صوفی
برداری
پاییز
طلب
جعبه
هواد
تصمیمگیری
معکوس
1390
موجودات
برساند
سواحل
دز
##حق
فاک
##ورز
فراتر
بزن
استادی
یحی
نوزاد
مجل
##چال
##سنگی
##بهای
سازنده
##ابک
دموکراسی
جناح
شیکا
میبین
شاهنشاهی
کلیدی
رزمی
حکومتی
##وخ
گفتهی
چنگ
تابش
##بون
فراز
ماتریس
پرک
اردن
ستارگان
شیکاگو
تول
اعزام
تسخیر
اطلس
مبد
پودر
هماهنگ
هستم
بهدور
مالزی
1386
##الس
شایع
برکن
وایت
برقراری
فاض
تقدیر
مراجعه
پایینتر
عمان
خزر
سکه
##ستن
ویران
حامل
مشخصات
تندیس
منتقد
ایلام
اعم
ایروان
سابقهی
تراکم
غیرنظ
کوچه
لام
بماند
یکپارچه
رش
##میز
تعلی
بدر
اختصاصی
کشتیگیر
ابداع
داوط
##ory
ماست
##مق
##ort
تقلید
تهاجم
سپه
بهوجود
کاندید
##ok
اعطا
چرخه
اورشلیم
مولکولی
خامنهای
استقرار
قايم
طالبان
100
رایگان
##بریج
طراحیشده
قزاقستان
دستیار
الان
شاهین
غی
میگذرد
نکن
##یشان
1996
باکو
مستقیما
sh
سمن
تاخیر
اراضی
دانه
##ولن
جنگلی
نیازهای
چندی
##وههای
شطرنج
تاثیرگذار
##ary
نابودی
عزیز
##اییکه
فرهنگستان
پروژههای
دهید
قند
##سیان
فلزات
مونیخ
##our
##الملک
اوردند
اموزشوپر
اموزشوپرورش
اتلت
جذاب
ضلع
غالب
تسه
##رسون
نفس
فیلیپین
انکار
اشخاص
افزود
##زهای
لحظه
##ایلی
سرپرست
کمربند
چالش
کهکشان
تصحیح
اتوبوس
میری
میاور
تحسین
##گرفتگی
همینطور
نداشتند
##وهان
کرهای
فساد
اکشن
##خانی
رفتند
کلین
گلد
پیشگیری
##هنگام
راستای
موسسات
شرک
##rib
دویست
##وشیمی
راهنمایی
کوانتومی
استعم
هیتلر
##میک
اعضا
امکانپذیر
اثری
1383
وصل
اثاری
سمف
##ابتی
نز
معروفترین
##سیلوانیا
مرتبه
##منی
##وردهای
تونی
مگر
هاید
##روژن
مجاه
خلاصه
شدهبود
##شترین
حرکات
##خدا
هایی
##چاق
درج
قاشق
##ریر
##ویسی
افریقایی
ونز
برچ
2019
پاسداران
کاناد
طباطبایی
حریف
##نیز
تقی
حدیث
محرم
##ارها
ارایش
ویکیپدیا
پرسش
1392
ایدي
گورستان
##اشناسی
تلفات
جوزف
##دهایی
طوف
کوبا
خلاق
تیراندازی
هیچگاه
یعق
میتوانید
یحیی
عقبنشینی
پانزده
مشتریان
تیمی
ناصرالدین
جونز
جانور
سرچشمه
همت
##یدهاست
##رايی
new
کیش
معامله
##فتی
خاکستری
ساو
حوزههای
##cess
سرت
بینی
پیاز
کنف
مصاحب
1995
واسط
##کسی
مجلهی
تخلیه
##جیه
انار
معانی
##ith
ادب
میرساند
احساسات
شنی
##اچ
اروپای
ارشاد
ملاح
افتخاری
پلاس
##انوس
امری
نهادهای
سارا
##لاو
ایتالله
شکاف
##الن
رضایت
تفکیک
ناي
1394
press
پهن
مقدونی
کاپیتان
کوروش
ايتلاف
دک
##گیلویه
تایمز
استادان
فرس
منف
##ورند
لیم
##ابن
بوکس
مکر
##64
استفادهشده
اکس
##اهو
##مرد
##عباس
والتر
مباح
کامپایل
##پوست
کهگیلویه
دشمنان
زخم
اقلیت
فعل
موتورهای
توالی
ماژ
1395
نازک
دفع
خاموش
قلی
جنگلهای
عقاید
ارای
مجاور
چگالی
##ویو
ترانههای
درگذشتهی
عارف
پژوهشگران
نپ
میپرداخت
کوشش
نیمی
##رگ
خودداری
خصوصیات
##ضاع
رابین
ازبکستان
سیزده
اشتغال
##نتو
قالی
جعفری
افسانه
ماساچ
عمارت
##تنهایی
اشکانیان
مادری
تطبی
##شایی
جنگنده
##ies
##خیز
بایرن
ریاضیدان
سانس
##الهی
اتر
نبوده
مقررات
متنا
##ivers
سازهای
حساسی
کردم
کارافرین
میپ
##یلند
بون
هواداران
ماساچوست
دادگ
ترویج
##ولوژیکی
سامانههای
##انورد
میشی
خودمخت
encyclopedia
دانشاموزان
سات
##پین
غذای
منتهی
پنجره
معی
گاهشماری
بازنشسته
##هایم
مترو
بهتنهایی
اماری
بهايی
داور
قایقران
##فرم
مینی
یانگ
##کنندگی
سیال
31
معنا
گوشی
باخت
رسانهای
##سانان
صفحهی
شاخههای
فرمانروایی
توری
هلی
پرش
صورتگرفته
چسب
گمان
##ومیت
اورت
استون
تاریک
حرم
##رداد
##لای
##گیرد
روزه
اوراق
نوشتهاست
اوضاع
##بالله
1396
وود
##ich
مناسبت
باک
پتانسیل
شکم
انتخاباتی
رقیب
##گرمی
رسانه
لیور
پیشروی
اشیاء
البرت
دستکم
متحرک
ثروتمند
چربی
کوس
خاصیت
1393
چندان
امدند
انتر
پایداری
گلهای
گرداوری
ویدی
##ازهی
ارایه
مشتق
##باشد
##طب
##اسمی
یگان
##دای
انهم
مثلث
##پاشی
مناسبی
تونس
الفا
دولتهای
سهبعدی
اوب
کای
حکیم
شعبه
پنسیلوانیا
دادگستری
زرا
##حات
ژنتیکی
بالاخ
free
کاراک
جمال
بردار
گلدن
##باد
تعهد
##زاس
مخدر
همایون
ترسن
بدل
پروفس
عاش
گلوب
جابجایی
مند
برگرد
ناپل
کلام
کوهی
باشید
احمدی
خطاب
سعدی
شکایت
رسم
باریک
ازانج
ملتهای
علمیه
نمیکنند
زرهی
مصالح
سنا
پیگیری
##برده
کوین
##یافت
میبیند
پشتسر
پیکر
تضمین
by
شناگر
##لن
والت
##چهی
par
موم
مخابرات
نرمافزاری
مینمود
البرز
کورت
صدها
منتخب
حید
##ةال
ژر
پیوستن
ادیان
طبرستان
سرب
بازیابی
##چیان
##اسه
سندی
لوح
لذت
##عهای
جایگزینی
الاب
خانوادهای
عظ
##غلی
کرواسی
شانزدهم
##اسپ
بیزانس
لیبی
میبایست
لیزر
جواه
معص
##کاران
##گرهای
مرکب
کاظم
شناسی
لود
##ملک
قراردادی
اموال
الکل
سبزی
مصری
شرایطی
بادی
املاک
نهض
تیمور
میشیگان
##ويلا
اعتراف
واقعه
am
کب
نیکول
وابستگی
داوود
لویی
##يل
کندی
##ستد
هرم
مود
##ونهای
##شتاین
##یتو
مفصل
##ribut
sc
عنکب
کمترین
##افل
تراف
پلیمر
درگاه
پیست
مارش
ترسناک
بساز
##برینز
سپری
حکمت
بنیانگذاری
پمپ
ویکتوریا
ازانجاییکه
##بزرگ
شدبا
دوب
ستایش
گرمی
مخزن
بویر
فیزیکدان
میشدهاست
زیرزمینی
گردان
1994
شاگرد
گفتهاست
موزیکبرینز
نشاندادن
اوم
کاو
##قاسم
univers
واپ
حوض
رتبهی
پروفسور
علاقهمند
فرعی
##مره
قوه
##گونی
رونق
##سوتا
بولی
1382
شبیهسازی
زرتشت
##ینگتون
##ناک
##خا
مزرعه
مرور
بیتی
لوت
ریسک
اراک
زندگ
سفارش
خورشیدگرفتگی
فوقالعاده
شعار
##میه
##یتبار
داوران
نمایان
##شع
مشهورترین
##وشت
صلیب
مقدمه
تایلند
نمودار
تکنیکهای
ساند
نمیر
انتخابیه
1391
رن
سخنگ
توط
189
##یان
##بستگی
خوردگی
بارسلونا
ناصرالدینشاه
ترم
هیچگونه
رتبهبندی
ماهواره
الفبای
گوشه
صادرات
فاکتور
گوار
##اسازی
کرج
سازگار
میدهیم
ژاک
باشیم
واکنشهای
الومینیوم
طرفدار
نکرده
هرچه
هوی
##اتوری
پخت
سینا
رفتهاست
همایش
فرماندهان
مینهسوتا
جهاد
##پزشکی
انفر
جامعهی
##ودور
برانگی
چشماند
جونی
ناص
کرون
کانادایی
استعفا
مدی
##گرافی
جسد
##نیف
اپل
اشپزی
بلوچ
اختلالات
la
سانتیگراد
زبانشناسی
##ant
ید
شرکتها
ماجرای
اسیر
پرون
فرقه
سج
امضای
##ابهی
ساع
##لاحی
اتن
فاضل
1380
کاترین
طبری
میگردند
جنبههای
گازی
تاثیرات
پردیس
نظریهی
کارا
نامید
##هانی
جمعیتی
خانوادههای
داروی
ایرج
منحنی
دوچرخهسواری
وسطی
درخشان
قرقی
عمودی
گزارشهای
##ical
خواسته
قاچاق
بحرین
فیبر
گرافیک
الا
دهک
مینمای
محاکمه
داوری
##تیس
کریستین
ماموران
تروریستی
دوری
تبادل
1379
عبدالرح
قطعی
تشی
##کنه
##يول
نفع
توانستند
یور
ایس
منسوب
جانی
نیازی
متوالی
سولف
سازه
عسل
کشیش
زه
الوده
مساوی
contribut
کتیبه
لنین
رسوب
عاشقانه
##وساز
خوانندگان
لحظ
خشکی
بازاریابی
تسهیل
عال
بناهای
##ضایی
##امید
کارنامه
##نها
تولیدکننده
##اردو
مذاکره
##باغ
اهنگهای
ارزشم
ابوالحسن
تاریکی
چهارده
پیچیدگی
مواقع
کابینه
ورق
فقر
سرنگ
ساختارهای
##ish
انفرادی
خواهان
بدنی
سامان
access
ثبات
جیر
##ومند
بهعلاوه
عصب
جغرافیای
بهشتی
برمیگردد
چو
تفت
صی
سرهنگ
اندک
فروشگاه
##بتی
بههنگام
غز
اکو
ارامش
صاف
مطب
##کانی
وج
ترامپ
ساوت
الته
زادگاه
بلی
لات
بزرگسالان
حضرت
مصدق
الو
تاریخچه
فانت
##ورها
وو
استین
استانه
پزشکان
باتری
تران
##دون
استوار
##ثبیت
کیهان
میتر
رزم
اسکن
دوازدهم
نقص
جانش
ارمنیان
بخت
ارتفاعات
برگزید
مقبره
عبری
تقسیمبندی
مبدل
تثبیت
معادن
##پیوند
پراک
مداخ
روایات
افزون
ویلیامز
##ادف
##پشت
ریس
مدارک
وه
##ستهی
الفرد
مذاکرات
نامبرده
قدس
شاهان
##ارتمان
ناشن
##ang
تورم
##ساوی
1992
جابه
کامپیوتری
##وزه
کارکرد
کارشناسان
اساطیر
رطوب
یادبود
ناگهانی
اسماعی
##گم
##سیلی
پلت
بالینی
غذاهای
شوالی
مختصات
##qu
میشل
ارباب
شهردار
برابری
##ریحی
متروی
bo
##ug
بط
##وات
##ial
محکم
نمودهاست
بردند
##لههای
تخممرغ
جود
ربات
الیس
اینبار
##نهار
اطلاعرسانی
گرگان
کپی
ویسک
مراد
1990
ضخامت
رقابتها
استیو
طن
سیزدهم
تهیهکنندگی
مباحث
contributors
قوای
مکه
##گارت
ایووا
نقطهی
معاه
نامزدی
واقعا
1397
##ry
هستی
ونزويلا
##pt
بنت
accessed
محافظه
قاه
پرداختند
مهد
خوی
ناق
##ond
جانسون
خوراکی
شورا
ثبتشده
1991
خلال
##نیم
##ومان
##طاف
ممل
کنش
##سوزی
اسامی
##مانده
دهلی
راین
لایههای
تان
چهرههای
نقشی
نظرات
##رغ
نهضت
رفس
عملا
فراموش
تله
سزار
##man
##ایس
##اریو
ژیمناست
بودم
میکر
فروپاشی
توانسته
فضل
بارت
##اندو
کمکهای
##یمیر
##نع
خاتمی
هیچیک
حرکتی
مهران
صندلی
قاتل
برپا
اشور
حیدر
گرجی
ملقب
انتظامی
مقاوم
##رایی
##جوانی
دانشجویی
متاسف
بهطرف
هیچکس
برایان
شاهی
هاد
##ودین
اوردهاست
ابتلا
حساسیت
50
کنوان
کوهن
افتخارات
استانداردهای
تکه
عادل
روحی
بوسی
1381
اشراف
ماندن
کارمند
کنستان
گفتار
بلندی
میدارد
مشخصی
هانس
##وانا
دوز
غزل
مقالهای
1988
##بیان
نواوری
کارش
مخصوصا
نیوزیلند
سلطه
##ht
دارال
کپ
شماری
ازمایشهای
واژگان
نیوجر
هیچک
سعد
سمنان
متناسب
##دو
پیشگام
##ord
##روس
کنوانسیون
دانشجوی
حامی
داعش
##سفورد
سردبیر
مجزا
پوند
همسای
توت
متقابل
جالب
سکوت
رمزنگاری
##شب
قربانیان
کتابها
صخ
الاباما
طلاق
روبهرو
##راض
شهاب
شیرینی
غارت
##رفته
شدبه
اصالت
انتونیو
##سکا
پارچه
حملهی
شادی
##استین
متنوع
ملیاش
##لحاظ
سیصد
##انیوم
پالایش
راند
طرز
راج
لوازم
مهاجران
بوسنی
ناس
هرز
132
فعالان
ارسن
مکعب
عددی
##اورت
##وخته
##جویان
فورد
##شای
ویتامین
##زون
##لف
لرد
خیانت
نیوجرسی
##گشت
پویان
عمران
قطبی
گالری
جیمی
پیرو
غیرنظامی
رطوبت
سران
جاد
1985
نمونهای
صلاحیت
کانزاس
برپایه
بنیادی
لینوکس
اختلافات
تقاضای
##الها
ذیل
ارمان
هوشنگ
ماهیچه
##فروشی
ترکان
##اروس
اتری
اخیرا
اپی
الیاف
طوفان
شریک
##رکشی
پانصد
لبه
##رايیلی
اولویت
انعطاف
university
مستعم
بیروت
پوت
اوک
استناد
انب
ابوالقاسم
خونی
مکت
هجوم
تروریسم
##میلی
راهحل
عثمان
##يوپ
برهم
اندیسهای
بریتانی
اسیاب
ماور
گوسف
پویا
قرقیز
لیورپول
گست
تحریر
نرمافزارهای
خورده
ارنست
##لانی
هاپ
##اینکه
سوگ
هواپیماهای
ازمایشی
##ادهشده
اقلیم
جغراف
تیلور
##محمد
قاهره
مفهومی
ارتس
##خه
انست
سندرم
سرگرمی
زبانها
##نبرگ
پایهگذاری
ناخال
روبر
عروس
نورد
##الوگ
اصغر
خرده
راننده
احکام
سیستمعامل
اقتباس
نخل
کشتیهای
##ماهی
ثبتنام
روده
##اوردهای
##وون
نوجوانی
ناوگان
##رویی
##uc
زار
لانگ
مسافت
شیوهی
تاسیسات
نبودند
میاورند
##عکس
##گزار
##چن
بویراحمد
##وسن
افقی
نوسان
ممنو
ببرد
##یته
##رق
##اشاه
الکتروم
میتوانیم
باقر
اسکل
##وزوم
سریعتر
##نون
نمیشوند
رساندن
جبران
ژرف
کیر
کاشی
##فو
موریس
طعم
دیزنی
نادرست
خرماباد
کلارک
مرگش
جنی
1378
هق
عروسی
ورم
اندرو
روسها
بابک
امامی
جهش
خطا
بازارهای
بهزودی
هاین
پوسته
شخصیتی
نعمت
##ey
##افرینی
قاعده
لاس
فقیر
شنبه
جورجیا
اوری
فراری
تزيین
##صدی
انگور
دانشگاهها
1398
تبریزی
قضاوت
زیستم
غلظت
برت
ارزان
بانوان
افسران
اکسفورد
ابیاری
hist
##ینگن
گذاشتن
پند
الز
مدرسهی
بلندترین
تخصص
بقایای
مدینه
برداشته
##شکدهی
اتل
دايم
##rom
ورد
##بورن
زمستانی
نمیدهد
ییل
برایش
نقلیه
نادی
نصفال
ویراست
مزد
کسر
میزبانی
##ويید
جلسات
جوز
مرطوب
رفتاری
مسيولان
##جب
اعصاب
تجرب
گزارشی
خشن
دیوارهای
رحیم
دیپلمات
کمبریج
کالاهای
بروس
##اتان
پارتی
شوک
یعقوب
##لسون
عامه
فسف
انقدر
##فیا
##ویض
بلوار
داوطلب
سهگانه
old
##دهندهی
کاشان
##لد
اعلامی
##io
درسی
بهلحاظ
اپرا
غول
رازی
گردیدهاست
تمایز
##اطقی
مطلب
بهنح
فلی
##فسی
گذار
##جمان
میشده
گا
تبلیغاتی
دخترش
ویلسون
روشنایی
پاول
میپردازند
ایند
ولاد
برقی
نیج
البانی
کارگاه
دانستهاند
##اثر
ترسیم
بالاخره
شدهی
##فتگی
زاوی
عجیب
دمشق
رکوردهای
یوک
وزنه
نهاده
تمیز
فریب
نمیتوانند
##ust
##ate
متاسفانه
اسرايیلی
ساختوساز
دبلیو
##شاف
راحت
##حیطی
بادام
ro
درب
استراحت
نصفالنهار
مجاورت
رایت
##ایری
مزایای
##دیده
نفی
##یف
##کوب
علامه
دهها
کریمی
عید
شاخهای
نشانههای
فروخته
رصد
تبعی
ترافیک
##ماری
بالق
ازان
روت
جسمی
##ys
متفق
هرد
مطم
زندگینامه
شیشهای
یوگس
##ناپذیر
لرز
فرخ
فضانورد
عهدهدار
کج
کهنه
منه
شراب
عرفان
زیستمحیطی
فتحعلی
مینمایند
##عام
فرشته
منشور
رانندگی
دشتی
مناطقی
نشریات
دنده
اختصار
داير
فردریک
سخنان
رین
میپذیرد
##گلاس
شناور
زور
بیانیه
محمدحسین
##ast
خاکی
دلخواه
کودتای
قواع
##ib
##نگری
##جمله
1989
غم
##کسید
پلیاست
عقاب
##حم
##هرانی
واض
کوچکترین
میدانستند
نکند
##فورت
##پوستان
استانی
اوس
##خورده
##کند
##خود
##صور
انصاری
معن
##ارید
رمضان
واکسن
فلسطینی
بیگانه
یاران
##لاغ
صفویه
35
co
هندسه
بص
ارايهشده
##شهری
ابریشم
جانشینی
##21
زاگر
دوگانه
خواهرخواندهی
##کال
بیلبورد
سلاحهای
فخر
##طانی
خوانندگی
جنایی
علمای
##گراف
نسب
نواخت
قارچ
قرقیزستان
درهم
قبرس
شبان
پانزدهم
تلف
الماس
یکمین
##سبورگ
اتشسوزی
##لاگ
##ction
استعداد
رکورددار
گمشده
##ولوژیک
##ردام
##باع
چاق
##یتون
الخ
ابزاری
بارداری
مجاهدین
tit
##سنت
فضاهای
##پرو
##ساله
##باخ
رفتارهای
سرشناس
مخرو
1986
غرق
اناتولی
دهستانی
##ork
توه
میشناس
پدربزرگ
صوم
##دات
php
هات
##الیست
تقریبی
حالتی
مشابهی
چندانی
هالیوود
پد
##ae
##يینی
لطف
برچسب
##اییها
##رزاده
موضع
استیل
دهخدا
ابادان
مکرر
##جمی
##bn
خیالی
خنثی
گینه
تعلیم
وطن
##فار
یورش
دیویس
بهکارگیری
ثان
هارت
عکاس
جماعت
کرت
استودیویی
شعری
خودمختار
##کره
تحولات
لاله
##ندرانی
سلیمانی
##ندها
لری
زغال
دادستان
نشانگر
تشدید
مبدا
هاروارد
مسیری
باق
حفاری
دهههای
تولیدات
طرفین
زیستگاه
##غد
##هرم
##نات
باس
شجاع
افسانهای
زع
##الث
استار
حسب
افسردگی
##فشان
مشروط
پیل
##تها
پاتریک
##طح
##دیس
##سیسی
اکل
میرسند
توجیه
اذری
فردا
بشری
فاج
##امو
مدتها
اعتصاب
ابشارها
گروهها
سیمرغ
تسلی
نورث
طبقات
سنجش
مزیت
##سایی
##ec
فرضی
نجفی
نژادی
نگاهی
یوش
یکشنبه
نوش
روشنفکر
پلاستیک
کمین
##ii
زاهدان
ونیز
##لیو
188
گس
2020
نگهداشت
انبوه
##شکاری
سلامتی
سپاهیان
موقع
نصف
خبرنگار
حیاط
##پتون
##وژ
تصنیف
سرتاسر
انالیز
فمینی
گفتند
یوگسلاوی
دونالد
اقتصاددان
باله
مطبوع
##اخان
همبستگی
##ساب
افرا
مهرداد
گرمسیری
بطور
سراغ
گواهی
مجرو
سیدنی
اپر
شوش
جشنوارهی
قهوه
بهدستامده
اقبال
بگذارد
پلیاستیشن
بخصوص
ترانس
تبعیض
هفدهم
تذ
ریه
دستهای
خوانندهی
40
بنز
##ure
مازندرانی
vol
##حاق
کشی
مراجع
منق
##خورد
##راق
ترانهی
بیاید
ادامهی
سیلیک
بحرانی
ربی
لوب
برایاینکه
زیرساخت
لامپ
##وینی
هندسی
کویر
مدیرعامل
##نمایی
هندو
کنتاکی
شیوههای
صدی
فوک
##یع
نیجریه
گلو
کمپین
##سالی
سمفونی
یام
غلبه
لوس
تحلیلی
##انتس
ناهم
برترین
ریخت
زنجیرهای
پخته
سوک
فه
1987
استراتژیک
##توس
میگذارند
##امیکی
##سیوس
یکنو
بیابان
اساسا
چشمگیری
زنجیره
سحر
صفت
ود
##پو
اغازین
دراینمیان
چنانچه
مارشال
تدارک
قبرستان
دلا
راهبرد
ناشناخته
هجدهم
##جینی
اتفاقی
دوش
خوزه
گزین
##اهما
انجیل
اسکند
اکتشاف
##ولان
سلجوقیان
فضاپیم
خواهیم
لشکرکشی
##ادگان
استعمار
فیش
دوشنبه
اشع
غلامحسین
##بیاس
توطيه
1377
بشک
برندگان
سازد
چهاردهم
title
دانشکدهی
##پیچ
دبیرکل
اصطلاحات
##اوا
بازماند
تحقق
سرقت
کويین
نمیکرد
##ass
سدیم
رفاه
شیوع
دوستانه
##انتا
مسیرهای
تزی
شانزده
دیواره
##ain
مظفر
##یست
پیادهنظام
سازگاری
تلم
خونریزی
pl
##ساری
سخنگوی
کشورهایی
نادیده
داکوت
ناپدید
لید
کارمندان
چندینبار
131
خاتمه
محدودیتهای
تنیس
##ah
##خواهی
گد
کمکی
خوراک
حبیب
تفریحی
تقاضا
##oh
ایات
دعا
##ly
مسد
سادات
##ازگی
##یترانه
##استی
بارز
##نگاران
رضاشاه
##فلد
ایندیانا
##ذه
تونل
اصلا
##ica
مسافران
رستوران
داکوتای
##قانی
میس
##ازان
مرکزیت
خیال
اسقف
بب
##ستمی
تکثیر
لیتوانی
##ویهی
##مکن
مدیترانه
حرفه
بوش
حیاتی
یوتیوب
فرزندش
تعبیر
افزودن
##ندرت
سنتز
یزدی
نمودن
رید
فات
هدیه
کارگری
##اقب
##احتی
##انسین
جنسیت
کریستال
قواعد
کلاسهای
اندره
##کردهای
فرص
کمیک
بارش
مشاوره
بپردازد
oldid
فاکس
شیء
اتفاقات
کروز
سالگرد
##ایب
ارزشهای
شتر
مابین
گرام
پهنای
##مرور
تساوی
همکاران
بهندرت
شهریار
متوسطه
معادلات
هافبک
##طلب
##لاع
بیانگر
رضایی
شیل
گویا
خودرویی
روحانیون
هون
##صب
لاری
ادیب
کتیب
##کبیر
واژههای
نداد
توسعهیافته
رمانتیک
بصری
##رام
منحل
##olog
بکشد
ارزشمند
##eb
پرفروشترین
##فاده
میفر
کجا
جونیور
##پز
##ضوح
راجع
فناوریهای
چارلی
زدند
میگفتند
کوری
cl
ایسل
کشم
علف
ارتقاء
##وتیک
فلفل
مفسر
##الان
برنامهها
بسط
مایه
بوستون
رسان
عایق
قوس
##گردها
مسابقهی
اراده
کنفد
ارتساخ
قور
انه
##قای
بهمرور
الام
میزد
اکسپ
شعاع
گریخت
محاسباتی
##سوس
کنارهگیری
لیلی
پش
الج
اسارت
##ايیل
حکایت
میزنند
کریستی
##دست
##لال
##per
##وریا
جاسوسی
بروجرد
لک
کراس
منتظر
نقطهای
دیانای
اجتن
چهارصد
دستان
فیفا
##اریا
##تره
انگیزه
##لود
سونی
##اگاس
##ومیر
تلس
هورمون
سراب
بهینهسازی
اصیل
##پایان
بنیانگذاران
معتدل
isbn
الاسکا
پویانمایی
ختم
عاط
منظر
مارکس
بمباران
تنگه
گونهی
##اقت
مبانی
کوره
درگیریهای
کریستوفر
متفقین
زام
هوس
گرمای
گذاری
چیست
مریلند
##پرستی
چشمانداز
تاجر
سیمای
تنفسی
1984
فرضیه
موزیکال
پود
داگلاس
دراینصورت
اجتناب
فرمانداری
##ics
##سیو
##انتو
ناظر
1376
##فول
زنبور
حصار
گرافیکی
بابت
سیمون
رحم
حاي
##عان
درای
بهتری
964
لت
##پایی
مشا
مخف
شکستن
##روب
بزند
تقدیم
کنفدراسیون
محر
بانکداری
کاراکتر
اجسام
سیف
اشرف
اصرار
تماش
اتشفشان
نگران
##فره
سرس
مارول
فیلمساز
خصوصا
ساب
بالگرد
فلات
جت
##هری
کارلوس
لهجه
سواد
ادارهی
ماههای
واری
##ارب
وند
کیا
##وطی
پهلوان
سنگاپور
مبارز
هاشم
نجیب
جنج
گرمایی
##فسکی
رمانی
تنک
تعویض
مدلسازی
inter
دامداری
نهنگ
##هیز
br
راجعبه
قصه
استالین
رودبار
مخاطبان
خلیل
حدودی
بکش
میپوش
درختی
##وانگ
فریاد
دگرگونی
مسم
نقاشیهای
تصدی
زاي
سوری
قفل
##ect
کشش
امیرکبیر
##und
پاره
زمانهای
تیغ
جداسازی
##حدی
نقشافرینی
فورت
##ظری
فرنگی
دانیل
سروده
پدیدار
with
رهایی
##اموز
توقی
مجلات
ریلی
##استیکی
##یکت
ارث
جنبه
برگهای
be
شانس
نگرفت
تنسی
اقتدار
ماندگار
قشلاق
لیتر
کریک
ماهوار
تصادف
حشره
##ff
بات
پیون
روزنامهی
کاد
مطلع
ویرجینی
بالقوه
يی
نوشید
##اهه
رفتو
تغییراتی
کاشت
سامويل
ماشینهای
رپ
دنیل
مخاطب
دهیم
##راتب
خیابانی
دیدگاههای
الپ
مقیم
ذخیرهسازی
شغلی
کبد
گزی
موضوعی
##ویگ
کاف
گي
##ثری
میشن
کلسیم
ماداگاس
رادیک
قايل
##اسکا
دادهی
حسابداری
##السلطنه
راوی
منگ
دیوانه
دزدی
بودایی
te
طاهر
ex
##تقی
بسیج
##ینگز
##78
##استر
##ولار
##رسمی
ترکمنستان
سپرد
##مزد
گرایی
سرنشین
تالاب
کاشانی
##سری
تایوان
##ویر
ولادیمیر
کیسه
گواهین
نگاشت
الکترومغ
##ice
شدیدی
##میده
توربین
انحراف
##خار
مرسوم
چهارشنبه
##کوف
##پردازی
دیپلماتیک
مداخله
مسدود
مورخان
سبزوار
سودان
زهرا
فتو
تصویربرداری
رويینگ
بیژن
اندی
تلخ
التهاب
##ومتر
اوپ
##زادگان
واضح
bl
ذره
بایستی
##جهای
گردو
اشکانی
استرالیایی
me
دستهی
شال
air
فصلی
طناب
نرس
باه
##اریه
پروان
احسان
پرستاری
##ترال
پاشا
گفتن
تهرانی
منز
منشی
اثارش
شعله
میکروسکو
سلجوقی
تعلیق
##النهر
محفظ
حریم
رباط
میزوری
##سرو
اسرار
تنفس
گزینه
ad
تناس
اوگ
شهادت
فرایندی
ماداگاسکار
ايین
سوسیالیست
غلامرضا
مصاحبهای
خوارزم
44
هاست
محمدتقی
1374
جراح
تشکیلات
طوای
اسمانی
پیشنهادی
لژی
پارت
##یمه
هفده
##تز
##نما
ابوع
##اطه
اریز
ماجراهای
صم
تابلو
رونمایی
یی
##حمد
سونگ
##وبا
1980
تخیلی
عازم
راسل
مهره
دیکت
عبارتاند
بانکی
##واک
نفری
دیرین
پله
بانوی
شبانه
##مرانی
خراسانی
غیررسمی
دراینباره
براورده
ریشههای
##تاباد
تورنتو
پرین
بوستان
صحت
شست
##امیزی
شکوه
ایمن
شرکتکنندگان
اشوری
ضرورت
الگوهای
وادار
##ob
خانهای
ایستگاههای
##age
##يیه
بیخ
##ویتسه
##بوتر
##رها
##وندا
مبارزات
جاوا
##فعال
مولکولهای
مقت
##وکل
حدس
سانتا
ap
بدهی
پدری
دمک
نقرهای
سازمانها
عشایر
لایحه
عاملی
ممتاز
حامیان
سفال
حاکی
##رال
زیرمجموعه
وعده
سپید
میخواهند
پورنو
بالت
##ولای
سرای
مردگان
وحش
قشر
##نجانی
پروس
گوهر
لنز
بینایی
##سیه
گیرند
بیانیهای
مجروح
تنا
رایان
درامده
قوچ
بههر
طرفی
معترضان
##یتس
##زیکو
نوشیدنی
فوتسال
خویشا
##te
ایرلندی
معارف
##اینی
مستعار
انتقادی
##che
برنامهای
##گذشت
جهانگیر
مرتفع
اریزونا
##اداری
##اشند
دهقان
نمیشد
غلط
کربلا
دوق
اندازهی
پاکسازی
وحید
هخامنشیان
امیدوار
شیمیدان
اجاره
ملحق
محیطهای
pp
##01
دیدنی
##صرف
مغلوب
حسی
هریک
##ینک
ظهر
الر
گذرگاه
هوم
ترانهای
وقف
سلولها
قوام
باربار
##ition
گفتهشده
گه
سلمان
##بست
ناسیون
##خانو
بیاب
ناگهان
انقراض
گروگان
شمارش
طوری
معده
احیای
بستری
حلال
راب
ارجاع
بانی
فراه
##شکر
رنس
گسل
##iz
استوارت
اقد
##ern
برکنار
##ence
بولیوی
##یشی
میلر
خانهها
##انزاس
بکر
ترابری
حدودا
##هرا
ممنوعیت
جسی
قرص
نظامیان
عذ
نخواه
##ادیان
زیم
##سالاری
اکلاهما
بوند
بستن
صفی
قمر
رومیان
قید
برعکس
پیشرو
##معارف
##گوری
##ادری
خدمه
دومی
تجویز
البومهای
1375
##ive
میسیسی
کفش
##لیف
col
ایزو
مشرق
تراز
یونگ
ذوال
رال
##هایت
نظرس
روشها
##ورم
مربوطه
##ue
کوپ
اسفندی
گازهای
میریزد
##اپی
حکمرانی
زره
گشته
##ونو
ویرجینیای
بابی
بازرسی
ادرار
میسیسیپی
میسازند
دپ
راکت
طولانیمدت
پروژهی
دهکده
نوبت
سیگار
تورن
##حلال
سوزان
احاطه
بلاروس
خیریه
محافظهکار
جونگ
کبوتر
نمونههایی
ممتنع
میکنید
مسلم
ظریف
##يید
بهرهگیری
انهایی
محدو
1982
بیاورد
دوام
فهرستی
بچهها
لیل
##تبی
معامل
نظرسنجی
لیلا
عقد
شایسته
مزبور
بههرحال
تخته
##زبورگ
##امان
کلن
پوستی
توقیف
طوایف
اسحاق
اسباب
یوهان
بهط
کارخانهی
##شدهی
گلوک
الص
جوشکاری
نیکی
واتر
##ویژن
جزیرهی
زاک
##وانند
سختافزار
لباسهای
مشاغل
##جنگ
استری
##end
1976
ستی
ارکانزاس
کله
کرونا
سس
کنده
##جند
1370
میاند
##ژو
دانههای
بلخ
میکش
چهارمحال
##ack
خوشب
سروش
پیاپی
مخفف
ماکس
1372
ویسکانسین
هیچکدام
نین
دوبل
انهاست
مرمت
نامدار
پسری
بهنحوی
تلسکوپ
ماي
دوپ
##ایشی
روزمره
اسکان
موب
گفتهاند
قدرتهای
ویولن
کودتا
عضوی
##مور
مرحوم
عضلات
کلرادو
گوسفند
حامد
##خون
فراگیر
معش
لیز
اسکیت
احتیا
فانتزی
عامی
##ارض
پلنگ
خزانه
##ubl
یخچال
from
ساختهی
ناپليون
خطای
چارت
##تیم
##استفاده
رماننویس
سکس
##یکن
شنیدن
سنند
نزدیکترین
ريیسجمهوری
علوی
رابطهای
توهین
فان
یورک
##شتین
مهارتهای
نقدی
man
گلن
عبدالع
بازنشستگی
im
همانجا
عروسک
پلا
گورد
راجر
##خاذ
فیسب
قطعنامههای
قابلم
حاکمان
شناگران
زبال
##وجهی
پلتفرم
فاجعه
مستم
سیاستمداران
##دال
اتخاذ
راهپیم
##فلی
مناز
##زدایی
##فیع
بهسادگی
##وتخت
تکواند
1979
پیراهن
or
همدیگر
باغهای
هوانوردی
هارد
تاریخنگار
تاجوتخت
##وشن
مربیگری
سیلی
زیان
##اضع
جاند
##قین
##ورث
بیسیم
تشریح
مولوی
مییابند
مریخ
##ight
خیابانهای
همیل
##وریس
بیچ
بهتازگی
مادهای
تفر
سیار
بزرگداشت
مزمن
کنستانتین
##اریخ
##دد
اعتی
##غیب
کامرون
بیات
##فیف
اسپین
##کون
عبدالحسین
اولیهی
بهاء
میبخش
نجوم
موسسهی
هجده
بیدار
قریب
کشاورز
گوست
نوتر
اروگويه
داماد
خودروسازی
اتلتیکو
هفتصد
##ev
حجاب
شهرام
عمدهای
امادهسازی
اسلواکی
لیبرال
کارها
ادمی
##مام
کارشناس
زنانه
سیاوش
بدهند
تضعیف
معاهده
پرهیز
##ational
تاکت
خاست
موی
ابتکار
سامسون
تیز
شوم
گرفتار
نشین
##هماسب
صبا
گراند
مکات
##ةالمعارف
گابری
اوز
کارامد
نوه
مکس
افرینش
مسيلهی
وزیران
##ولهای
صاح
فلا
چادر
بخواه
32
33
متاب
تصفیه
##قع
1983
معشوق
خاوری
شرف
هاب
احیا
##حافظ
صومعه
علل
عناوین
شریعت
درشت
علاء
قرا
دروس
تابعی
سبکهای
روزنامهنگاری
پرستش
نواختن
##اغ
نشسته
گفتگوی
گوجه
پرداختهاست
wh
بصورت
میمون
نامز
1373
تازهای
ضمیم
##مونی
دلاری
عکسهای
ویله
دانشاموز
حتم
چکس
کوي
تابه
ساختمانها
مطمين
یکنواخت
جرمی
بومیان
ماجراج
ma
افق
##لواکی
کلود
صحنههای
دهمین
کمکم
قتلعام
##کرده
##هره
کریسم
حشرات
شگفتانگیز
ببر
نابر
کولی
شورشیان
مقص
##oph
نمایشنامهنویس
##وفسکی
وفادار
واپسین
مفت
##پورت
امدهاند
ژانویهی
تفاوتهای
نخستوزیری
اجزا
رادار
##مول
قلع
امتحان
##یص
برهان
1981
اوستا
روایتی
چراکه
بگیرید
میگرفتند
ایديولوژی
امادگی
موتوری
میهن
پهلو
##خمینی
چشمان
لژیون
دوت
نوادگان
دهستانهای
##روت
سامور
فیسبوک
نسلکشی
بقعه
تطبیق
##دهندگان
سنندج
بدو
خف
##دره
رسانی
##جمعیت
امامخمینی
شرب
##فرنگی
سوسیال
متغیرهای
کوتاهمدت
انتن
##ونتوس
شابک
##فاعی
شبکهای
ثانویه
زید
فوقانی
اتیو
##انها
##پیوندد
مشتمل
رشتهای
حول
##سمی
##son
##سیتی
یافتهاند
عس
##سیسکو
ارسط
##گرایانه
مجتبی
##گاوا
مناق
اماکن
دکترا
گریز
ابوم
کمر
صادقی
استودیوی
##خیم
بهو
عظیمی
پلاک
##اکت
بهادار
##فتد
پنیر
##پذیرفت
فرمانروای
اتیوپی
36
##کیم
##اتن
سرتی
##گوین
رکاب
خسارت
استفادهی
##ثه
سوالات
لفظ
##وزیت
مزارع
منج
##راتور
عبارتی
سفرهای
عرفانی
بریتانیای
##گانهای
پرنس
میدید
ارگانی
زیرین
اکثرا
comp
درمی
ژنتیک
کریسمس
مجسم
##ong
معینی
واگن
ابهام
##یلو
انتز
کوخ
وسیلهای
ازجمله
معرفت
ابوب
جاذبههای
میمیر
بررسیهای
موضعی
##ستین
##سترن
مطالعهی
پوشاک
##فروش
بشود
نگاشته
ایدههای
ارسنال
##طالب
بلورین
##فشانی
خواهرش
نرسی
تقاطع
چکسلواکی
دانمار
مبه
مجته
الفبا
نظریههای
##ذیب
حات
وفات
مغرب
ایستاده
بتا
عضلانی
راف
دیسی
مشکلاتی
جال
##عال
##ورس
فراخوان
##port
کلار
لیو
##سلان
صلیبیون
رشید
187
داروها
محتوا
نبراسکا
60
sy
##وتس
شنیده
باتل
##زیانا
##سینا
المانیها
##گروه
##خانواده
پاداش
ششصد
ادامز
##وکر
الگوریتمهای
1978
سپاهان
##کریم
ویژهی
کشاورزان
ناخالص
مارکسی
میگذر
اوان
جف
مختار
ناشناس
لع
کرن
هنرستان
##اندرا
ساکنین
گشتاور
حفره
حب
اندروید
هرکدام
زایمان
مکانیسم
قابلیتهای
بروند
##ازد
##ومو
نیروها
انحلال
##یلن
جوهر
نسخهای
دبستان
پراکندگی
غزن
هیجان
پستانداران
موزهی
مشاهیر
متخصصان
عزت
so
سانسور
فزای
##دریش
سرمایهداری
پارلمانی
اضطراب
بانو
لاهی
دولتها
کنگو
ازمایشگاهی
اسلوونی
بخارا
186
دنیس
برداشتن
فش
ذخایر
##پان
##ثیری
پسوند
استخر
شوالیه
جانوری
دستاوردهای
قلمر
ریزش
ab
سفت
##زند
فراور
تعیینشده
تضاد
چاک
اندری
دند
زاگرس
45
نثر
یال
پیشینه
گذراندن
ورزشکاران
جغرافیا
الش
پیچی
سازندگان
ریشهی
سانفران
رمزگذاری
##رهی
##انیت
##شاهده
هشتصد
اعتیاد
ژنو
سیام
##ath
رایش
صدام
##وییم
مختلط
فستی
مکن
فرح
بازیافت
1977
غو
پیوستند
##انان
دهندگان
میتوانستند
پرسن
نوازندهی
ذاتی
صریح
##کلن
تعطیلات
ایو
درستی
گردشگران
سوخته
پایینی
دیدی
کنیا
اهنی
بهزاد
دشمنی
گویشهای
##پات
##رافت
بهطورکلی
1971
ابوهوا
دانمارکی
1970
سیبزمینی
سمر
بازه
کتابخانهی
سیستمها
130
کانتی
نوشتار
قابلمشاهده
##داف
فلسفهی
فریدریش
سرگ
##انگا
انز
##یتسه
کدهای
اندیشههای
سانفرانسیسکو
ني
روستاها
افلاط
اوکراینی
حتما
پاز
بارندگی
ابوبکر
رسانده
##اجد
بهدرستی
##ینها
##ترا
اشعه
ماسه
هریس
پاتر
ارب
موبایل
درویش
بینهایت
وفاداری
فیت
ماهر
انحصاری
تاس
##ازون
داراییهای
##ولتی
برخاست
حاشی
متناوب
فیلمسازی
##بندان
##زیز
اشیا
رایگیری
جنسیتی
موشکهای
ایلی
دیفران
##وبختیاری
مالیاتی
نصیر
مشاهدات
چهارمحالوبختیاری
رویال
نشاندهندهی
گزارشها
مقامهای
1973
اتی
سنین
اسات
ابوهوایی
غری
##اقض
میانداز
##راع
##سبز
منعکس
##نگام
نزدیکتر
اقیانوسی
##تباری
نروژی
رکوردز
زان
موان
##ou
معنایی
جنبشهای
سایتهای
بچ
##بودی
بخشید
اندرسون
جلوه
ترانهسرا
دونده
##ستیک
##شدگان
شخصیتها
نگهداشتن
##یاری
والن
نگرش
##طلاح
عموی
##اسیم
گای
نامههای
کوپر
زیتون
##اقر
ایمیل
پیمانه
شانه
##خط
لیون
ابوالف
تبر
داب
##بق
راضی
مرات
مهندسان
مبادله
مسافربری
تردید
##دشت
تخل
##ts
##ظره
بهبه
فستیوال
بچههای
شانگ
منفرد
نشانی
طراحان
کابین
##یرت
موجودی
##ite
##az
مولانا
1371
هاک
انتخابشده
نپال
فاش
چرب
توپخانه
ترشح
مقدونیه
حاد
1399
اتشفشانی
سیلندر
پرب
##وپل
فرشت
بازبینی
اشوب
عفو
رفسنجانی
38
لزوم
عرص
فرانکلین
نیتروژن
##فیل
##کینز
بويینگ
بیند
شمرده
گمیناهای
پیشرفتهای
باختری
لوم
ترمیم
خوشه
ریل
سرش
رونالد
دیجیتالی
مواضع
##اکم
جاود
ویا
##گرها
ستارهای
تجربیات
ذات
بینظ
##ریکس
تخصیص
history
تزیین
##بدی
بهاشت
سرامیک
جلالالدین
باردار
پورنوگرافی
پکن
غیرممکن
رویه
الهیات
90
لان
میسر
##ذب
انوش
نامن
ارتد
انگلیسیها
سینگ
یوونتوس
ماف
مستح
جیسون
برجستهترین
بندرعباس
شوگون
رحمت
عاج
برامد
چشمگیر
1972
بته
شونده
تولیدکنندگان
سکههای
هواگردها
زودتر
مسلط
تلفنی
طالب
اصلیترین
منصب
##زیکی
برطرف
اجازهی
ملکی
میدانهای
رینگ
ساي
دزفول
صرفه
اعتباری
تربت
تماشاگران
بلوغ
حالات
چغ
عجی
اوبر
##برانگیز
نیمهی
##وتوپ
رویا
خلع
1968
اینچنین
ستم
##بیای
لويیزیانا
ایسلند
لتونی
##ire
ولف
خالد
صوت
مصرفی
کاندیدای
##مک
بهرهوری
شکارچی
جنیفر
##ریسی
شهرکی
نقشههای
اسپارت
خستگی
نمیدان
منظوم
car
ادولف
##اوات
جابهجایی
##پرسی
گوین
ریتم
همیلتون
##الک
پروین
##راش
ساختند
متقاعد
ضای
##وگو
بستهبندی
کبود
##na
الای
##بیسی
##اتیو
هزینهی
رنسانس
راهپیمایی
##کلا
دیابت
صداپیشه
##اندازهی
عینی
مادرب
دايرةالمعارف
نصی
هلن
گشود
اینک
اتو
جاوید
خیام
##اهب
نظریات
محبوبترین
لق
نمونهی
جاه
دیت
##زیدن
##iss
خداحافظ
ویلهلم
غیرد
ورزشهای
مذاب
روانه
گذاشتند
خاتون
معیارهای
مورگان
سواره
تعبیه
##ندو
نامشخص
##ment
واردات
مکانیزم
اسپورت
پرجمعیت
سپاهی
دوستانش
برنارد
اسکو
تروم
1368
پناهگاه
بنزین
وصیت
اتریشی
کیس
بحر
میشناسند
جاز
پام
##چک
قلمد
رقابتی
ارمغان
تعریفشده
##اسد
هندبال
جریانهای
تواناییهای
نوازندگی
ظروف
یاداوری
زعفران
he
##نمای
نوزده
تحمیل
علما
1975
پرسنل
انبا
امینی
اعلان
هنگامی
دقیقهای
کمونیستی
تحقیر
ژورن
منیزیم
خاستگاه
قشق
ژی
ناقص
میزیست
سازند
سامی
خاکستر
شوشتر
##خم
محتوی
انداختن
##يیان
سیدی
1400
شریعتی
سهشنبه
چقدر
سالیانه
غض
چنگی
رکن
##up
مروارید
ولیعهد
روزها
پناهندگان
منقر
ورشو
غیرفعال
مبارک
عادت
برو
مامون
موفقیتامیز
شکلهای
ردیابی
یکای
##جانبه
تهاجمی
هردو
##سرخ
برجستهی
نامو
تصاحب
اسپیر
نشانهای
پنبه
جاک
##غرب
مساجد
حوضه
##ost
ملاحظ
منقرض
دستمزد
دانشنامهی
##لوف
پنجشنبه
فردین
گله
روزنامههای
گنابادی
اضطراری
موادی
فرانکفورت
مضمون
دایی
امیل
##پسون
##اصطلاح
پذیری
بیضایی
انتون
##يود
فقدان
مکتوب
گواهینامه
ارسطو
34
نداری
##خوری
مصرفکننده
ببینید
زندگیاش
##نیک
##کاک
##ختر
طبقهی
صرفنظر
اکوادور
##سلطان
بنده
ازادگان
شکستگی
مطابقت
شاهرخ
پنالتی
زرتشتیان
ضعی
##مهدی
بالاتری
قلمروی
اپرای
دمکرات
خند
لیند
سیروس
مثنوی
##طیلی
قراي
چوپ
##ضار
بهرو
بیشینه
روباه
شبهجز
ازانپس
گویی
##لک
بهاندازهی
1969
نمادین
بهسختی
صفات
بهکاررفته
ابراهیمی
جیک
نده
مسو
کرمانی
1967
مخفیانه
احوال
##لوک
##قهر
بگو
##لیمی
مرم
##وزا
نساجی
صخره
##کاس
##ضر
انتگر
بیماریها
بستک
دروازهبان
اعطای
شدم
فرهنگهای
خبرگان
1974
اصطلاحی
55
پشم
حالتهای
نمیباشد
مسطح
ماهنامه
ریختهگری
شرکتی
مختر
فیض
سریالهای
اختیارات
مختصر
لاز
##بیده
cam
باهم
مرسد
قزوینی
جاذبه
کردیم
وبلاگ
لوسی
طرحی
پايین
نهر
##امدی
برخوردی
قاجاریه
نهصد
1965
افراطی
رودی
فک
##وسه
##نویسان
دقیقی
پشته
##امریک
فرمت
کامپایلر
بهاصطلاح
دانلود
بدترین
پارا
مشکوک
طلو
بیح
دستکاری
محدودهی
چریک
شرکتکننده
##الیای
غبار
نیکلاس
ساقه
انزلی
پایههای
تحرک
joh
سلیم
طوسی
ماخ
کردها
ملایم
سیمان
انقبا
نمایشهای
سعادت
حلب
ایان
اعلامیه
نرمال
کلمهی
پراگ
بازماندگان
##اندرو
ادو
یوفا
ذی
مورت
فرور
سرزمینی
##مپ
متنی
##وشو
کیان
یاق
هرود
لاپ
عمود
حزبالله
مالت
ورا
##پری
##ندگانی
گول
توح
نفرت
حمزه
اهر
##زود
اسمی
فرانسوا
اتهامات
لطی
اهک
مینا
##use
همدانی
اتشکده
ادراک
اینطور
##فتن
البومی
فنون
بلوری
پتروشیمی
ابوالفضل
خت
##باقر
پلاستیکی
##ابا
نیایش
کوفه
هت
##کینگ
باورهای
خشمگین
فاشی
پستی
محبت
گلها
لارنس
##کنش
##اکان
##قند
سربازی
des
فردوس
مدر
سادهتر
کروموزوم
بازده
اذیت
##ict
پیوندهای
ناتو
##بخشی
ردهی
گما
##جاری
عاطفی
سامسونگ
اگز
pol
مایعات
art
##امتی
فولادی
انچ
ارامی
ارامنه
منتقدین
مخابراتی
گردهم
اژدها
نامناسب
غزه
##چنگ
37
##خال
شنید
##نهام
فراوردههای
تبی
##شانی
##یاورد
قانونگذاری
ارزو
no
تاتی
##یافته
##کوور
پشتیبان
معدود
پدیدههای
فواصل
اسدی
تشریف
اظهارات
معج
york
سکو
##مید
ماریو
امیزش
مملکت
##جت
منو
اسلاماباد
خواهرخواندههای
چلسی
بصره
##غانی
نوا
بنفش
تکمیلی
تراش
##ینس
شناسان
خرگوش
ارمنیتبار
کاراته
سلطانی
سیمین
نبودن
برانگیخت
معترض
##art
گمرک
اسطوره
سهراب
صاحبان
##وسکی
تابعیت
غنا
پنت
گوم
مواز
ارغ
مردانه
مارکوس
فا
185
افتادن
سوگند
تایر
خسته
##ربندی
شکوف
مترادف
باورند
اویز
رانده
درن
بریده
کارول
بنگاه
شارژ
publ
##ندههای
ماهیان
بافتهای
تبل
خوک
هیم
##ne
صحرا
اوباما
تکان
##اصد
باختر
غریب
داراست
انتصاب
بازمانده
فوریهی
عنکبوتی
پاهای
انص
##ایشان
##پرست
ناتوانی
حجت
دشواری
سوت
امیری
مهمتر
والد
##گلی
تلگراف
##ide
##بیک
##ویدی
ایالتهای
ونکوور
نوید
##وکسی
لوی
##زمی
ضربات
تکلم
1960
راهبردی
بهطرز
نبودهاست
پارامترهای
فاتح
تط
صید
یگانه
اورگن
##یدو
جیرفت
الکترومغناطیسی
تنهایی
ارواح
حیوانی
حیدری
جادویی
##نشان
هواپیماها
پیامدهای
بگذاری
##طنیه
سوابق
پیری
ایدهال
سویی
تعمیم
فلش
محفظه
##اریهای
مغولستان
رجال
همانگونه
حزبی
مقرر
کاراگاه
##کات
توکو
شوهرش
ضمیمه
کردهبود
اسیدهای
چیزهایی
سامورایی
روسای
##فیعی
عبدالرحمن
بورک
اینستا
متاخر
یونانیان
کاظمی
1357
ناموفق
##زیستی
##ore
دیاکسید
1369
پوم
##قام
ارشی
تدریجی
اندازهای
##ata
غلات
fl
اشی
مثبتی
قسطن
عتی
نما
##ویتس
هرزگوین
##ودو
زیرخانواده
جنرال
قنده
کارن
فاضلاب
لاه
نکات
پوز
##فیزیک
رایانههای
استیاس
کورد
سالار
مستوفی
فلو
زانو
نمره
مدارهای
سرتیپ
محدودی
ابانبار
##ظاهر
چس
پلیم
اوین
##برن
ناچار
اتصالات
اسماعیلی
بذر
##جامد
##ier
##pl
گونهها
کمیاب
استنلی
دفاتر
زابل
طور
##سالار
##ناز
نمادهای
فیلادل
نوشتاری
بیرجند
چان
##جههای
موهای
امامت
پاور
الزام
دیز
##ماسی
صحرایی
تالش
انسانهای
لینکلن
سیسی
جلگه
چیزهای
تقل
##بیری
متاثر
ریال
اوا
جملهی
بیکاری
حن
طولی
خبرنگاران
گشایش
رجب
ساعات
مولد
میفه
شرم
تایم
هارون
عامیانه
مسایل
کوهها
شهرسازی
مهربان
شبانهر
میکرده
نامعل
جلیل
محمدباقر
مشکلی
##لها
محوری
سازههای
دارید
ژرفای
##یو
##رفی
دیه
اموزگار
شجاعت
حباب
نست
##چینی
اسدالله
##رکن
مذاهب
مونتهنگ
بشریت
بسازد
ge
وزارتخانه
یاداور
ژنوم
یوری
کروی
استفان
عبدالکریم
قسطنطنیه
انجی
اوردهاند
شاملو
##سباکس
##واسته
رنگها
مارکو
##سپیر
ماجراجویی
احضار
الیاژهای
رویای
لوکزام
##ماس
##اهام
##سیت
اوه
##الیستی
بتمن
مراقبتهای
عنکبوت
##ادین
یکصد
ترنس
بلوچستان
تابهحال
میدانیم
فراگیری
ماموریتهای
cr
خطرات
کیفی
پلان
عملیاتهای
برسند
فیشر
پوی
##فرض
نوب
گذران
اپارتمان
ببیند
رادیکال
##ریکو
قايممق
کارهایی
ترقی
انداخته
تصمیمات
ماوراء
تایت
الکترونی
عبادت
نازیها
گریه
فیلسوفان
بنج
میله
صحرای
دایرهای
کتابخانههای
یادگار
سکته
وارث
میث
000
عطر
میامی
نوازندگان
استثنا
وانت
##ونیم
نیافت
منظومه
##وشیما
انجمنهای
بمبگذاری
کانتون
رانندگان
تشیع
##عون
اسپرانتو
متعهد
عماد
خدماتی
سپر
میلیمتری
جهرم
##یلت
قلمداد
گات
معاملات
خشت
تيودور
تمدید
##سفر
##غربی
یکسوم
بارگذاری
پايولو
نوبون
سیستمی
انتها
1945
یوتا
##يا
شهرستانی
رییس
هیچوقت
##وارتز
iran
ادا
کرانه
##ism
اشپز
دیفرانسیل
مادربزرگ
برزی
##وهانس
اسیبهای
زوال
##گیرنده
نداشتن
شهروندی
ایی
بورد
کوار
ارمنیهای
نورت
جاناتان
تبخیر
سلسلهم
ناحیهای
سرل
##الحی
ترکها
نیرومند
کالین
محتر
الهه
لاستیک
##ver
##موث
##غیان
##بها
##باشی
امست
متنوعی
ماهیگیری
امضاء
برهنه
اتلتیک
قبال
میاف
مسلحانه
##ونس
متکی
پره
افری
##سنجی
محصور
##ینگهام
نظریهپرداز
1964
سوان
##راد
میانجی
نوبوناگا
##قول
مچ
##بولی
فروخت
ماندند
بفر
مهمانی
رویهم
اریایی
پرفروش
80
##دادی
دیار
قطره
نیما
حیث
1966
##ناطیس
##ace
زغالسنگ
مونتهنگرو
استرس
##اووس
پنجاب
1352
##rans
بهاشتباه
ماب
##ومک
تهویه
هامبورگ
##ستقیم
لزوما
تنکابن
مستعمره
جهنم
تفریح
شاپ
##چای
##فیس
تراکتور
داروسازی
نیلوفر
زدهاست
##land
##بیلی
صامت
فیلد
حمد
گیری
##ير
لولههای
لاو
اداب
مطبوعاتی
##الههای
سرگذشت
پیشفرض
##اوران
یافتههای
مسيولین
دماوند
بوکسور
موانع
انقباض
شرعی
رکود
کارلو
نوکل
دستگاهها
نوح
امازون
اساتید
داین
گابریل
اویل
تنه
تپههای
کالای
کالاها
جلوههای
شفاهی
میلیونها
رخداد
ببرند
قلعهی
پترزبورگ
افسانههای
ناصری
فسفات
john
غروب
##ادان
مارگارت
شعرهای
عصبانی
نوزادان
متخل
داراب
محلات
حماسی
قطعهی
wor
علمیت
ابنسینا
بهوجودامده
فیلادلفیا
بامد
وانگ
##ربن
سوسیالیسم
کازرون
##الاس
متفکر
شنوایی
تکاملی
هموار
بیولوژیکی
کاوه
میخوانند
بینظیر
غافل
##راغ
نارنجی
فریم
کارتر
هرگاه
کمدین
بایگانی
الحاق
نبردهای
بارک
##وبر
اشباع
باشگاهی
سیبری
امریکاییها
مونتانا
اریان
نخب
اخوند
مانويل
##روک
اره
گراد
هلال
ایزوتوپ
کنایه
علیزاده
استبد
پتاسیم
میبخشد
سیری
نوی
یوس
گرانش
اهسته
سنگینی
##شایر
برگردان
مناظر
میکروسکوپ
184
توضیحات
قندهار
قری
گان
دقیقتر
فایلهای
احتیاج
صغیر
##باف
همشهری
کرهی
نوبه
ملودی
فعالیتها
فصلنامه
ژوزف
##تبار
شدگان
اقلید
سوق
قویتر
اینستاگرام
یکسو
اقتباسی
تفلیس
توافقنامه
طع
##ابهای
خوشنویسی
رودری
ناکام
51
بپ
##چا
میبردند
ترانزیست
پیشگامان
##امریکایی
افشا
مسافرت
##ظف
باج
اصابت
رشتهکوه
باربارا
لوبی
چا
میساخت
عمدهی
مصلح
##اخوری
اتاقهای
فام
بازپس
سنگها
زهره
لوکزامبورگ
پاست
تراشه
نقشهبرداری
بگوید
خلاقیت
بههی
نمایی
فوتبالیست
طلوع
مگس
نپذیرفت
##فیر
دیواری
چتر
##حمت
بکن
شرطی
بوز
سفری
##ensis
##قش
راگ
جامعهشناس
دوربینهای
##نگر
کلاین
لیپ
اطلاعی
جادوگر
سرشار
مینوشت
##اسیا
پلاسما
##ادهاست
##ضوی
##بیگ
##بودن
شجریان
روشنفکران
اودا
عزاد
قارهای
مصور
1962
بران
##اتفاق
##شتن
##راکی
ارتقای
حرام
پژوهشگاه
یابی
##اکر
بازگشتی
ویژگیها
ماسک
سرویسهای
رفتوامد
چنگیز
##قیمت
یوتیسی
بتهوون
##روه
کسری
soc
##گود
راش
پروتيینهای
هاوایی
بلوط
کاروانسرای
باف
زیبات
لگ
تناسب
اورند
دلفین
خونین
##ung
##عودی
خداب
1356
افلاطون
باشی
نامهی
دارنده
مقاطع
مشخصه
بشکه
##پسند
نصرت
فراخوانی
اسفندیار
هرودوت
موظف
بازجویی
ثالث
جادهای
بخواهد
قوت
وم
##گشایی
بریتیش
دربند
امارت
##اگون
پالایشگاه
ورماخت
توکوگاوا
بیفتد
غیرع
کاریک
نمیتوانست
معاویه
کپس
نارسایی
موشکی
انگیز
##ازههای
فلج
معلمان
تناسلی
ین
درهای
راکتور
ادل
پایگاههای
گوردون
یاقوت
bar
کادر
پیکان
تداوم
قح
هوک
رویار
رسانید
##نتس
##پژ
الوار
ترغیب
علیاباد
ماشینالات
اعتقادات
میکردهاست
##برا
##ستول
##لیوس
پناهنده
ماکرو
هاگ
ایرانشهر
##نینگ
ستارهی
##ژان
بهمح
trans
محلههای
لمس
استارا
ماگ
sch
شواه
وت
##الود
مطهری
##ican
##لوم
هرمان
تاد
##ساد
##مدار
شاهن
مدالهای
عبدالعزیز
##ft
##ونیت
سنتهای
اقدامی
بهمحض
##لوی
داود
ژويیهی
صفویان
سفرنامه
جعلی
قیر
پنی
همیش
الغ
بیگن
ملوان
دستگاهی
دانستن
یهودیت
تداخل
فرسایش
اردوی
تماشای
تبیین
مفر
اتمهای
بلوم
هواف
غواص
##ونیست
مینو
کامران
سیرجان
عروق
گوجهفرنگی
رنو
عار
فیلمبردار
نشدهاند
یازدهمین
نابرابری
خفاش
##ind
رنگامیزی
روزنامهنگاران
نحوهی
سالیان
مقصود
مبهم
مخترع
زیباترین
##ملی
اسکای
سقط
نکردهاست
حبیبالله
es
جاش
جبری
##وبین
شخصا
اجم
##کنندههای
برنامهریزیشده
ser
##همپتون
پروتستان
نایبال
خالق
جابجا
مجلسی
ضم
غیرمستقیم
محرمانه
el
##چرز
التو
اطاعت
##ايلی
کانالهای
ناخواسته
خانی
یل
علنی
شیروان
لوکاس
48
##se
##ick
نمودهاند
شواهدی
em
##شاد
بودا
دستاورد
مقالهی
انتاریو
لایهی
مشورت
علاقهی
ملخ
1963
توییتر
دیگ
##وارا
متراکم
مصرفکنندگان
##اسوی
قف
گورک
معلق
دوشی
پیشه
خاطره
##زیا
صفحهای
اتومبیلرانی
نخبگان
وری
لینک
علمیتخیلی
بهاسانی
کارنامهی
نامنظ
##فیقی
فصلهای
ربیع
لاي
مییافت
##اندند
کاتالیز
ویراستار
انتزاعی
دلیلی
##br
مستمر
فروشنده
##مالک
پیامهای
اپیزود
بجای
لانه
کشورش
شهرداریهای
rev
##ology
تکت
مدیریتی
اموزشهای
##ember
الدوله
بهجا
ضخیم
##راطوری
گسسته
خرج
عوام
لاکپشت
خنده
##ژنی
نوروزی
دانشاموخت
ليو
کیپ
پیکربندی
نرسید
انارشی
هجر
##گاد
ایرلاین
وصف
39
دلی
##ium
برپایی
تنب
نحو
po
سمیر
##هال
هواشناسی
##ations
هلیکوپ
ظلم
برکلی
زمانبندی
شلوار
gu
الکلی
مداری
##مینگ
##وبری
##raph
ژولی
معرف
کارايی
معماران
بازرگانان
##فلیکس
##یاف
کاغذی
تطبیقی
زو
قاسمی
مهاباد
شکلگرفته
نوشتهاند
کنسولگری
ابش
ارزشی
نیکل
کاسه
کریمخان
دوبله
##هایشان
ارل
اگهی
فرستنده
mon
ترمین
تیرماه
سیگنالهای
انتگرال
قايممقام
ماین
##مهر
وزیری
محلهای
رایجترین
قناتی
اهنگسازان
شیری
گنو
یوز
##ron
سیسیل
ضل
استکه
معاد
ریگ
چاپی
موقعیتهای
mat
رند
##مث
گراهام
ایدز
1350
طایف
پلو
##ودشت
موجودیت
بسپار
قاطع
##ولینی
##سیسم
بانکهای
نکردند
world
لاش
##جهت
احادی
نتفلیکس
کامپوزیت
فیروزاباد
جیل
هنج
##جمعی
دههزار
کلینتون
ساواک
book
75
##اسل
فرج
تاثیری
بالی
قمی
رودهای
تکاهنگی
نبردی
گرینویچ
70
ارگان
1354
عباسیان
بپردازند
بمانند
نقدهای
شکی
اسپی
شاخهی
1367
کلرید
بلش
میخايیل
میچرخ
عزل
##کاوی
بستههای
نصرالله
سیلیکون
41
فرانتس
باشم
بیننده
ریگان
پنهانی
قشقایی
do
همهجا
نادرشاه
نادری
##جنس
##ach
منسو
##وسان
##پیچی
شاهنشاه
اصولا
1351
میگردید
گرند
پیشبرد
تمس
صدف
تاکسی
حص
چیره
##ton
اندرس
ازادسازی
گستره
جفری
##عشی
انشع
##ارهها
پرکار
مشروطیت
##اریف
##ینیان
خرابی
خودروها
بهرهمند
نداشتهاست
تومور
ناپاید
یوروویژن
ریور
اسکاتلندی
بامداد
شدهای
کتابهایی
نسبیت
گلپای
مراغه
مرتکب
متعاق
مغولان
تکواندو
صرفهجویی
برزیلی
##مهای
ابزی
پژو
پوشانده
خیابانها
شبهجزیره
وظیفهی
زندگینام
میبینیم
ورس
مشرف
دیوارها
لاهیجان
##راز
##امز
##روپ
اسانتر
متحدهی
گزید
##وشد
متمایل
غیردولتی
ضیاء
##زهرا
مشای
تقارن
بفت
پوپ
##ترن
پیامی
##گرفتن
1961
اوستایی
کامیون
##خوش
کمرنگ
بدتر
کارگزار
جنت
##جیان
کاتال
کمونیسم
##وژن
افرین
رودخانهای
نقاشان
##واس
##ram
ساختهاست
دوستش
واژهای
باکتریها
کاج
گالی
امستردام
هربرت
ارايهی
دزدان
per
##ood
##اترا
##وزین
بخشیدن
شکلات
ویديوی
نایت
اکر
##orn
ناراحتی
غشا
##ایار
محمدحسن
##ابوری
اسفر
هوگو
عملکردی
کاپور
واجد
##وفه
خانهاش
مهرماه
سرخرگ
ویلا
استعفای
##iew
خاش
ذرت
اراء
خواهران
متعاقبا
وسترن
##ونیان
اندوه
پیوندی
##تینمنت
گرسنگی
##نجر
##گذر
##hen
سيول
##سهای
##66
##ریفی
شکسپیر
سرداران
##تش
محلهی
طاهری
پروندههای
زمانه
ارزوی
لودویگ
الط
پادگان
##یرانی
##وتون
##ويه
1956
امتیازات
شاف
زندگانی
ریموند
شانگهای
ایپ
نیوتن
دانا
ادوار
کدگذاری
مادام
1939
انحصار
##دادهشده
جیب
منفجر
fil
لاین
وبر
ترمز
اجداد
ملایر
fran
درصدی
بگیریم
گیرندههای
##شویی
مهمات
##وریک
تصوف
هیات
محکومیت
ربوده
qu
بردهاست
ستارههای
سرسبز
مخرب
عده
##گال
##دارد
درهمین
تابعه
1953
رحیمی
یزدگرد
cent
زب
وایل
##دارم
سومالی
مجموعا
ژرژ
لکه
نبی
##اویری
اسکاند
1942
ربط
راهح
خوشحال
خرما
رویارویی
صبر
درباری
تایپ
سیاهپوست
شفافیت
amer
نخود
واحدی
طولانیترین
اسایش
ارسلان
فیزیولوژی
اتوماتیک
2021
سکوی
بروکسل
فصول
هفتگی
فشارهای
خاد
##aw
دستوری
نیزه
نورمن
پرستار
هلیکوپتر
ایش
پیشت
بنایی
##ult
رصدخانه
متیو
##یدرضا
جعبهد
بوسیله
قرارگیری
معاش
کنندهی
امپراطوری
توران
1959
لورن
##اهل
##تمام
میانرود
1958
ارنولد
تلفیق
مستطیل
تکذیب
جلدی
موفقیتهای
درگیریها
اسکندریه
نوکلي
ثانی
محراب
سویا
کیفری
تزيینی
##ru
تصاویری
دلایلی
حقایق
سوارهنظام
انچنان
کافه
توهم
امانويل
فنلاندی
ماهوارهای
65
##رع
##ثار
نامط
بوکان
سامانهی
اسیبدیده
برکناری
##حور
اموی
##وکاست
نجومی
لوکس
تیک
لاج
پسته
مرج
##ملهای
منهتن
##رههای
واگذاری
وقفه
پاراد
گوستاو
##ale
ماشینی
ضلعی
53
پروازهای
بردهداری
رباعی
##فورم
خویشاوند
امتن
حماس
رساندند
روحانیت
##خالی
##فرما
##کیان
همهپرسی
اصطلاحا
##نهایت
قفس
همگان
ایرنا
نوسازی
##مایه
میزنیم
اکادمیک
مرسدس
et
##خد
یاخت
نمادی
پروتون
موفقترین
کوتوله
نازل
##مدان
سپیده
گنجانده
ستونهای
متابولی
استکهلم
انالوگ
کارون
ابوس
##بانو
مصاف
بارانی
عبارات
تیغه
43
سینی
لوز
بهانه
##وسیان
واکر
همیشگی
سومی
نیومک
کارخانههای
گوگرد
خاق
##نوس
##خشی
##ونیوم
##يیسی
سطر
مسيولی
امتناع
بگذارند
##تایی
دستههای
پرسید
مسابقهای
اموزههای
فاطمی
##اریست
برجای
قیمتی
قرض
رمانهای
64
##یاگو
مستر
مهاج
ساترا
سرنگون
##بوس
عدسی
##nal
متیل
احمق
##قبول
1941
اسپن
زراعت
##الیم
پایهای
اجلاس
صنعا
متناهی
خلاص
سوزن
سحابی
هاوارد
کووید
مرورگر
فاین
دخیل
الات
هیچچیز
العربی
خرمشهر
صهی
##ارند
علایم
کالبد
ساوه
مواجهه
##یروان
کارتهای
مرگومیر
تسلیحات
نیومکزیکو
500
##وتین
نقوش
##تاون
تیتانیوم
لوپز
انتیبی
دامنهی
غیبت
گرایشهای
سرنگونی
ایرلاینز
ناام
نمیتوانی
##قدس
سارد
اهم
اورانیوم
نشانهی
##انتیک
گنجشک
شبی
هلس
ایراد
ادای
##ina
عج
مژ
##ادره
شدیدا
اسرای
گزینش
کاسته
لیکن
der
##حاب
##دهایم
شیوهای
تاجگذاری
جواهر
الملک
پروست
مغازه
ازادیبخش
ایهی
ارارات
تعدیل
عرضی
متوفی
فرانکو
باطل
شاهکار
حمیدرضا
داستانها
war
جاهای
##انیک
ارقام
کامیکس
صدراع
مقدمهای
سبزیجات
هستهی
سهامی
گردهمایی
قرانی
نیمهشب
امیخته
انسوی
غذاخوری
1353
##زیو
##مانت
مشتاق
محدث
1366
##طلبان
کاسی
##ووی
میداشت
جنایات
گیگ
پیکچرز
lond
تانز
نقی
زبانشناس
پیران
خسر
##خسرو
درح
##ock
پنگ
المع
جلالی
فرستادن
میفرستد
گرای
اخوان
سبکی
عملگر
رودخانهها
سوءاستفاده
پون
##ادهایی
##وینت
تیرانداز
نامنظم
بقا
سرگرم
شیطانی
امداد
بابلی
دگرگون
بایت
بروم
اشارهای
بهدنیا
بقای
##bert
البی
اران
پرور
راهکار
شبهای
متحمل
تطابق
رودخانهی
ولت
دستهجمعی
راهنما
ho
شوی
غدد
جنگافزار
همجنسگرایان
مونتاژ
خوارزمی
سیکل
اورتون
ایمی
کلک
تحصیلکرده
ابیطالب
تنظیمات
اتمسفر
کارايیب
کارتون
مادها
اتشبس
mo
نویز
یوزف
قرارگاه
ابرقهر
احساسی
بمبيی
انتهایی
انجیر
##ووو
52
صالحی
طغر
پوستر
london
42
شون
##بید
پارسیان
نکنند
لطفی
گروههایی
کریمه
ناار
تانگ
دات
##اعظ
خواهی
لنف
فند
هانی
ارون
میرفتند
فضلالله
بافی
یکسانی
ماهور
مخازن
دانشاموخته
فضانوردان
فرصتی
##یتری
int
##سینی
##ستو
لغتنامه
هیدروک
گرانشی
جمجمه
##چهها
حماسه
بانکها
جولیا
##جاز
مصارف
قبیلهای
گارسیا
متناظر
##yl
راو
مجرای
1365
1955
تکراری
نامزدهای
جفر
مته
تیمها
بیرنگ
جوانترین
الکترود
عضله
سنجی
بوگ
##دارنده
##جیو
بدنبال
شاعری
مطرحشده
دپارتمان
گسیل
##پیر
تعاریف
نشدند
میخواهم
میخواهیم
استوایی
##ابرد
جنازه
##سلر
مونترال
عاشورا
بهاری
باغی
ساختگی
مرتبسازی
ind
مقدمات
میهمان
ایدهی
##رسان
فارسیزبان
امیلی
978
کیو
نیکو
بورن
فرامرز
چرم
داشتم
کوشک
اسیدی
har
بهبودی
##ولههای
فقهی
سادهترین
درخشش
ناهنج
اقلیمی
حقوقدان
کورین
129
1946
رحمانی
لنگر
it
گریس
وارن
##رابطه
##اسای
##رکان
ورشک
1950
تحریمهای
##ثال
برکه
سردشت
رومن
قدیمیتر
دنبالهدار
بشمار
شلو
##راء
ناراحت
سریعترین
بیکر
گرده
پایانه
فرزندی
گناباد
1957
ناتمام
انعطافپذیری
خداحافظی
##گانهی
تجسمی
قسمتهایی
ایلند
ارمنیها
حلقههای
نشستن
پینک
متقارن
##ومری
اهو
تجسم
صمیمی
کرای
سلوکی
گفتههای
##خواب
ملاحظه
زهی
نکت
گنگ
برشی
روزنامهها
قال
##شاخ
مینور
تجهیز
واسطهی
قرايت
بنجامین
##خشان
##کتریک
بعث
استخوانی
روانشناختی
خشکسالی
وارنر
نیشابوری
airport
محترم
رات
فریت
رویان
##کارت
تورات
تمرینات
بختیار
چانگ
شاهرود
جنبشی
مصوبه
قریه
نواب
کلامی
حلقوی
eng
سرسخت
زباله
##اییان
##کنار
مجرد
پارهای
استانداری
##طبیعی
بقی
##امای
پیشانی
میبند
##وستون
سابقا
نگهداشته
بروجردی
##وریو
اجراهای
موقعیتی
بنیادین
1940
##iet
##orm
پوششی
قرهباغ
##قایق
##موند
قربان
##شرقی
گرمایش
هانا
مرعشی
هاوس
نافر
حفاظ
ضایعات
میو
حسیناباد
تین
مایر
##مدن
کشتیها
##جواد
اتحادیهی
دشتهای
بیمارستانی
پانک
##زامی
##ازس
بودیم
##ris
دربی
دادگاههای
phil
تناقض
جوجه
چهرهی
میکشند
##یز
ارتع
فلوید
مفصلی
شارلوت
مرادی
کتابش
امپری
کبدی
مسمومیت
##اضی
خج
سايو
کبی
گیتی
##ینهی
سرز
نخستینبار
تهیهی
برنامههایی
سمرقند
ارشیو
my
یغ
یوان
گفتم
##uth
خشایار
##طرفه
انوشیروان
متی
سرما
انگولا
خواهم
صدایی
قو
نط
انط
بودی
##وتها
اکورد
روحیه
1355
پیچیدهتر
استادیوم
برح
مصادف
تلفنهای
مسلس
مکانها
tim
رنه
##رض
بیعت
اسپانی
تغییری
مستحکم
صفا
عود
تریلر
واندر
##لبرگ
##ینهای
اجبار
کهنترین
سويیچ
##ونیسم
ترکمان
اسکری
##اشتند
مهاجمان
میاندازد
انک
یاخته
بارون
نهاوند
احادیث
تامی
دورانی
نقشهی
رافايل
فشاری
##قاد
جنگها
باغات
انیمه
حسینیه
جاستین
لل
هک
##صاد
تلاشی
دندانهای
لالی
##یناف
##ولها
املی
مصادره
باروری
سکولار
اسکناس
59
شمیران
گنجایش
انطب
پیشنها
بازنگری
گلاب
میخورند
معصومه
بیجار
سهمیه
سنتر
سینم
خواستههای
tr
تاخت
سقز
دایمی
کع
اهلبیت
##پروری
وینسنت
رویدادها
برادرزاده
غشای
مجاری
پاسخگویی
1943
میمانند
صنفی
دینامیک
منحصر
und
تشییع
##ear
##ولوس
انتقالی
عمرش
1364
دامنههای
صدیق
دوقلو
رجو
##زیگ
معط
##امیه
بینالنهر
پایتون
تورینگ
نتیجهگیری
181
1363
انتقادات
##ارین
استرو
اجری
چالوس
مخروطی
ایلات
رخد
نیروگاههای
ناتوان
فرزندانش
ناهید
زادگاهش
##yn
180
چنار
##ix
##ford
کشنده
##ناو
لیوان
فروشی
پاسکال
فرات
هیو
مغان
وضعیتی
رالف
شوید
نارا
هود
کشمیر
مطالع
گوینده
هاي
دراورده
مراسمی
سنسور
پایاننامه
1954
اهور
سیاستگذاری
قطعهای
باره
##يور
عواملی
همجوار
جریمه
هوشی
##یروس
نمیگیرد
تجربهی
توحید
gre
لال
دریک
##سفید
احتراق
جشنوارههای
نینت
##سپاری
res
##طیر
سازندهی
محرومیت
مجتهد
جبل
کفر
##ایک
##یناوی
##الام
حسگر
intern
##حدود
بورگ
امریکن
چطور
شکاری
##مونیک
لرزه
ثور
##غت
1944
هولوکاست
##جملهای
##لافی
میانهی
تشنج
کلیساهای
روبرت
مقاصد
افشین
رویت
شایستگی
همکارانش
بجز
گاما
موه
یونس
##ويیه
قضايیه
سويیسی
تگ
هرکول
شافعی
##واب
ویروسی
وکالت
طالقانی
بهمراتب
بیهوشی
تتر
میپیوندد
حسام
##تقال
شمسالدین
پرسی
ادموند
جذابیت
بورکیناف
us
نلسون
##بز
سالو
خدایی
الهامبخش
##ژانس
##انکه
مرگبار
صدق
مادران
183
خالیازس
انگشتان
##ونته
مورو
پاپی
دودویی
دیکتاتوری
بوندسلی
فرشتگان
سوب
کاي
راح
اوای
اشفتگی
##ann
مربیان
کوسه
زیرساختهای
قحطی
47
57
وکل
##قط
باکس
106
صدراعظم
بهکلی
براز
دیبا
##زارهای
کردهای
کامیک
##لزم
سانحه
##خواهان
زدایی
اختلافنظر
اخترشناسی
دماهای
edition
##راژ
نمایشگر
ناامید
stud
300
ندارم
یابند
مسج
##ضایتی
پنجه
ترمودین
شکوفایی
##کران
##ابدین
پیکسل
سایز
بگذارید
گاس
متض
اشیای
خوانساری
داس
نشت
##اهر
دیگو
هستید
زیرک
سهولت
بعضا
کلاغ
قالبهای
نمیدهند
##درک
مکزیکی
کاملی
##بوج
بلاک
ونت
##کریت
##یتسا
بازگردد
مستلزم
شعبان
تیرهای
میمیرد
##وپی
مترمربع
سینت
نانسی
القا
##ans
مدافعان
قوچان
jour
رامین
پیدر
##ارج
بالکان
اهنگی
پارکر
واشنگ
بوسیلهی
راگبی
##iel
##الز
رودخانههای
کمیتهی
متحدان
غزنوی
نامعلوم
عجم
##رسد
تحتانی
##hem
رنگین
mus
کید
المن
##اشن
کنج
##وسور
الیوت
تاکتیک
خالیازسکنه
محک
قراردادهای
فولکل
نرگس
##خوانده
طغرل
##شنی
نمایه
مرحلهای
منطبق
چکی
##ذری
استال
##ازند
فروم
ابلاغ
قدرتی
ویرانی
ربع
غیرانت
مارین
بهايیان
برنت
دوبار
دانشکدههای
خردسال
پروتيینها
gen
##ai
##ازاکی
تیموری
ریوی
یونیکس
اسکاندیناوی
دونگ
مسايلی
اهدای
بازنویسی
تعویق
میپند
ظه
گوزن
##پون
بهحدی
##لیون
1952
دیرینه
کیهانی
63
سادگی
برجهای
اعتراضی
49
##شیری
دلالت
سودمند
جنجال
بیابانی
بهوضوح
سرلشکر
عیل
کوتاهتر
مرمر
مستعد
جهانگردی
مونته
انتیبیوتیک
زبر
##ودار
الرح
##تیست
##نیها
تصریح
اختیاری
حسناباد
تویوتا
بجن
نوم
هلم
ناساز
##تیز
تقریب
اشکارساز
تلمبه
محافل
##اکیه
گیج
##شافی
1949
دستورالعملهای
یزید
کیوان
رویش
تجلیل
پژوهشکده
پذیرایی
##لاطین
خوانی
توفیق
چندگانه
حسنی
میرحسین
سفار
##ونتو
نمیداند
حايز
کوخرد
ایتی
نوکیا
چرخشی
عفونتهای
انشعاب
تانزانیا
جاج
درگرفت
نیامده
##بدالله
##افتاده
کتیبههای
جامی
داروین
مینش
##ett
گذاشتهاست
قیاس
معصوم
لایت
واعظ
ریب
واز
گلوکز
ژيو
##du
تورین
میکشید
وزنی
جسمانی
قفسه
##ینسون
استنت
##وسو
ادویه
برگها
برسانند
88
لیر
پسین
کششی
سباستین
روانشناس
نزول
جابهجا
بنف
ازادانه
نارضایتی
انعکاس
دکمه
لیدی
مسن
بوجود
بارگیری
قابلقبول
پوشیدن
##وتیو
بازگشتند
پیادهروی
براف
جملات
مرجان
##اپست
##rig
داوطلبانه
دغد
موثری
امتیازی
قیصر
مظنون
عتیق
##مس
بنادر
پدیداور
دایناس
نینتندو
غیا
وضوح
درهی
برشم
##نیس
ویس
میکرون
اصحاب
موناکو
1362
کاروانسرا
روشهایی
سایبری
سويیفت
بیگان
بازوی
کوفی
هیوستون
تابل
منتظری
شاهزادگان
عفونی
انستیتو
برام
نفرین
جنون
فراموشی
پیدرپی
##باش
چشمههای
##idge
هاینریش
بله
زيوس
ساپ
ژاند
##پال
ابریز
جشنهای
نظامهای
1951
tra
##ودان
صداهای
لبخ
بریستول
میخواستند
54
##موت
استوان
الکترو
mod
الیاس
ویلن
1948
دانستهاست
انکارا
وجوه
واشنگتن
ندا
##ویلی
موصل
محو
بخشها
جهات
ماژور
پاراگويه
بوک
کیار
فرایندها
صحنهی
##سهی
##ژر
##راقی
##یکر
##گردانی
گلف
زنانی
##اواس
نیمکره
سمپ
لويیز
روبروی
تذکر
sm
##نال
مرض
بازگرداندن
نمایانگر
جار
##فهای
خیس
پرتوهای
##بساط
علاقهمندان
چاقو
جسیکا
لوری
##اموزی
بوداپست
نیوک
تحکیم
رسوایی
##ايب
##سلم
هارولد
شات
##کاره
معجم
مرزبان
یونیور
گاردین
sci
زحمت
بیستون
زنجانی
1947
بهارامی
پاناما
کمینه
##نگان
زشت
پایش
معاف
روبهر
میبینند
نایل
هدر
اینشتین
تهوع
کوزوو
نخواهند
بهق
انبساط
فراک
الرضا
نیستم
زراعی
تزيینات
ارتدکس
ولو
مهتاب
پروف
تعطیلی
##سکری
##eth
فرانچ
تدوینگر
نداریم
غیرانتفاعی
ممان
یکه
عمرو
گوات
##con
##au
##ادند
ادریان
اصولی
بینالنهرین
تندر
##باح
احمداباد
تراژ
1347
##ograph
جاسوس
شوری
##چگی
##شمول
ضرر
##چوجه
رابینسون
جعبهدندهی
الکترونها
استخوانهای
اقایان
هیدهی
برجستهای
دریچه
اریا
اوگاندا
میانرودان
لستر
##شدهاست
##ep
##وسای
خانوادهها
محمودی
جامعهای
کروبی
85
##گیت
درا
بافته
برین
##استا
پرز
تحقیقی
مشهود
ناچیز
ژورنال
91
برا
اتشن
شمع
اکسباکس
میکردم
فلورانس
اندامهای
مناقشه
پیشبین
حسینعلی
1936
46
درجات
ازبین
برک
##اکتیو
بازگو
بلوز
جنگجویان
##old
معجزه
ماتی
##پوشی
##هرفته
نویسان
اکتشافی
مزاح
قزل
دوازدهمین
##ینال
معال
ابرو
جواهرات
بیضی
ملیت
قطعا
سازمانیافته
##جور
ارضی
جایز
رفتهرفته
all
صوفیه
##ail
##ضاح
کران
ایلخانی
عقرب
بههیچوجه
سمین
براند
##ابلا
گفتمان
بستان
مضر
گوارش
اسباببازی
فاسد
قاعد
لس
نوت
##نژاد
اسهال
جیوه
سعیدی
زمام
گیتاشناسی
1935
عهدنامه
عظمت
غریبه
58
دج
موبد
حکمی
میروید
المپی
عمرانی
کیمیا
صخرهای
##تار
مارسی
کیوتو
وارده
عبید
توي
پیشنویس
گوگ
سایپا
روغنی
القاعده
خراج
اموخته
بیب
کلانشهر
بزنند
92
##پلو
فرعون
میامدند
پانت
##شتری
برایشان
##فرین
##وسک
روزگاری
رسالت
ریشتر
##گذاریم
مشترکی
باقری
62
مجرم
سنگال
المپ
قصههای
استثنای
فردیناند
61
لبن
وول
##سلاو
##طار
پروازی
جزیرهای
عاق
##sh
##ابون
امیرحسین
هیلز
اندازههای
her
سلاطین
براک
اناه
اینرو
افشاری
روشنی
مایلی
اپولو
##unt
هجرت
میانجامد
ber
کلات
سریانی
مطالبی
ازدستر
arch
علاءالدین
pers
##چیل
##ارز
مدخل
پیرس
##ومتری
نارنج
بتو
نوادا
##وکوک
179
سیامک
بلژیکی
سنتور
مشاوران
میپرداختند
ag
هاس
##وپا
##ابایت
مدفون
حضورش
فرمانروایان
نری
##انوردی
##المت
دینامو
رحمان
##زیدنت
##پرس
##گردهای
بعدتر
سرخس
مونث
کنسرو
تعجب
نهان
شوخی
تماشاگر
99
سکنه
اوار
گرانت
اقام
مارسل
حلقهای
رستا
خاچ
هیج
شهدای
میانمار
##پرت
مهدوی
وادی
ایگ
دیجی
فلک
##علیق
کارگردانان
هین
##چل
##اتسو
##فتری
##واژ
گلبول
##اکیان
دستورهای
حکمران
استنفورد
دیرینگی
یوت
##چف
مراقب
##فنون
سانتیاگو
گزیده
gl
قای
چرک
##گارد
##ترز
##یشناسی
##ماء
نداده
بازرس
همجنسگرا
عزاداری
گرامی
یونهای
میکروبی
مینامیدند
ویدیویی
خدابنده
زل
##پلی
اهلی
اجساد
##اصغر
احراز
کلیک
مولفه
عنایت
غیرطبیعی
قمار
کریستالی
##طلبی
مسلسل
بوندسلیگا
95
هراک
##ریع
ایوی
کارخان
فروغ
##پذیرند
ماکسیم
لحظهای
رفسنجان
فرصتهای
باین
کامبوج
موتورز
جنگلها
مشکی
برونو
استبداد
##نب
##حث
##تیان
نسیم
تاتنهام
چیر
بیطرف
استانها
##وکان
فراهانی
ناج
بهجایی
ادابور
ترشی
نباشند
گیتاریست
سانسکریت
ادابورسوم
##ریل
غیرمع
##چیزی
امامان
کويینز
صدم
وث
ژل
نیرویی
مناظره
پالس
امیز
##اویروس
موسیقایی
همسایگی
اسکلت
we
ویم
##ودبلی
##وندای
الیور
یادداشتهای
درهمینحال
ver
یتیم
##وفا
##وویچ
سرگی
ممسنی
##بورو
گیب
همسایگان
شایان
صلا
ننگ
میجنگ
برفی
اشن
اپراتور
خوناش
جرایم
بدیع
قشون
now
تجار
هاوک
نبات
کورن
بیداری
##ریقی
خروس
##قاضی
ژیمناستیک
اجزاء
مصلحت
همخوان
بخواند
فیلیپس
ایسنا
عرصهی
##les
تحریف
تعیینکننده
حجازی
اندیشهی
لج
چاد
استارک
تعصب
##ینگو
راحتتر
کبیسه
بطل
عدن
صدمه
نصیری
یگانهای
دوتایی
خودمان
تفاهم
استحکامات
##لي
خوردند
برتون
طبقاتی
بدیهی
ناارامی
داگ
هراس
سوفی
سوسک
زکری
شفا
##یهای
##میس
عمو
قباد
1349
بازگرداند
av
دوس
روزاف
حکومتهای
ابزارها
بیگم
استه
##ونیه
قرنها
جدای
فوم
ادارات
عنبر
بادبانی
جادهی
رونویسی
هنرمندانی
سوپرمن
56
سراج
ساکس
گاد
مجر
پرل
خانق
کوپا
سواری
تبع
فارغالتحصیلی
اشتیاق
هایدلبرگ
گوشیهای
گوس
##گاران
اتان
بحثهای
منعقد
وزر
ژول
انتوان
دیداری
سلسلهی
میترا
معطوف
هانت
بازخوانی
هیون
سختافزاری
1360
جانداران
93
ناف
اینحال
##ایدو
تشعش
منحرف
##سلیمان
طهماسب
ژنهای
##ماهیان
سرطانی
نکردن
عطار
مطالعاتی
ازدسترفته
اگه
جبال
##پهای
##شتند
اسلاوی
##رفه
زمره
چالشهای
اسپنسر
تزار
سیالات
سهل
##ولاسیون
استرالیای
##وپایی
چارتهای
لون
لاگ
##فرا
ادگار
بالد
##ومرث
دبلیودبلی
dis
دالی
شوت
امب
قرم
شعب
والاس
غلی
فوران
##صن
##ولون
##ابقه
فراوری
منصوری
ایزدی
استعماری
##وازی
##خطی
##ینکی
##اختند
##گیرانه
دیدم
تبعیت
بهاءالله
مومن
استوک
سنگر
هفتهی
درامدی
اموختن
انطاکیه
چید
##ینیا
##سیاه
##ویید
##هرنگ
ایفون
جهتگیری
اتمها
اویزان
بغل
جکی
سفی
##مود
سرعتی
هنرپیش
خواستند
نزاع
کپسول
تامل
##ایکس
##وراس
گرن
##one
پروتيینی
نانومتر
ادعاهای
واجب
تراژدی
بهای
##گیز
واکنشی
برخوردارند
انفجاری
عشقی
تیتراژ
کاوشگر
اسفراین
##غری
##الر
پیشگویی
اعتدال
محتویات
##خاش
کلیدهای
سامانی
##نزا
مولر
اشکارا
هزینهها
1937
رانش
شاتل
نجم
کارزار
اذعان
##سکین
چیزها
سمفونیک
صمد
##چان
خفیف
داش
تقابل
بیرم
دینار
سرمایهگذاران
مبتل
بکارگیری
بهوسیله
ایرانیها
فرمهای
89
پابر
گلس
##یاد
##pr
مساعد
مهری
طالقان
مستعمرات
##itt
لبنی
##موس
اسپه
کانگ
دیلم
journal
##زاید
اشنای
اورژانس
میلیگرم
ایزاک
پدرو
لاریجانی
نرساند
##زنان
راستی
##ومات
دوغ
نوشیدن
ژي
میشویم
مقامی
فروهر
ناگز
قصیده
نگهبانان
اینهمه
فضاپیمای
غیرعادی
اشفته
پروسه
بردگان
عربها
مشروعیت
برمیگرد
یکپارچگی
ویش
##کوبی
##co
##لاج
دیلی
انسانشناسی
ليونارد
رولینگ
برحسب
انطباق
ret
اسانس
مجالس
##لبی
##شکن
سردهی
##حالدین
والنت
گوشهی
خلاء
دیتر
فنجان
وجهی
امینه
##ins
حلقهی
1938
رجوع
باط
تربیتی
البرتو
وزنهبرداری
تصدیق
ساد
انجم
عرق
هیدرولی
نتواند
بالتیک
لیزری
طوطی
یاب
##لتون
##ابعی
##پیکر
نهادند
بکند
عزیمت
اوساکا
وخ
مدام
##يیسم
نیوزلند
مجسمهساز
معناست
pet
بداند
قانع
دندانپزشکی
##پایهی
je
##خواری
##زینه
سازوکار
همکاریهای
جادههای
معتمد
دراینرابطه
رانندهی
کسروی
##منه
ملبورن
سامر
جوانه
سردبیری
باراک
##بافی
کربنات
معروفی
تقلب
صافی
واین
ابخ
اطفال
ابراهام
میکردهاند
سرگيی
پک
##ویسند
مدرسهای
کثی
##پند
##اسبی
دورود
حايری
بردهاند
##گاهها
sec
شایعترین
خازن
زوری
ستوان
قاع
##خصوصی
ماهیها
سبد
##همه
جدیدترین
لوتر
1933
اینان
دیپل
نگاری
دمایی
شاهدخت
بلشویک
میگذاریم
##اسکو
دوزی
##سترول
تورنمنت
dav
فونت
انو
نیس
هرج
وجودی
##نوشته
همجنسگرایی
فزایندهای
انصراف
ترمینال
گواتمال
بطلمی
رخت
امف
دیال
بازو
خردهفروشی
نستعلیق
لوبیا
##کای
پیغام
رجایی
هوندا
##جل
معابد
##int
طبع
افتتاحیه
اقلیتهای
af
شاک
##ورده
استات
##نیان
تاثیرگذاری
##ume
حاجیاباد
لبنانی
pa
دد
##جاست
فروغی
خرچنگ
نتوانستند
##پنها
رستاخیز
98
##عصر
ایپی
گلزنی
سیستماتیک
اردلان
بازگشایی
رمزگشایی
کابلی
انعقاد
کلانتر
کباب
مارپیچ
بزنید
گوانگ
بهاتفاق
نشدن
پیز
##هنگی
ترکهای
علیاصغر
کیومرث
بهرغم
باشکوه
مرخص
استفراغ
خطاهای
##ابهار
متعارف
قومیت
اردوگاههای
##گرن
راستا
ناپذیر
شربت
جفرسون
خمین
نماند
اوازی
##داوی
##enn
نوشتهها
بازگشته
گریگوری
##سپار
بیگناه
حجر
موجی
دستخوش
هوادار
##پناه
تایلر
دکل
مینگ
پرتره
ازمایشها
احتیاط
##ینسکی
انض
انگار
##شنال
ریختن
گلزن
رقصنده
نامطلوب
فيود
##رفت
الکتریسی
بوته
سپهبد
گزینههای
هیدهیوشی
84
نهی
نگذ
##کست
##تیبی
متد
هیولا
شیفت
باقیمان
ظهیر
ولایات
پاکستانی
کومار
نکنید
رفیق
گرههای
چندجملهای
دامغان
الکساندرا
عشایری
استنباط
عارضه
غده
##گیرند
##گانگ
ماهانه
لغات
ساعته
مضامین
##بام
##کوی
##هاور
بلورهای
بارهای
گستردهتر
پاها
معاین
فسفر
جردن
پداف
بربر
محص
سرپوش
شکستخورده
نزدیکان
برگزیدهی
بنگال
برمید
تبت
##اتری
##سیمی
نشوند
دولتم
سینماهای
لوکوم
تندرو
الاسلام
اسکیباز
رندی
قات
نون
##ساران
##ابها
##یمان
قرعه
##ناور
کلیوی
تماما
اقداماتی
##ase
نمیاید
روبرتو
اتلانتا
لي
لوید
گاي
##بنای
##صدا
سلوک
پاسار
اسیبپذیر
پدیدهای
##زور
##ms
مدد
نمایید
کیخسرو
1930
مرموز
دلو
درز
اینکار
ابدی
انگونه
ولیکن
##رخواه
ناوبری
همسران
##ash
صداپیش
لشکری
وکلای
میکس
نامهها
نشات
##ینیو
سهمی
شهدا
##ايین
فروشگاههای
کشتند
فهمید
السلام
کینه
##اونی
عهدهی
گوشهای
ژاپنیها
زینب
بیسبال
##ولز
کشتیرانی
تلاشها
هفتهنامه
چشمی
منازل
خیره
غفاری
##بوک
ژرمن
فمینیسم
بشار
##پاد
##اللهی
##oth
مابقی
##اصب
کمپل
1358
محتمل
hy
هاردی
##سنج
اکبری
تنبیه
سبزواری
نصیب
شیک
سیستانی
منتسب
##اين
##گاریت
گیلاس
ثابتی
##شور
دستها
ترام
ورامین
رسیدهاند
صلاحالدین
فروید
##اکسی
اساسنامه
صورتهای
فاصل
یکساله
ازاینجهت
دوشیزه
انتح
فعالیتش
پاسخی
lang
##اندز
پلات
طریقت
انستیت
ناگزیر
##کستر
##خری
##وزد
عمویش
کمبو
دخترانه
هلسینکی
fr
##وسنت
موردی
##خانهها
بلوچی
تایی
سغ
##سوی
دربرد
فارست
مسجدسلیمان
لشکریان
سرکه
بیدرنگ
پرداختهاند
##ife
هیک
##bo
توبه
کرام
نوسنگی
سیارات
اهنین
##افسی
دریاچهی
گیلانی
جعل
مقالاتی
اعضاء
خوشبختی
اشامید
افرید
اکست
میگیریم
##ated
سقراط
international
کارخانجات
جودی
نرد
توکلی
تنشهای
قزلب
الکسی
صوری
اسام
نامحدود
##زدن
پلیمری
جینی
گوید
تکنیکی
نایبالسلطنه
طلس
پاکی
##دختر
بادهای
##یرز
فرگ
سیگ
پیامبران
کربنی
ارتعاش
بذ
گلیم
##لرز
##وغ
##عههای
##ولند
گردند
خواهید
1934
رفتهاند
کونگ
##22
همسان
بوين
##زرسانی
اعزامی
نخاعی
مغذی
امرای
اسیبپذیری
دونور
فرانسیسکو
کلینیک
بمیر
مانگا
##سترانگ
تعالیم
طرحها
128
87
نگرفته
یشت
بالهای
تعاونی
مبحث
حواس
##اول
##ارس
انور
امریکاست
رسوبات
cal
تلفیقی
توپولوژی
##اگاوا
فرناندو
غف
شبستان
##کلند
مشتقات
بااینهمه
خلفای
ایینهای
فتوحات
خوشبخت
پروفایل
بویژه
صور
فلاح
##وستر
##ردانی
نوارهای
اشوریان
اجته
جوادی
دنبالهی
غرور
ناحیههای
هولمز
هرجومر
68
##ual
دیس
شیوا
قطعاتی
فیروزه
دیلمی
بهمو
داوید
ملزم
شبح
جنوبگان
قابوس
1346
ویدیو
69
##حون
نامیدند
موضوعاتی
رایدهندگان
مفع
توریستی
##اریکا
مارکسیسم
پروازش
نیاکان
عبدی
ترانزیستور
میچل
ارگانیسم
##bridge
##عو
درسال
امبر
ایوبی
سانتوس
ضربال
تپهای
کشمکش
پرنسس
اقیانوسیه
will
قشم
##قرم
درود
##ندری
استوانه
سرپل
اهری
سیلور
زاویهی
کاریکاتور
عسکری
جانگ
##ضلی
داعی
رسوم
##نواز
سردر
الجزیره
عیب
زاهدی
سیزدهمین
الکتریسیته
ساین
غازی
ندان
نيو
هه
گریم
گاندی
##ختگی
دلتا
##وفن
قوانینی
اشامیدنی
ودر
روکش
ایذه
اشرافی
پرطرف
اسپرم
کیست
سردرد
باکتریهای
اشعاری
غلیظ
ضمیر
النا
خیبر
سلسلهمراتب
بهقدری
74
##فوع
##چندان
سوفیا
طبس
کنترلشده
خسارات
حیدریه
میتس
##ویون
گفتوگو
##وفیل
##بلاست
ارمسترانگ
پذیرفتهشده
کروناویروس
بطری
مظفرالدین
غیاث
خانقاه
96
قق
##سند
ابوط
مورفی
مونرو
دیرباز
1931
پیاچ
94
وحی
یر
تجم
پشتو
دراینبین
چرخهای
خوناشام
فانی
کاگ
##iro
نسلهای
محمدجواد
اصطکاک
##ley
##فوظ
فلیکس
زوریخ
اماتور
بعلاوه
بسزایی
زرند
دالاس
اعماق
چیت
##حر
بوهم
فلاند
طیفی
المق
پردازندههای
##مرز
اینتل
کنسرتهای
نمیرسد
bro
کورش
##ارزش
تعهدات
چابهار
##پاره
##ma
انصار
##ریو
فارابی
بیشماری
دماغه
##ازو
گمنام
er
شریان
لورا
هامون
گوان
##لون
نمونهها
واژهها
انجیسی
راورز
همبازی
مقبر
مکل
دادهای
کیلی
حافظهی
سیلوا
خالقی
مخروط
جوار
کیتی
کولین
##کوهی
احتمالات
متغیرها
قضات
1348
حاتمی
فازی
بخشش
گلشن
افتادهاست
قویترین
##iki
گيورگ
اندلس
رسالهای
رودکی
درصدد
اشتیانی
وانتشار
##یاک
هیوندای
##بریا
##وبیش
کالینز
مبتلایان
77
میوههای
امثال
ادین
پرن
سولفات
##الاسلام
سفارشی
اردبیلی
گردیدند
american
زری
سانگ
پرتقال
##چوان
سربی
افزار
زیرزمین
جاماي
مازی
##de
##uk
همخوانی
شرور
##ونگا
سایمون
سراوان
غیرمجاز
دولتمرد
ox
طغیان
##عبی
فرگشت
نیچه
متولی
ابله
افکن
##ادران
##نوازی
دردسر
ماژول
72
لاب
##قاق
خودت
کارگاههای
ابگرم
رشتهها
کریستینا
سخنرانیهای
زاویهای
قوا
##وبو
مشیر
##ign
تدارکات
گواتمالا
واد
##act
فرهنگها
##کوفسکی
تشبیه
استثنایی
منزوی
جمادی
اقماری
تعالی
ماهها
الموت
مهندسین
سواران
وبا
بويین
ملوک
حکام
##ings
عمیقی
ببخش
ريیسی
اتاب
عروقی
هرکس
ممانعت
دورتر
بزرگتری
##شرق
##جمند
میگوییم
گیلبرت
فولکلور
بوریس
صص
منار
پایینترین
ترانهها
ضربان
شفیلد
دیکتاتور
دورد
##ps
داو
##باغه
کوچولو
الیگود
تیوی
نگهدارد
قزلباش
توجهی
متقاضی
مستق
سرخپوستان
مسيولیتهای
بج
ببری
تازی
##وبیل
تیموریان
گفتاری
نمایشگاههای
نتیجهای
##مرهی
پورتو
راجرز
ختنه
97
دانهها
ليوپ
دردن
##سیوم
نیسان
مدح
کاشف
کامپیوترهای
انعطافپذیر
فانوس
##بهر
##کندی
اسکر
##ههایش
پررنگ
حسابی
روانپزشکی
1932
گنجینه
جبههی
رامسر
مدفوع
هیست
نخجوان
##وسیا
اینترن
موزههای
اشپزخانه
86
دمی
راشد
##افکن
شکمی
بدنش
##ولیا
مارچ
دیدند
سایوز
بسازند
روزافزون
کیمی
شرلوک
ستوده
ققنوس
گانگ
مدیرکل
قدامی
ریکاردو
هرجومرج
بطن
##رخان
شناختن
شناختهشدهترین
کاتی
##اقا
##واروپایی
رسالهی
جایگاهی
پرطرفدار
73
گلا
منس
مجار
چهارچوب
سکانس
بلندتر
فراکسیون
دادرسی
##اطی
فضیلت
اعتقادی
شاخصهای
ژیمناستها
بامیان
ردههای
کژ
کیبورد
یادشده
چشمهای
درامدند
لیتری
حبیبی
قورباغه
دهقانان
لاند
پیشکس
سپاس
یخبندان
جریانی
برگردانده
اصالتا
بهبهان
##ومین
##دران
کاذب
امیران
سختتر
ازادیهای
حاصلخیز
درازای
انسولین
فومن
کشیدند
افسون
فلاس
قدردانی
##وسیستم
روسپی
خشونتامیز
طرق
چهاردهمین
لطیف
اجماع
تبه
فلام
کست
##ler
ابجو
کوثر
اشتراکی
گیلکی
##محمدی
##چوبه
استوری
روزبه
تریاک
عکسها
مشارکتکنندگان
پاسارگاد
67
قذ
قدیس
##ونین
##یمور
براین
اکوست
نهچندان
مادرز
محاسبهی
نیاورد
فضاپیما
cambridge
ii
شیلد
##فکری
##گاس
##يیل
دروی
##الار
نیوه
اغوش
نهادی
کانونی
کوهدشت
##وسایرس
امال
خودبه
رزرو
فریزر
ایداهو
ناپایدار
دلس
میگری
ارین
تره
پیشران
اطرافی
موسسان
لوکا
شبهنظ
تارنمای
بوتان
درمیاورد
اسراییل
66
78
ورک
مقصر
ارتشی
درمانگاه
پرتوی
بوينوسایرس
ضمنی
مرودشت
اسبق
سخنران
##الاول
بگویم
مکاتب
یخی
##بران
جدیدتر
##ile
استیضاح
عاشقان
عادلانه
وولف
##مم
##اتیت
لغزش
دریاها
ناخوش
اتلانتیک
71
حلز
ذوق
شلاق
لژ
##اسیر
##برز
##انگه
تبلور
81
منب
داون
مغولی
عنصری
لایپ
1345
نشریهی
راحتی
min
خامه
##دورف
سیه
اشمیت
جنوا
سامانیان
اصلاحطلبان
لیندا
پوتین
رساندهاست
شیره
##یداد
دلفان
توانمند
مذکر
زنگی
فورا
##ونال
##ابیده
رودسر
عملکردهای
##وزیسیون
پرداختن
##بابک
تسهیلات
میگذراند
پریش
سالنهای
اکواری
##ینگونه
افسانهها
خاتم
فارغالتحصیلان
ایزدان
موازات
پیشبینیشده
پیشکسوت
##gy
##فراز
##اپو
بلان
##کوین
سرمایهدار
دانستند
تالیفات
سرزنش
##سیاس
امانت
##برگر
مدیا
کاشته
خلیلی
واترپلو
چکش
بازخورد
بلخی
بنیامین
مایا
ایدا
##وجه
##یرهی
##اخانه
##وفور
موسیقیدانان
محققین
comm
انترتینمنت
صمیم
پوک
پوچ
کموبیش
##کوپی
بریزید
بیاورند
ابومسلم
mac
ذبی
##قلعه
##ابیان
دریافتی
بردگی
دامپروری
ستارهها
صفحههای
ماوراءالنهر
##لبان
میدارند
تشکر
ولد
پاسخهای
رومیها
جودو
400
یقین
##ورود
افشای
زیرر
بلبل
سیاهپوستان
فرمود
فینیکس
پدیدهی
ابشاری
سلف
بیرح
##ited
دلاور
کعبه
بویه
پپ
##چون
تیمش
178
مولفههای
شوق
##رمو
##دینگ
##fer
##یرنگ
نورالدین
الیا
قتلهای
اناتومی
بندهای
فید
##سیها
شهربابک
کریگ
خردمند
الحکم
ژاندارم
قاعدگی
شویم
کونی
متب
ترنر
دروازههای
فاری
نگری
##سلا
محفوظ
رمزی
هریسون
##رکه
محمدمهدی
##مثل
شامپ
غن
##ius
##ازا
عمدی
افراط
زناش
تدبیر
پستهای
دعای
مستندات
زلزلههای
تشریفات
الیگودرز
کپنها
##وندگان
رنگار
میدانم
اشتوت
بسامد
عباساباد
وارون
##جرد
##50
##ومحور
بیوه
سیارهی
ترمو
بدانند
تعاملی
عاملهای
گنجه
عطا
میخواندند
bi
زاب
##کاب
بادن
براثر
##روا
بینش
تروا
میفهمد
زال
بافر
ویو
تقوی
اهنرب
کثیف
خواج
طاع
فاع
پاند
##الیان
##وهید
راهب
نمایشنامههای
خاکسپاری
##وگاس
نشاندادهشده
تنباکو
یاختههای
##رزی
کرنش
ابط
نظارتی
بنه
مفرد
دراماتیک
فتنه
ماشینها
مصدومیت
کریکت
مراتع
بهروزرسانی
صنعاء
##ثق
نامها
دستبه
منتشرشده
مجموعهها
تامپسون
دراوردن
شفیعی
##ee
##ینوس
##تمندی
اردک
پیمایش
مریوان
قیمتها
مگاوات
فاکتورهای
خسروی
##ارتو
غواصی
الدر
تودهای
محسوس
ایبی
ایوب
موسولینی
کنترلی
اشتاین
ليوناردو
اسپهبد
فدا
اتباع
چهارراه
نژادهای
del
مکار
میج
##تیوس
رهسپار
گزارشهایی
استعمال
زنگنه
بقیهی
جیرو
صل
یکجا
##شتات
کردهایم
بردارد
تسریع
طولانیتر
##جامانده
برامده
دوگان
کلوب
برخاسته
لیگا
1359
مدرنی
تابلوی
cod
##اهمیت
سرودن
##ild
هارمونی
##چاله
محفل
پرم
کلاته
مکانهایی
چهرهای
متان
##اولی
ویژگیهایی
ماهیهای
شیشههای
لیمو
بجنورد
بفه
##ارق
##ومینگ
پیشوند
خیار
تخیل
پارکینگ
اسطورهای
پیچیدهای
ep
مزه
##دانه
ایسی
کلیسایی
ایلامی
ییلاق
غلت
میریزی
براق
ایزن
ادن
کما
کلوپ
تکلیف
متعاقب
ele
فسا
##ورین
قلهی
کاسپین
فرستادند
شریفی
یوسفی
منسوخ
##امزدا
اینترنشنال
##فیک
##ya
متخصصین
لحظات
##لاعتماد
##رخواهی
بتی
##ستاد
انری
##شیده
گلدان
سریالی
الیسون
اهنگها
توصیفی
چسبندگی
مینمودند
الزامات
ازت
اماس
ملتها
part
نوسانات
غیرمعمول
کبری
##ژیت
فرمی
##الیه
##دیو
بدخشان
منجمد
اهورامزدا
زوای
##ظبی
روبن
پرورد
تاریخدان
##ana
##وير
استراباد
عواقب
گیاهشناسی
سوسن
تردد
##eg
##يونگ
##ستال
بدب
نهفته
پلاتین
گزارشگر
نیکشهر
1344
تانکهای
متالور
هاج
بریدن
روتر
تجلی
مستع
صدد
##نزو
ترجمههای
ابوسعید
مازیار
کتابت
شبها
ناشران
ببینند
med
لارستان
##نشده
معقول
پایبند
احم
برخورداری
سادهای
سوختگی
ویروسها
جوزپه
##اندیش
بازیکنی
روشنگری
طیفس
برجستگی
سافت
موقتی
##رتز
150
1929
مهیا
فتحعلیشاه
مارکسیست
##غریب
برکت
کناری
پیوستگی
تشخیصی
ابوظبی
گریف
استیشن
مسالمت
بنویسد
جامه
گزاره
لرزش
دمکراتیک
ژيوفیزیک
مشمول
##ایو
یکتا
##داسیون
برنامهنویس
خوشهای
پاپوا
گشتند
انسداد
کانتری
گستردگی
ستر
پوینت
##تپه
##هنگاری
رنگینک
امپراتریس
بخورد
قابلاعتماد
بیاعت
اشتباهات
اگاهانه
میزدند
حشرهخوار
83
نید
##سس
جنگید
شیار
##ستیزی
ازمایشگاههای
استقامت
گرینلند
شبانهروزی
76
مکی
هرو
##کف
مدول
کشک
ورونا
تماموقت
واتسون
fo
##باشند
شهرکرد
##att
سیاهرگ
وایکینگ
ملاحظهای
بهموقع
il
سانی
یوشی
##ward
توام
سرامیکی
ویچ
##وشا
##انتری
تورب
رضاخان
سگهای
##ضلعی
صوفیان
کوهنورد
سغدی
اجتهاد
تهماسب
رپر
خودی
کلسترول
تجارب
حکاکی
##بازان
##انزا
یدالله
نرسیده
##خره
##ولات
##اکار
جلویی
جلومحور
عناصری
منشورات
ایدی
درمیان
ازادر
ایرباس
##اکل
جناب
ارکان
کاستاریکا
نکردهاند
بخواهیم
رجی
هلو
##دور
بهنا
ویز
##منظور
فلوت
بخاری
بهسوی
معادلهی
هايیتی
##lin
##ضم
هرتز
دیگرش
پهنه
حواشی
علاقهای
داوطلبان
بکشند
ایهیاسو
میریزیم
مدلی
اثرب
مشعل
متاهل
نورون
اپید
زیارتگاه
اشتوتگارت
##لوس
##وایان
الاع
دنیاگیری
موجهای
لحن
rel
##عر
##زنده
بدانیم
متعادل
پناهندگی
لاسوگاس
عذرخواهی
میخی
شهره
نقاب
کلمن
کتابداری
غیرمنت
##ایرانی
رهن
مولداوی
عثمانیها
سجادی
پرینستون
رودریگز
انتحاری
##فوس
برپایهی
انفل
مناف
نمو
دستش
حواری
زینتی
قلیایی
گورکانی
یونیورسال
nowiki
قذافی
##پاس
##گول
##انژ
##وتکن
میشه
استانبولی
تکههای
##وسیت
فراگرفت
خلفی
حلقهها
شکارچیان
کويینزلند
##نفس
مردانی
خطبه
هاروی
عجیبی
##سها
##زله
##استریت
میکروف
##اکاری
##ولوگ
دارالفنون
راهحلهای
لبخند
##ورگی
پدران
اژدهای
بشرد
هورن
غلامعلی
مخلوطی
طلسم
هدی
شاهر
نیازمندی
خریدار
مهیج
افزونبر
ضمنا
تکی
لگاریت
همو
کییف
فوجی
ناراضی
##زادی
بهایی
برگردد
مساحتی
ترتیبی
نشاط
مغایر
برخط
مفاصل
1928
تعاملات
کاوشهای
بلیط
اتشنشانی
شدو
دبیرخانه
بیتالم
مورخین
اهریمن
mic
زرده
مومی
میزی
استارت
##ومون
دیزل
اتلاف
##uss
نیکولای
اناهیتا
دیپلماسی
##دیر
اکوسیستم
نیکولاس
ناسیونال
کاتالونیا
نیوکاسل
زناشویی
استایل
##یتز
الث
شهرهایی
اتیلن
گودال
منظره
افزودنی
ریسمان
ناخالصی
کز
##جره
موومان
شرع
صفرا
مدلها
مادون
لایهای
استوا
##ونسو
##وتومی
پیج
بنش
چرخهی
باتلر
79
##گنی
داران
گروس
فرانسویها
مرغوب
##rist
اولاد
خانات
اموزشگاه
مفاد
انتخابیهی
film
بیتالمقدس
##شوی
##ازها
الشی
نیای
سرحد
هانتر
بروکلین
445
بهبهانی
ببند
شفق
بهجامانده
ازب
بریک
##ولر
ایچ
سراز
ورن
دومینیکن
منشعب
هلیوم
برانگیخته
تویس
هکر
بهجز
براه
مناره
ایینی
اهتمام
علویان
##موده
شورشهای
بعلت
ولایتی
ناظ
قبیلهی
نحوی
تفنگدار
رانی
رفیع
##شام
##فتح
##اقلی
دوسال
نوهی
دانگ
##ارتا
سوزاندن
##تکه
گذارد
خلوت
ناتنی
معتبرترین
یوم
##جید
##ضرب
##هاوس
مقالههای
افراسی
##پرستان
نیمروز
ایستاد
ایستادگی
مسیریابی
لوکوموتیو
jan
عایش
##کد
##نگه
##سازان
##تابادی
سفیدپوست
سوختن
##بیاسدی
شوگونسالاری
ev
بپذیرد
تودههای
افول
علفی
مستندی
اسفنجی
تسلیت
سرمایهگذار
ریچل
عقیدهی
بیرمنگام
##ax
##وته
دیگه
نواری
سوخو
بعداز
فرزاد
امینم
افسری
مظهر
su
سست
ابه
گرانقیمت
عینک
گیمز
درنقش
متابولیسم
دبلیودبلیويی
##وریکو
توف
بدوی
پنجرههای
مبادل
##وتراپی
تمدنهای
بازپسگیری
حفاظتی
gro
nor
غسل
##پید
##گت
##دستی
بهظاهر
##یتها
##واران
##انتینی
##ance
استراس
میرسانند
مزای
زامبی
واندررز
عاقبت
شیلا
توفان
##تیسم
مشهوری
اپلیک
ناخودا
فاح
لش
موید
##ner
اینصورت
ترن
اوراسیا
##اتیکان
قلعههای
82
##يال
مردمشناسی
اسکور
بازگردانده
مهاجرین
تسن
صخر
طویل
##af
دوبر
تمبر
دولتابادی
مانور
زلزلهشناسی
محمدیان
عزتالله
عجیبو
life
تنگی
غزلی
گمانه
##خوس
اینست
خدمتکار
جنجالی
گلبولهای
تختی
##انیل
بیوشیمی
##وبل
بالاد
سلسیوس
عبدالب
##ریزند
تمایلات
باهوش
ناامیدی
web
صابر
یاهو
##راجی
روزولت
مبلغی
نگارخانه
خشایارشا
شفت
عجای
قضی
کاکا
گت
دربردار
بوسه
اتابک
محمداباد
مینامد
تاکستان
گذرنامه
جولای
##سرایی
مافی
کوشید
عزیزی
خزندگان
انستیتوی
هلا
##ral
##ویسم
ملات
فقرات
فاصلهای
شوشتری
پارکهای
کارهایش
خودمختاری
استوانهای
چاله
گاری
##زارها
متمم
وایومینگ
1343
همسری
غربال
عذاب
مادل
استرا
دریاچههای
مکدون
مارتا
بتنی
رنگارنگ
##ندورف
##وریها
چهارد
مطیع
دنبالهای
بحثبرانگیز
نانوذ
ندهد
چیدمان
پدافند
cy
##صدر
بیزان
لهجههای
تهیهکنندگان
میوهها
عقلانی
ساکت
غزالی
پنگوين
ابرقهرمان
ger
بمل
##mer
تاق
بیای
ارتشهای
رسانا
قبله
سومری
182
نامیدهاند
حسابهای
محضر
بیگانگان
السلطنه
فوتون
##وبات
قطعیت
نورنبرگ
بندری
بفتا
langu
##میش
میرب
دیود
بوس
پیشی
کلهر
##اير
بستگان
لاکه
بالدوین
val
واق
##وارو
ایستا
مجمعال
بازمیگرد
تفنگداران
بطلمیوس
میریزند
میکروم
رویکردهای
تعارض
مورچه
رومانیایی
رضوان
سگها
جامايیکا
دردناک
بپوش
وردی
همپوش
سرگردان
عدل
##ome
هانری
انسجام
مانیتور
ازادراه
##out
##غلو
ارنا
نماهنگ
سیدعلی
قسمتها
ایزابل
ضربوشت
رشوه
##پیوندند
وزنهبردار
زیمباب
بویی
تفا
مبال
##ci
##iqu
متکل
##اکه
اعیان
کیانی
کیفر
حرفهی
ایلخان
هوافضا
خادم
01
##تیوو
نمکی
شاهدان
سفره
پیکار
انقلابیون
رفاهی
mag
برمه
بازهی
گوشههای
اقامتگاه
ازمونهای
قدرتمندترین
بارسلون
publish
ضربوشتم
هستههای
اقلام
کوبی
اهمیتی
بشن
گرفتگی
سلب
##atus
حجاز
تیری
پرتر
رویایی
##سرین
##نوج
##وپن
درمانهای
1920
##قدرت
ارایشی
سجاد
##کایی
##کشهای
جملهای
گازها
چراغهای
ناخوداگاه
ایالتها
نیکولا
مقدسی
حرمت
##طرفی
هافمن
اسطورههای
صرع
##lam
بروی
مسعودی
متریک
اولد
مثالی
پلهای
فرزانه
منصف
تریپل
الوند
کردهام
##فقط
الیمنی
کشتهشدگان
انفلوان
##بسته
شدیک
##ختند
الین
سازندگی
پلوت
گنبدی
pe
##ss
##الیک
نفرات
راهرو
##are
عبدالرضا
بیمارستانهای
غیرنظامیان
خویشاوندی
cor
سوشی
اوپن
راهها
تفاوتی
چینیها
سپهسالار
دابلیو
ژنی
##فوذ
نتوانسته
عبادی
پذیرفتن
پانزدهمین
ارزانتر
متالورژی
##انلو
موتس
والنسیا
oxford
بهناچار
دنا
لاف
کچ
##زاسیون
##اموتو
شهربانی
بازدهی
کلیس
مینوی
مانکن
نمیخ
بیتوجهی
تامسون
مطلوبیت
ابوعلی
##line
##bs
تیرويید
برهمکنش
پرکاربرد
مرضیه
عایشه
فسیلی
بهص
کهریز
نمین
##ندهها
خوشنویسان
off
تحصیلاتش
کوهنوردی
دانشاموختهی
ساتر
##ck
کارلس
مستقلی
بطوریکه
البیون
الیمنیة
راندن
گج
##اریس
همگن
##تیه
ورنر
##لبانی
نیکلای
مشاهدهی
##وکیو
ass
زیمبابوه
حیرت
زاپ
قدی
لیا
هندواروپایی
##لینگتون
لپت
ماهیچههای
خلخال
ساماندهی
گرامر
طاعون
یول
بخشیده
کلو
مصط
ایرانیکا
پژمان
پایهگذار
اشتب
جنبهی
باستانشناس
سهامداران
غزنی
مفق
هانو
انژی
سرگرد
ستارهشناس
پیداست
دوبلین
##ویونلو
sk
##ces
##ازول
سرانه
دارن
شوراهای
مارپیچی
اذرم
مناسبات
انباشت
بلیت
داره
##بوت
##گیاش
ارگون
تقلیل
نوشتند
رشیدی
چریکی
بهدقت
چشمها
عروسکی
پروتکلهای
بهزور
ازبینرفته
شپ
##خن
محوریت
میکنی
##انتز
مخارج
رایانهها
محصولاتی
جوانتر
مبارزان
سمبل
گویشوران
شایعه
ذوالفق
عجایب
جوه
شنگ
فاي
گودر
##ank
نمایشنامهی
رایانش
رزین
120
مولکولها
نايین
کریستیان
طعمه
600
ونی
نامر
شرکتهایی
قلاب
پارینه
گردشگر
هدفمند
اتحادیههای
گرگوری
مملو
di
ارجمند
رسوبی
شهبازی
برگه
دلم
نژادپرستی
اسکندری
انطور
##اسطه
زیرگونه
کلوین
سریعا
کانن
##اسیان
ادراری
حشمت
کوزه
جاندار
مسجدی
پورش
##form
##سیکل
##وپاتی
احمدشاه
توپهای
نظریهای
الومین
تعمیرات
افراسیاب
بلیک
غنیم
دهندهی
احیاء
توانا
مالکان
گریت
نمیخواه
1361
کاسترو
کتبی
اسپرینگ
رشدی
گوارشی
گوز
تلخی
ريیسه
حضوری
پسانداز
##ame
can
زمز
پوزه
##بوری
##ve
ازاده
ایثار
##اپذیر
##بانوی
##ابرسی
فردریش
تمامیت
پسند
بافتی
##ull
خریداران
کنسرتو
لوییس
شاسی
##sk
تقطیر
خیز
تهدی
معلول
گماشته
ابوطالب
روبی
شعرای
تالین
درخواستهای
قضاییه
یعقوبی
جغرافیدان
وراث
مشایخ
چوک
محاصر
##اعه
##افری
مربعی
هوپ
نهج
گوشتی
ابادانی
سنجاب
رویکردی
المپیاد
رقیق
لاور
واتیکان
##دایی
موعود
دوه
نقلی
عمار
##ert
مجسمهسازی
دربرگیرنده
نمیدانند
نايب
اکسپرس
تاکتیکی
فراخوانده
انباشته
بشناس
ثلا
صحی
باسو
##ترو
##درمانی
اجاق
مرکبات
بلاد
رسل
بناها
##وزیع
تحریمها
فرانچسکو
عاری
داک
##ریکه
دستوپا
افغانی
جایزهای
حوزوی
همراهان
بیتا
مضاع
ناکامی
والتوزیع
غولپیکر
فامیل
دجله
حاض
واه
پاف
گویان
سالهی
سرن
کنکور
##نافع
##مداری
طرفداری
انرژیهای
باغها
ترانهسرای
انتظارات
رگهای
برگرداند
بلگراد
حسابرسی
##گریز
مترجمان
جدال
دستورها
ناکار
سوسمار
فخرالدین
شلوغ
##ازمان
همگام
اوي
دیویدی
مجذ
پیستون
سازش
زمینها
شهریاری
اتفاقاتی
پیکره
ناخن
زیباییشناسی
معاینه
تاسف
حلی
هپات
برومند
سوژه
بالاست
باروک
##بودند
مهرههای
نرفت
زردچوبه
وحشتناک
مدیون
##روفی
دورتم
تاریخنگاری
جلگ
مازاد
ساف
وط
##سوز
سنقر
اپوزیسیون
فولکس
ستونها
کتک
رینولد
تاند
کالد
##سنه
بایدن
تابوت
ترکیبهای
اتشین
##iam
مقرون
بهدستاورد
کارافرینی
نباتات
هگز
چاش
##قفی
اولا
##لوبی
نهفقط
منصرف
انیمیش
1926
بلیز
ربانی
##اتها
معطر
باشه
انتساب
مردن
ماهان
بغدادی
پذیرفتند
باکتریایی
پابلو
موتوریزه
ملاک
پتی
##شونده
استور
بیابد
اشر
پرندهای
کلارا
فارنهایت
میراند
سفالی
لوگان
##riev
دفعات
شت
##خونی
بهادر
##اریم
مرشد
بیستمین
شاغل
میخواهید
کاندیدا
بیهوده
##اموزد
کارگزاران
سدان
پرادش
ریزی
کافر
مهرگان
درامز
درخشانی
هویدا
not
اودی
بیشه
چام
استاف
روال
مرند
ولیعصر
پدرم
اپارت
خاکهای
هنرمندی
##duction
david
همگرایی
خودگردان
ترنت
مصی
متروپ
ساختهاند
books
عنو
##ابیر
##وشان
کشتگان
##ution
##فروشد
##خوابی
جیکوب
متضاد
جات
لگن
نايل
##روض
پیرمرد
##کلر
خوشی
هلدینگ
نابینا
مقتدر
میافزاید
انجماد
##فرید
کنه
مطلبی
مزین
##وستانه
شیا
معجز
هروی
بینندگان
##کارا
مکال
مکزیکو
پلاسم
تسلا
کابوس
کمانچه
انگیزههای
قرمزی
##قص
##اسرايیل
##درن
کماکان
بعید
قلعهای
توانمندی
مهربانی
##ames
حجمی
پورتوریکو
برادوی
ژاله
چهارگانه
برادرانش
##ury
دروازهی
اتاقی
البرتا
درایو
مسموم
فیتز
میچرخد
retriev
دورتموند
cap
فح
##30
تاپ
گردنه
##ستروم
محدب
بردسیر
میگشت
##تونین
کمپرس
ارژانتینی
درازا
الزامی
##فورماتور
اسکریپت
گیشه
استپ
بنبست
شنود
رقبای
خداد
طلاب
تجربههای
tur
ثریا
زایی
مانگ
##ca
ایندهی
یکطرفه
هممرز
بیوگرافی
خنککننده
##حمید
لعاب
بويینزهرا
##مبرگ
##خوف
##ازار
##زیس
کنراد
برجام
سکاها
اچدی
##فلزی
ایدهها
مغولها
قدمتی
بفرستد
دکور
##افقی
سپهر
حسادت
صحنهای
##ose
چاههای
منگنز
گومز
گولد
##حهی
المدن
نامت
ملیگرایی
شنای
قبولی
ممالک
چایخوری
سونات
##ove
jul
درگز
خوانین
شعارهای
gra
pre
نامتن
اشلی
کلمهای
##ope
نعمتالله
پربین
لایپزیگ
tw
شلی
وادا
##الیت
راکی
منابعی
گلابی
پذیرای
##برگشت
لیتل
sw
اکی
جند
##گوت
بیطرفی
لیسب
گستردهی
انزیمهای
نگرانیهای
گچساران
سرازیر
##نفره
##گاهرتز
اراسته
نشانهها
محمدخان
فعالیتهایی
کانو
تکموت
یوجین
پژوهشها
تولوز
تناوب
op
بکت
##اوت
میم
میانس
##اکورا
پلیسی
فروشندگان
برامدگی
پونت
##شمی
##ورپ
شعاعی
تبریک
1925
گامهای
char
فرهادی
بیسابقه
منفجره
وینی
##انسی
هیوز
فیات
ضربهای
تخلص
بورکینافاسوی
مايو
کانس
##حاک
##ومنین
##یدین
بدینگونه
پارسا
تفسیری
کاتب
مزدا
کنگرهی
بهمث
منبعی
رقی
رونی
هژ
پریم
##جاده
##ظهر
##ازاده
پوششهای
پشتون
ضرایب
اکسیداسیون
انتروپی
retrieved
دراور
##اسپور
الما
توازن
نیام
تحلیلگر
گوشتخوار
ییلاقی
منسجم
may
طرد
والدینش
نیوهمپ
چاو
گوری
##عدی
##ابو
مجامع
کوهرنگ
شمارههای
راستین
الکترونهای
شایعات
وثی
##بوم
##sp
##وباک
##وقه
ارزشها
اساطیری
دوقطبی
kn
sur
وون
##ادلی
همی
##روع
شهرزاد
موف
لبههای
دراوردند
دانیال
جمهوریخواهان
نمیکردند
##صرفه
تکموتوره
ear
زینت
غلاف
فوج
##امر
##وبه
اکدی
تلاقی
افتابی
دریانوردی
مسيلهای
کمونیستها
چمران
nov
عری
##ستاق
متجا
دستن
ارتکاب
رقمی
##کاظم
##دادن
##oll
##نشینان
محدودیتها
##iana
برادری
کاووس
کیارستمی
##پیل
درههای
گسترهی
فوربز
مادرزادی
kh
رسته
الاه
ادریس
برگشته
جواز
مارمول
گمراه
گشوده
کاردانی
مجسمههای
مسالمتامیز
بنین
نغ
خودا
مردمانی
##پیان
##ische
ادمها
تجدیدنظر
اریکسون
جالبی
نانوذرات
نامريی
عنوانی
بشق
قوش
##پوس
##نهایی
##زونی
زمانها
##ويیدی
##افرین
یزدانی
التهابی
تبريه
چسبیده
خاله
سایش
قریش
مانه
امویان
روسو
قرنیه
کمدید
زنها
##ايه
سفینه
پارما
مثالهای
ناظری
بریج
گیبسون
ازهمین
باتی
##رکی
##وردن
ماندهاند
جداگانهای
101
##osa
دکترین
اقتصاددانان
رخدادهای
باینری
خوری
ناکا
اردکان
اوازهای
گفتگوهای
گویشی
خاطرنشان
فزاینده
مکدونالد
اذرماه
ژو
الل
ادوات
صداقت
عقیلی
بگوییم
لطفعلی
##بیز
سروان
نواخته
دهل
رویاهای
##موتر
روستاییان
الگویی
مشروع
##اترین
##استان
همپیم
##نیوم
فعلا
هیبری
نویسندهای
والا
پشتکوه
درامدهای
##بوهی
کتابخانهها
لنینگراد
سوادکوه
خویشاوندان
die
تزاری
شید
اینچی
مناصب
سیاتل
##واي
سلماس
غیرت
گفتگویی
سیاستها
##icus
شبکهها
کاربردها
مقدمهی
بهرامی
مهمانان
دیماه
##بهروز
مودی
مگن
فرمانی
فراورده
##نامهها
گلبرگ
قابلمه
##ark
افغانها
یونانیها
میپوشاند
عجیبوغریب
بسر
##کیر
روزبهروز
##iter
inst
همپوشانی
حوم
نویسی
مسند
فیور
صحران
حملهای
تالشی
##جنوبی
عالمان
اکتشافات
مارکسیستی
national
سکنی
فسیل
چاقی
میا
##اردار
کرمی
الکترولیت
عبدالعلی
خلقت
اثربخشی
ازهمینرو
eur
بپیوندد
شوال
چینگ
توک
تراب
##واو
محمدشاه
##نتال
انتشاراتی
##ise
روميو
مدرکی
##ott
وزرای
چیل
##خراش
دراید
##اتون
ابریش
بلع
شیبانی
لواسان
گوگن
تیرهی
فراغت
همچنانکه
##stem
نیافته
شگفتی
go
دامی
هونگ
##پاش
##شتهای
بارنز
دنیایی
dec
کمدیدرام
کورک
بیضوی
دادگاهی
همهگیری
دامپزشکی
نمیخواست
ژنها
رستگاری
تحریریه
حلوف
ابسنگ
1914
تفکرات
##حمدخان
ضعیفتر
حلوفصل
رگر
باگ
توانی
محاور
مدور
بیف
##کوو
پارچههای
روایتهای
ماتریکس
نفیسی
هوشیاری
موتسارت
##اتوار
##استار
مصمم
خواهرزاده
توانبخشی
صورتیکه
داغستان
واترز
ورشکستگی
کپنهاگ
لیسبون
قوسی
ندید
##تسکی
##مات
##چز
##ازیا
بیضا
بنک
دریانورد
##قرانی
غرامت
بولونیا
عبدالرحمان
چیرگی
رزیدنت
سکان
چز
##ساعت
##مردی
یکسر
نوشهر
##ater
سعود
##ووات
میشناسد
pap
##هاج
جمهور
دیدهاست
گرانی
ant
ادمهای
ارگانیک
هوت
##یابد
##الشع
ابل
افبیای
اکسل
نهادها
هفدهمین
دیترویت
پربیننده
bu
بابر
اناست
روایی
##میگیرد
##وزو
سلطهی
اسمک
نیکارا
پرافت
تقویتکننده
ثروتمندترین
منهدم
گتو
##برون
نگهدارنده
بدنهی
گیلمور
1927
منظوره
وایلد
متهمان
ساعد
گوک
ایرانشناسی
ماهه
اروین
مینیم
امنای
گوتیک
سراغاز
رفتوبرگشت
غشاء
مکالمه
قادری
##هاء
پرهای
مصباح
کلیات
چونگ
اپت
عبدالحمید
##گلوبین
عقلی
ناپی
ريوس
اعترافات
هاپکینز
بانگ
هاله
باست
##شکی
پیشامده
##انسن
اندیم
گلاس
مانوی
##ops
زاینده
نمیرود
پدربزرگش
مفسران
##فیلم
خنج
##شات
بهیاد
باتو
شدتا
کنتیکت
مظفری
هیرمند
فراخواند
میپرسد
پروردگار
##طینه
##ینگی
فرون
ایافسی
متافی
احمر
گروهان
المانها
ناتالی
قیامت
اراگ
دايما
سوختهای
غیاب
توطي
ساعتی
خلو
سغد
ضحاک
##تسا
موحد
ایگور
یاکوب
دیاز
بزرگش
مکعبی
لغوی
نیمکت
صداگذاری
جولیان
پویایی
تمسخر
استنتاج
met
you
تمجید
اتاقها
زردالو
بازدیدکنندگان
اودین
دوزخ
تت
چلی
کک
معایب
جمل
زیرشاخ
کوچکتری
##قبايل
نابین
ادیسون
ادواردز
میکرونزی
ظرفی
##گره
تاشک
ارمین
دوقل
##ناف
کتابفروشی
تعزیه
نگاره
بنیاسرايیل
بهمثابه
ابوح
رودولف
##یداشت
##ura
شمشیرباز
خاویر
رهی
غارهای
##عهدی
کتابشناسی
گلخانهای
مالیه
مرزها
لینچ
جلسهای
ماکو
تهدیدی
عبدالرحیم
شبانهروز
گلپایگانی
مخصوصی
##فک
درین
##موف
##ara
##ates
##نسول
موتورسیکل
تسمیه
شاعرانه
عبوری
میتوک
شانزدهمین
واگنر
حاشیهی
خلبانی
ازین
اتکا
روزن
ورزقان
کوتاهترین
میرزای
کریستف
1921
کنسرواتوار
اپا
شاو
##چلی
دیوانی
مرجانی
کلانتری
##کارتی
مشخصههای
دیوارههای
بیله
بیندازد
افریده
دلق
##بايو
##ادهی
موزام
هندوراس
خوشش
پیروزیهای
استانداردسازی
کلاهک
کربوهید
اسپرینگز
درمورد
پلیمرهای
histor
ترانسفورماتور
تناوبی
کرنل
غور
ژیر
##اموس
معز
فوتبالی
دادم
مهلت
زندانهای
حمایتی
میناب
پیشینهی
قلمروهای
جفتگیری
گماشت
بهارستان
##روش
الشع
کرانههای
جووانی
افغانستانی
مقاومتی
##une
##قلیخان
میهنی
استراتژیهای
فمینیستی
میثاق
پروستات
پولیت
گنجی
##ناع
##ولهی
اشار
کماب
اندرز
بنظر
جويل
ورون
داستانهایی
تشابه
##000
ماندگاری
خلبانان
حیدراباد
توافقی
گرانده
بوه
##وسون
مقن
##ترینگ
کلیر
ملان
نگهبانی
واریانس
ارغوانی
طوریکه
ضو
ژیل
کوله
بیایند
اصف
شهیدی
واژن
کانر
کاوی
تخفیف
ستارهشناسی
##oss
میافتند
حاشیهای
زندگینامهای
تویسرکان
mor
بث
پوری
پاسی
چله
##ارود
##اسکی
مقارن
کمیسر
والاستریت
جادهها
هیدروکسی
##نمایش
نیترات
1919
اگوستین
هرمس
تعلیمات
اکوستیک
چوی
##چینو
##يیدی
##الای
اوبلاست
اهکی
سهیل
تخمیر
لیبرالیسم
غزنویان
مجمعالجز
mich
##ارث
محسنی
گرهها
##تمندان
##سالو
استرلینگ
بهمعنی
عقید
سوزنی
اندیشمندان
اسکیتباز
مبادلات
مفقود
شامی
هضم
پپت
##نیت
بروسیا
##انیست
##لاغه
مدیت
میدهم
گفتنی
پلدختر
اپوس
##rop
میاوردند
زودرس
islam
بگذر
تذکره
منظومهی
الحکمة
مضاعف
نیکاراگويه
اندیمشک
فنر
یس
##الزمان
##ورزی
گذرا
شبنم
تيود
پروژهای
محوطهی
تکنولوژیهای
##own
نامزدها
اکواریوم
fa
##بوی
همبند
فرنگ
توالت
##اکولا
بزرگسالی
##راها
نتیج
یواس
القایی
بامو
دزدیده
رعد
اوایی
##وتید
اوربیت
بیشمار
مالکوم
ساعتهای
جداول
نیمهنهایی
عکسی
تکتک
اگن
پط
فیلمنامهی
ادری
##وکارهای
##تمادی
##پیشین
رباتیک
##الثانی
لاهور
##پژوه
تمی
سهی
طاووس
نسرین
کثر
##جک
محال
ایگل
ارثی
متاک
مرکوری
احتس
اسپری
باغبانی
برمیاید
hum
جزر
نامح
افندی
واسیلی
حالانکه
میگل
کریستن
##osoph
1923
دروغین
احمدرضا
خمیده
ژولیت
سیارهای
##انته
هزارهی
نفوذی
لوکی
کاردینال
صداپیشگی
فلاسفه
تاز
هومن
براوردهای
##هاوزن
منچ
التر
بلد
##inal
دستورات
##ليان
##صیر
##اتاق
التی
ایول
##وکین
##باء
غیرمت
فروسرخ
مشهدی
یوح
متنهای
خاندانهای
1922
اشخاصی
کنشگر
تابلوهای
معالجه
لاکهید
رینولدز
up
خفه
ضربی
درنظر
##ورید
میکوش
تروی
##کتیک
کلاوس
وارونه
دبیری
تاثیرگذارترین
گوارا
مدیسون
پرافتخار
تسکین
مريی
ابهر
جنگجو
پارکینسون
روشنفکری
اختصاری
هیدرولیک
یخچ
christ
فرکانسهای
اسماعیلیان
ژولیوس
مقرونبه
تریب
شیاط
فاستر
هگل
##گوس
رايول
##انیها
##ومای
##رمنی
تکانه
عصاره
تظاهر
جنگندههای
تراکتورسازی
mc
##زمانی
##ورتمبرگ
##ere
بیشک
##وسیوس
توربو
مفیدی
خارک
زوده
##استون
شهد
##فاوی
##گواری
پهپاد
نقلوان
رنجرز
گذرانده
مرخصی
نیوهمپشایر
زبیر
شول
فیا
کاله
امشب
السی
کلد
تعمید
تخلف
140
سوارکار
هیلاری
لردگان
لالیگا
قایقرانی
ليوپولد
موزامبیک
کوند
##اث
گرت
جهتی
لیستی
یهوه
مشارکتی
##ake
بازتابی
تعلیموتر
تعلیموتربیت
تالی
رضی
##ماز
اوتو
##گیران
باربری
رقصهای
کنیسه
چنگال
قضای
اسلا
بیانشده
نرها
177
چرچیل
قایقهای
اجتماعات
سکهها
لیدز
شکننده
غوط
##ael
الزای
##یکاری
گرداور
##اتیان
فیث
لامپهای
black
##شون
##ien
ایینه
کربل
##اعة
دانته
پیشوای
اروپاییان
##ement
ایديولوژیک
فرخزاد
جاویدان
میانجیگری
شتا
##الة
بروکس
معرب
##ریتیک
سایتها
##amp
شجره
وجدان
صدیقی
پهلوانی
ملخپیشین
##ield
05
طوم
هپ
##الف
برمن
ایاواس
##اندار
دادستانی
فرهنگسرای
شهریجاده
لوین
حرفی
قصبه
خواندند
تنیسب
ستیز
ولفگانگ
غضروف
دوردست
احتساب
کنک
نقلق
##رفهای
زمینلرز
کنندگی
دومینیک
عکسبرداری
استخوانها
القاب
کلیساها
fir
##تسه
##طا
سرفه
کلاب
مثانه
طبل
تصویرسازی
والری
میگذاشت
استعدادهای
هوانگ
سلیمانیه
philosoph
تسو
ندیده
ازط
بودجهی
مساله
دیالوگ
##وبار
البل
اختصاصدادهشده
نظریهپردازان
عابد
هاری
هرا
##میمی
##db
##لاژ
سردرگ
جلوتر
امیراباد
بیمارانی
افتادند
بیکار
اکسایش
چوپان
خدی
دفتری
راتن
مندر
وشم
چیک
گوا
##گنج
بدلیل
شروان
تعریفی
اورنگ
prin
مافوق
وریدی
ter
کوارت
##فوی
##حساب
میسون
روتور
اوش
دوحه
##بالا
##گیرندهی
میلانی
##ودیخود
سیارکها
تصویرگر
کاستی
arm
پشتسرهم
ارزشمندی
درباریان
بهدنیاامده
اهرم
نیوتون
##وردگی
میبود
##انسانی
زندیه
جانبه
کوهپایه
جلفا
گرمسار
گذشتن
ايتلافی
system
زوایای
میکرومتر
بیسم
پرخاش
تاریخنگاران
مصریان
چاپلین
مالکی
##ازمایی
##فعل
بیمارستانها
پیمانکار
حادثهای
رستور
اسداباد
استادیار
نطنز
مقرونبهصرفه
زندهی
##انیده
##زیمی
ترکستان
بازیکنانی
##ايولو
داشتهباشد
قرنهای
تورو
خوشنویس
ملکشاه
میزیستند
جابر
رفیعی
زایش
پینگ
ارانای
بیو
دهقانی
اتنا
جهانگیری
هایک
میگویم
اپیک
خلف
سنگینوزن
بلوکهای
خلاقانه
طیفسنجی
تیتر
وله
دردهای
##ومورف
قرق
اغتش
نیروهایش
کشتهشدن
کاتالان
اقیانوسها
تکاهنگهای
یوکوه
ژاندارمری
فاریاب
لپتاپ
رزن
هویج
متفر
ادوین
دلت
هدفی
زاهد
##گوریو
اطرافیان
انبیسی
##اسین
فرهی
مجنون
افعال
فردای
گونز
پنوم
مثلثی
طلبی
گرانبها
تود
شقایق
اسعد
گرادیان
هرمی
خطری
هوارد
جوین
ماشینکاری
سرودهای
سندیک
اژاکس
صباح
ضعیفی
بانه
##vel
استند
بیپایان
##پیون
طیب
رقاص
روحانیان
گذاشتهاند
فرنچ
انضباط
##مارد
##حفی
##صره
محج
تکاب
مهراباد
سوارکاری
robert
میتوکندری
ضوابط
بشدت
ماق
##روين
پرود
ترانز
هنریک
تلگرام
دوستداشت
سروتونین
##المپیک
کهنسال
##ونیاک
انهدام
افزونبراین
محاصرهی
الزایمر
##حانی
##لیسی
گروید
بیخان
شبکیه
نشانگان
##ont
##ald
بلندمدت
عبدالق
1342
تهدیدات
یونیون
صیاد
کوارتز
میرک
انتیو
فراماس
گروی
سیان
بدنام
سهتا
محموله
انسانیت
لایو
رادیواکتیو
متمادی
##محور
صابون
کدی
نیامد
پراب
پیغم
کلیت
##hel
دوستداران
127
پالرمو
ذهاب
کفایت
دیروز
اسماعیلیه
ساتراپ
نمیتوانیم
شیاطین
رژه
زاید
##لث
##راستا
##me
میرم
هرت
##نظران
حرکتهای
کمیتههای
141
پدیداورد
دویدن
1918
##ابنفش
تفتان
گلپایگان
دیست
##دراز
بارهی
ورلد
ارزوهای
##البلاغه
جرقه
بیهقی
شمشیربازی
خاقانی
بسم
مگی
اوون
پیان
هیول
تخمدان
##لاقی
امتیوی
دراینراستا
باقیماند
مکلارن
کثرت
سما
تاو
##وهاب
دلیر
یادمان
سنگینتر
لنگه
قارچها
زاکسن
خندق
زیرراسته
##یمر
##اردن
برایم
توبا
اسیران
##فرمای
کارتاژ
##ادیس
##نتون
صدابرد
سایرین
بورلی
دبیرستانی
فریبا
گوته
پلتفرمهای
تفرش
ظفر
وهم
کامبر
استیک
مجیدی
بخشد
پلانک
##lex
بازداشتگاه
عمیقا
تپهی
سرپوشیده
نینا
چری
##نکو
##ضعف
##یاسی
داف
نشانههایی
مادهها
بهخودیخود
زمینهها
##وگا
##نمونه
زکریا
شیدا
##حالی
##ثلی
بیگل
متروک
خواندهاست
بیلبايو
اسپیرز
چت
##گات
بادم
انوقت
##نیای
دهانی
غیرخطی
##مرت
پروژهها
بمبافکن
تيوریهای
موفقی
یوکوهاما
تملک
پستم
تمر
تعرض
##ons
##ویتز
نمیکنم
خرابکاری
خویشتن
کمبوجیه
ایکی
جزی
لخت
نعم
گدار
##غهای
کارمن
قرضی
مدیری
##پرده
صاحبنظران
ژنراتور
##ولتز
فوقالعادهای
کفت
##مشی
##ari
عدس
قیمتهای
تفاوتهایی
میگذشت
تحلیلهای
خانمها
زودهنگام
نمانده
انبیای
میکی
##زدگی
##سانا
دلف
##کشانی
بادگیر
الگوریتمی
ابریشمی
تنیسباز
شغال
پیشوا
گلکسی
##ولیز
طرحریزی
##chn
استودیوهای
نگارگری
الساندرو
##بروک
شیلات
محصولی
زیدی
##ایاتی
بهشکل
##سیای
ارابه
اکرم
تفاسیر
سیمپسون
رواندا
فریمن
پالاس
بدهید
##ages
1924
زیرمجموعهای
##ugh
حبوبات
##حسینی
میور
##یشا
سنس
قطری
پریشان
قنبری
اختراعات
حاتم
نمیدانم
پارادوکس
هپاتیت
fe
ظل
##60
##هرمز
مسخره
دانشسرای
شکافت
اقاخان
##شیپ
هیلی
##الدینی
مسلمین
پیشرانه
فریده
##اتوره
مریدان
خصوصیت
##فالو
پابرجا
صخرههای
کربوهیدرات
##غا
##uz
##کنشین
مقوله
پیامد
تشکل
ژانیرو
سیرک
فدایی
خوابگاه
اتوماسیون
انداختند
همدردی
دیافرا
رسانایی
قروه
شهرستانها
تجارتی
پارچهای
کدو
طراحیهای
دینامیکی
شبیهساز
##tern
اگوستوس
اسکیز
وثیقه
##ous
##رزاق
خطمشی
کلیپ
شکلدهی
تلافی
سیاهچاله
شناسنامه
مخالفین
مونیکا
مکاتبات
جلی
طراب
لابی
ژور
المل
اولش
خارش
پلیت
##زمینه
بازارها
##ظهور
صادراتی
گیلانغرب
اعتمادبه
لايوس
هیدرولیکی
نهجالبلاغه
بجا
خاز
یب
##نوا
##باتی
بازمان
کلیولند
نهبندان
##eng
ابزارهایی
##سدورف
ناپولی
تماسهای
هالو
اویغ
اویخته
ریاضیدانان
##واح
##اهیمی
اتال
زیگ
پلکان
ناطق
باغچه
گیاهخوار
تدفین
سرودههای
مافیا
تشریفاتی
غنیمت
08
sim
ساسان
نکش
##عنوان
اسیبی
غذاها
کورپور
دعوا
شارپ
استانداردها
امامیه
تلمود
رگرسیون
aug
پالی
##فست
روبین
سرورهای
موقعی
نبوی
نمیتوانم
ترمودینامیک
استراسبورگ
pri
فاو
ژوست
##دلی
##فتند
توب
ایبری
کرات
بیسو
شرحی
##پیوسته
فروزان
##الدو
هفتهای
هزینهای
ايمه
سالمندان
سیستمعاملهای
میزیسته
خلوص
توسل
دانشور
میلتون
پارالمپیک
تومیت
##ute
عکسالعمل
الحسن
تویوتومی
لنگرود
ترینیداد
پروندهی
societ
ابوری
مینویسند
یهودا
ماریون
##شاء
مجلد
مزاحم
مستقیمی
ازطریق
شسته
ضیا
لاوی
برید
نوازی
بواسطه
لیزا
##ويوکا
افزایشی
رهگیری
سیدمحمد
گوگوریو
فتحالله
اتاقک
دالان
##able
معشوقه
عاقل
##لار
##الحه
برات
فرابنفش
ریج
##اسیک
##ونتری
پردازی
شیراک
حیطه
متنباز
والقبايل
بابکان
نمیگذ
کلاسها
##المنافع
شوالیههای
کرتاسه
متخلص
پیشتاز
عقیدتی
ممی
یوهانس
##حام
فرکان
اقق
##التون
علیمحمد
سیمهای
باغداری
##ula
سوزانده
فایلها
اتریشم
##رکننده
##ژرمن
03
زدهاند
سارک
یاسر
##ورون
رابی
عمه
مشگین
بازنمایی
دخانی
صحابه
تومانی
ربکا
موزون
فیلمسازان
عبیدالله
دستنخورده
##پنج
##پارت
##ارام
المت
هراز
استفادههای
دانشیار
نمایشنامهای
همهگیر
طرفه
بورسیه
##ella
فیبرهای
مفرغ
تاشکند
sal
بوری
جگ
طه
کایل
##توری
دیوی
بازکردن
سهتار
شهناز
منحصرا
نامشروع
دايرة
ریزشگاه
موروثی
science
du
ظرافت
غاز
پوزی
##واد
##لیتی
اشغالی
خیزش
نرمافزارها
عصمت
تامیل
عطف
اریانا
رنگینکمان
دیری
گچی
##ek
##sc
ایب
ایشت
دستمال
مارینا
خصومت
کنندههای
توضیحی
یزدان
گشاد
مصدوم
تکهتکه
اعتمادبهنفس
میجی
هندرسون
پسرانش
اپتیک
باستانشناسان
شهرکهای
الگوریتمها
درسهای
عمیقتر
ولسوالیهای
tex
review
بلشویکها
نمان
##ترس
میکوشد
بوخ
##انسکی
تمایلی
دولتاباد
##hed
##ena
کاتد
پراش
استودیوز
دندانها
ویرایشگر
ریمیکس
میکروسکوپی
ناخوشایند
هانوفر
sl
بزم
دودی
دونت
کثیر
##ذا
##اهد
المو
سرخی
کارگروه
امارهای
عدلیه
مشترکالمنافع
نارگیل
بندیکت
نقاطی
قارهی
ملاحظات
زیل
##61
راور
متصرف
جنگجوی
##شدگی
خواندهاند
موریت
بمبهای
گناهان
چناران
شرکای
دهلیز
دستاندرک
بتوانیم
گودرزی
sol
دیش
هوه
گلیک
امونیاک
##ماندی
مقعد
استفادهکنندهی
بازن
مستی
##ولیو
خواستگاری
اسیبشناسی
واژگانی
##انگیزی
تخمک
نصیرالدین
##ography
فرکانسی
میلز
تعز
طبیب
جیو
قیچی
ماتس
1915
brit
میبندد
les
ااس
عاص
نال
اواره
##اندام
ریف
ایرانیتبار
صفایی
وزش
خداست
ناظم
تزریقی
مختاری
محدودیتهایی
هیچکاک
نوترون
میدیدند
pat
sub
ذین
##اتوم
البال
کارشان
واقعگرایی
نشنال
کلیهی
نگین
محموداباد
سرکنسول
قطبهای
زارع
زاویههای
گریختند
فاشیسم
کورپوریشن
خویی
خنجر
##انچه
##دهام
ازیک
کرگ
##ندهایی
کتابخانهای
روزنه
نقشهها
سینوس
نمایشگاهی
پارگی
مرتضوی
تهیهکنندهی
خاموشی
##سفون
##غلات
geor
don
بگری
لویس
##لسی
همتا
انجایی
##اطبی
کیسی
چیپ
سارگ
چگال
الومینیومی
عسگری
نوزدهمین
اونی
ایجی
سولی
چندوجهی
مستضعف
وسیلهی
لاغر
بیاثر
برنزی
متداولترین
نافرمانی
المقحفی
##امیر
سالروز
##وریسم
##چهارم
کالری
فولادهای
تریپ
واژگون
اریل
بهمنی
ابوریحان
09
ریکی
وارت
##اندریا
قرضه
ویستا
پیشدر
گردی
ورزید
داخله
جوانمرد
تیگران
کلاهبرداری
خوارج
جویبار
فرقههای
ممنوعه
اپلیکیشن
غنای
اغراق
خارق
اشکالات
مبنا
هارپر
مامورین
مطمي
گهواره
تاسمانی
سايوپ
وثوق
مجمعالجزایر
سمند
فابی
##ذین
##روبی
نیجر
کامکار
پناهی
##igh
کینگز
دغدغ
language
کسل
##خودی
ازدی
گراز
داشتیم
گلچین
##ايیک
اغازگر
جوراب
القران
کارخانهها
طاهره
هیروشیما
تسلیح
هجدهمین
##هرود
مشورتی
کوانتوم
منحصربهفردی
##چنکو
ناهنجاری
بگذار
تریک
جویی
گاب
اماندا
پران
ترف
بداهه
سنگفر
صداها
سورین
سورهی
سويز
هارمونیک
القای
##اسطهی
نغمه
##ورات
اینباره
اوازه
قدرتمندی
رودان
عبدالوهاب
درامدهاست
160
پرسشهای
زبانه
غیرمنتظره
orig
##قهای
##ستگان
عالیه
گنب
ایدین
یارانش
wil
جلا
چانه
گپ
##ماق
بینظمی
چشمپوشی
اصلاحطلب
اییننامه
خشتی
ضمانت
فامی
دانشی
لهجهی
پسرانه
هایپر
کاتالوگ
دفترچه
واژهنامه
مصداق
کنسولهای
1339
اغتشاش
nat
rad
##pe
##ba
##اخام
سبکتر
میرسیم
اسبهای
نفیس
پرجمعیتترین
فندق
کمپلکس
سوند
عزم
ووی
##جارستان
##راس
##ژین
اوق
اوژن
##بیح
کرزی
استفن
پولک
1917
دیلمان
تایلندی
پنجرهها
چغندر
رالی
##di
##قیس
بیگی
##شکا
کمری
امکاناتی
صلحامیز
زخمهای
##وسنتز
خارقالع
rom
لینگ
پختن
بیاد
##لوپ
##ایران
قرنطینه
حمایتهای
درواقع
##الممالک
بویل
صدار
اتشی
بنوی
ورقه
##ions
لکههای
انزوا
rich
خضر
شازند
##ring
استمر
مکینت
لوون
اهنگری
ابرها
تبتی
مرتبهی
ساچ
خبره
سوربن
پولس
ناسیونالیسم
تمساح
طرابلس
مانت
چستر
روچ
تنور
بالار
شهباز
بنیصدر
سرعتهای
رویدادی
صندوقهای
عالیترین
00
جراي
گانه
##شها
##طره
##ونیستی
نشاسته
##کیف
##رسانا
پهناور
نازنین
فیروزکوه
مجهول
نمیداد
قالیباف
ربیعالاول
خاقان
اتریشمجارستان
بتل
##طاط
##ونتی
رابر
##برق
زیربنای
ریچی
سیناپ
تابشی
عکسهایی
باختند
paris
##عق
##ولاری
##نوو
##پرور
##گانیسم
بزه
رکس
سبا
پوه
##انتی
اوچ
##سرت
غیرفلزی
دلهر
ماسی
##گلان
بافتها
state
کاکتوس
بهصراحت
جبار
عاشی
##رور
##کیا
##داغ
دارک
مبارکه
##urg
جغد
مزدیس
ساراگ
خزانهداری
تشعشع
حراج
شگر
وش
##نهی
##عربی
##uf
برگر
##یتال
متصدی
##وشین
##يیز
مستغلات
کردنشین
مادرم
اریتره
بولتون
پیترو
جسور
مگاپ
زیرمجموعههای
فیلترهای
لولهای
جادوی
کتیبهای
بشردوستانه
قیس
بهشهر
میادین
السلطان
خودتان
دوستم
دانایی
هرساله
مکران
مصونیت
اوره
عبدالرزاق
تاجیکی
110
اخرالزمان
وسطایی
عبدالقادر
خاين
سيو
غمان
##داش
##df
اماد
نیابت
دادههایی
شیرهای
پشتبام
فتحی
125
##اژنز
جادوگری
قايمشهر
یورگن
بشیر
خدان
زک
پشه
##مزه
رواق
الجی
سرط
دستنویس
لیام
کلیبر
اسپانیاییها
کودکانی
بهميی
سیتروين
مجاهد
بهنحو
سپردند
ربطی
کلکسیون
نقلقول
خرب
لاهه
هایت
سالانهی
##نگا
ابها
علایق
##انسک
گواد
تیسفون
موتورها
کالیبر
اسبها
دایرکت
سیلیسیم
اوايل
اوزون
نامههایی
سعاد
صداوسی
تداعی
کنسرسیوم
online
لاتزیو
سوران
لیما
##زبری
##40
کرامت
متین
جمعیتهای
کليوپ
تجدد
اسپای
ماهیچهای
سیلویا
پیروانش
منصفانه
سايوپايولو
فوریت
##خواند
دران
منبر
نیومن
انجلا
حداد
##یدها
ستونی
ورزی
پاراژنز
ریاحی
رادیوی
بسپ
باورها
ورودیهای
جانشینان
شادگان
موبدان
پافشاری
تارت
ملام
گاوم
نواور
دارت
##وکلا
گروهبندی
رهنما
ابیات
ang
##ird
ريالیسم
اشعارش
اندرسن
هیدروکرب
لانس
هومر
کگ
##پره
##فصل
##بله
اینگ
##تراش
ارمانی
استانهی
سخنی
جیپی
حسنبن
بلندپایه
جرالد
بشوند
مختصری
درسدن
جاسک
فواید
##وتکنولوژی
دیافراگم
دخانیات
حوا
##یشهر
دیاس
بیبر
سیس
مفروض
##گلر
نقاشیها
ریچاردسون
ازاینپس
دیمیتری
رسولالله
مراتب
studies
ht
چاره
##وث
##گومری
یکونیم
##ولوشن
شدیم
ابلی
پیشامد
##ويیل
خشکشده
سایبر
مدرنیته
سوپرجام
کرمهای
1000
volume
صدمات
codice
ناکافی
بیخانمان
oct
تپور
روا
عمقی
میلو
فعالی
قطرات
اضاف
نمیتوانستند
محبوس
دویچه
ورقهای
مینشیند
ماقبل
شفیع
لکن
##وستی
##38
فرجام
مخمل
وینستون
اعمالی
سمیرم
07
cin
ثلث
رینز
چکا
##خوا
##وریم
##نیوس
شرلی
##ازیان
##تقارن
علاقهاش
سوزوکی
##ific
رونالدو
مفعول
چاشنی
مقننه
حشم
خیل
نطق
##لوت
باواری
##یدس
مویر
کارکردهای
بیوک
ابا
تاریخچهی
مکالم
##نوف
inc
بسوی
##پورتیوو
وینتر
##العابدین
قناری
لاتینی
ناسازگار
کیمیایی
عبدالبهاء
econ
wom
غدیر
##گامی
میتوانم
موردنظر
بارو
همهجانبه
چاپخانه
##پلنگ
تروریستها
اسنادی
میبینید
فشنگ
ca
##فناوری
دانوب
اقامه
مصح
##ادرت
نتهای
تروریست
ذوباهن
باتریهای
گمرکی
پاراژنزهای
خیا
##فاف
##عة
##ریخت
یکدست
##انیسم
روبات
نیشکر
بوعلی
مهین
سناری
معمایی
##نتیک
سیاهکل
##اویا
تصویرگری
کلاسی
##خواهانه
تریل
گذشتهی
##روتيین
first
ساراگوسا
وگر
انبوهی
جنتی
کلاد
سهیم
هنگک
مغناطیس
##وانیم
درختهای
اچبی
رفتارها
ونوس
بوتس
نصرتاباد
سرمربیگری
نجیبزاده
روبهرشد
اشتباهی
mil
جلیلی
##الیس
##واچ
شیروانی
عزیزم
لنکستر
شباهتهای
باتلاق
دوبارهی
بنفشه
وفا
گسی
##زیت
کهکشانی
همزیستی
ترزا
##وارهای
بازنده
کوست
اغشته
##ora
سورن
خواف
خورخه
ناخدا
بلندیهای
گیگابایت
لوران
نانت
موها
کارفرما
کرول
کلبه
کندن
مکری
حمیدی
تلاشهایی
بانکوک
روانپزشک
1340
1341
متروکه
##مکعب
اقلیدسی
عت
پسی
گوران
##سبد
همگرا
پرستون
انجلو
شکوفه
سهند
گروهبان
دارندگان
فلان
سمتهای
ارتشبد
جلسهی
حدیثی
rec
کارتونی
##وفرنی
گویندگی
نمیدانست
غافلگیر
الرحمن
باتیستا
تغ
شاي
ولا
چچن
گاگ
براندازی
بیجان
##وشکن
##واسی
نیریز
##وقوع
پیرنیا
امپد
چیس
جریانات
تورینو
تیرباران
بانکدار
##ماندو
خزنده
غیب
کمابیش
اگری
فولی
##be
الاش
مرداب
میکنه
##ابران
اسیدها
پوسید
غمگین
فامیلی
pal
##ham
نمادها
کلرو
##شنه
شهوت
اورست
ظرفیتهای
گربهها
موشها
تزیینات
ol
وسو
##سترا
##روج
محول
##بالت
سیاهی
بناب
سنترال
خطهای
سیاح
نیکوکار
پاریسن
هوشیار
##ular
نردبان
ثلاث
bra
گرافی
##سبرگ
##ka
یاک
مروان
##جهان
تنبل
اندروز
مصدر
نویسه
لوای
ورزشگاههای
الکترومغناطیس
سرگیجه
پورشه
فست
وکی
چیده
الاح
کلمنت
کوال
اندرت
گلزار
رفتم
لوگو
نوشتهای
هاچ
برقابی
اژدر
پايول
شامگاه
زهکشی
ماهوارههای
کلاینت
صحرانوردی
mer
##ml
##der
استفانی
اکستر
حسگرهای
##کلین
سامانهها
ساعتها
بستند
مونوک
سرکش
شارون
چرمی
زینالعابدین
زادروز
اویلر
society
ازیکطرف
dan
##امات
همتر
ریپ
اختلاط
فقهای
##سنس
theory
بعضیها
بیتفاوت
مارتینز
دایانا
مولفان
06
hol
حریق
خیمه
عکا
لیتی
یوبی
##ذل
سیبیاس
دانکن
کلودی
بدعت
بالها
##کرایس
مارکی
##رانهای
تياتری
مبادرت
لويیجی
منقار
ورسای
سلوکیان
dist
جیا
لکی
گینس
امفی
مالاریا
175
مشروب
وکلا
حاملگی
برافرا
فینی
بهوفور
فرخی
##خیزی
##رمارک
باربر
دریافتند
محمدر
کمیساری
نبوت
روانکاوی
ایزابلا
معتاد
گویشور
بیکن
پاتری
بحرانهای
شیبدار
فیورنت
##لایه
##ندرا
انزیمی
فراطبی
##وتسو
شکوفا
اخباری
ورای
فریمان
ویدیوی
جودوکار
راندمان
مزدک
کجاست
متفکران
قالبی
music
بعدازظهر
شوشی
اباده
##وکسین
بالستیک
نخبه
لیاقت
پلین
بلندای
عبداللهی
وایمار
اسمانخراش
شجاعی
مینیاتور
برگزیدند
المپیا
گوگنهایم
خدیجه
پاریسنژرمن
دویل
رعیت
نگیرد
##ترون
هملت
متز
تیموتی
اردل
سودا
پیامرسان
گشتهاست
اذرخش
لنفاوی
گچبری
ندادند
خودبهخود
دلهرهاور
wal
چرن
همتای
شدبر
دوسل
##بايی
##گوچی
رجبی
مجلل
ارتدوکس
ابطال
قضیهی
econom
fre
خب
##شل
اینجاست
کشیدهاست
##مینستر
پرستی
زیاده
ریحان
##ایلر
اورنج
سنگوکو
داستاننویسی
##ene
عرشه
قطعههای
مکانیزه
سروکار
پورتلند
ترشحات
پیرانشهر
love
سیمی
##ینگر
##بیگی
دیانا
اتس
شیفته
جهانبینی
یادداشتی
سرزمینها
برندهای
ناتینگهام
هیدروکسید
بزودی
مینامیم
دوبلاژ
ارزانقیمت
خوارزمشاه
سلسلهمرات
لاجوردی
پوارو
##sch
##bc
نويل
تنبور
سوف
##کوویچ
ورژن
هدفش
واکنشها
اراگون
مونتگومری
هایدگر
کاکس
الترن
متغ
##ناصر
تمث
گلدار
تعاون
مایهی
حسنعلی
جاهایی
زیستفناوری
##المومنین
پوشک
دشتستان
ریشهای
##ays
زوجهای
دوپینگ
جگر
جیتی
سسک
ووک
یولی
##نور
##ستار
##یتهای
اوتر
نوظهور
لیسه
اسکله
بیران
کفشهای
اصولگرایان
##ولتس
لاکت
دکستر
اسفندیاری
درمیاید
##رکنندگان
افیس
سندر
هانگ
##ym
توخالی
مرسی
نوایی
ابرک
##لولیت
اخطار
معمای
شمالغربی
شخصیتهایی
پورتر
تنگات
میکروب
ایوانز
مبلغان
ارمانهای
میثم
حصول
لوان
پگاه
پریک
##هون
##ورای
##ورسکی
همکلا
علیاف
##والکتریک
عاملان
ناتالیا
تجدیدپذیر
جنینی
ابوعبدالله
##صادق
دولتمردان
السالو
دهانهی
کوپه
بلر
ریزه
اثرگذار
متخلخل
intro
سالوادور
الیاژی
مصیبت
دوستداشتنی
che
##ke
دادخواست
مطلوبی
اردستان
نیازها
مطالعهای
پسماند
جاییکه
جدولهای
قافیه
طبیعتا
سولفید
دوپامین
polit
اریش
خونه
امگا
نامتقارن
##فیان
##منش
کلون
هیث
زنبق
پروپ
نهادن
فروت
معلمی
engl
عنبراباد
نامتناهی
michael
اندرتیکر
##25
##uary
سالاد
دریاس
توسعهدهندگان
##لینا
مایلز
مبلمان
شعلهور
کوارک
یوزپلنگ
موریتانی
ob
شرافت
ونگ
ابون
دارچین
پیگرد
بدانید
##وبیشی
سابقش
گیاهانی
ابوالفتح
سلیقه
##ذهب
میساختند
سپیدهدم
صعودی
##سیته
اسای
1900
سفیدی
نمودارهای
بهشتزهرا
باهنر
اشیانه
عریض
طهم
لارا
##10
الاص
کرخه
افرو
##فتهاند
تراکنش
خالدار
عمدهترین
جنایتکار
colle
اسپورتینگ
منوچه
barb
لگاریتم
august
سلسلهمراتبی
##45
فروری
رودها
اسلی
اصلاحی
تورهای
موقوف
گیرندهی
دیدهبان
تریلیون
حفاظتشده
نریمان
اتابکان
cat
dr
##سیلهای
##بالان
دارالع
##وشه
نشینی
گلخانه
بیمع
شیردهی
جیان
رومان
نیکسون
متناقض
گیرب
سیرا
محورهای
رامهرمز
داراییها
پنداشته
نگرفتهاست
هموگلوبین
اپاچی
پرید
دریم
##اپر
اشارهگر
##اوای
##وقا
فرهنگیان
جیغ
##urus
دبیران
بنگالی
نیاوران
هشام
لمب
ساوتهمپتون
موتورسیکلت
gr
قامت
##لور
استاین
کاربید
##موج
سنن
دیدگاهی
##سالگی
جیبی
روانشناسان
لبهی
تازهکار
عکاسان
جعفراباد
بخارست
پرتغالیها
هادسون
سرنشینان
بخواهند
بگویند
van
##چیک
##ارسی
اوکلند
##کنده
اسبی
ایچی
پیشکش
چهارگوش
مورف
ساختارها
فیثاغ
جول
للن
##حا
##ذکر
علین
اسپکتر
##الملوک
##ural
پالمر
157
پرستاران
صبحانه
طاهریان
ذینفع
زون
ژرمنی
##پاک
اثیر
سازهها
شیرجه
سرخه
کیهانشناسی
ابهامزدایی
امپریالیسم
تفاضل
##سکه
##پلین
##اسک
اسا
مروری
دارندهی
##بانگ
گلشیری
مستطیلی
مانعی
کرمانشاهی
نابجایی
اشکارسازی
نعمان
مراجعت
جزیرههای
مسوولیت
صلو
##طوری
##غات
زیرگروه
تیمهایی
##یکیان
##کنندهای
##کنندهها
نباش
دنیاست
زیستگاههای
پیامها
جاسازی
شستشو
هیمالیا
ایلخانان
مجذوب
جرايم
خیری
طارم
باسک
##اریک
##وبند
دارکوب
قلههای
پنجگانه
لوفت
کریش
محمده
واحدها
درامر
سموم
زیستشناس
سلیمی
سنجابی
یوکاری
دندانه
عرصههای
جاودان
باطنی
paul
lib
rat
گوه
##28
استاتیک
##ریختی
مسقط
میکايیل
بوکا
منتظم
ولگا
بررسیها
کاریز
لحیم
تریسی
سیلاب
##ade
دایرهی
فرناندز
مواقعی
کجور
ذرهای
پکت
##جیر
راسک
روضه
سیلیس
##تماعی
زننده
البانیایی
##اشتن
کورههای
مزایا
سنجاق
ویروسهای
والنشر
مسوول
راهکارهای
میتسوبیشی
تارک
##غامی
یکباره
##ino
##سلمین
مناسبتر
رستاق
پذیرفتهاست
بگذرد
transl
اچبیاو
خراف
دکارت
طوس
فط
واکس
چول
چابک
بهبی
دستکش
##نته
نیستیم
##هاما
راهیابی
بیهوش
طاقت
معنویت
فراماسون
بادمجان
نعمتی
فراطبیعی
رامون
سولو
عادات
##فعی
##ایاما
بهحق
##اتوس
##ازین
ابوت
کنجد
مشبک
راهبر
سلتیک
موتیف
دگرباش
جادوگران
سکوهای
زنا
قوهی
##نفر
العد
نخاع
داستاننویس
##ator
زرشک
دماغ
sept
باخبر
فرسوده
یوحنا
حنا
##pa
استران
بردی
موشهای
سره
نشی
مصالحه
شهلا
ایستادن
مقطعی
کازان
phys
1916
میاوریم
py
حاصله
حیله
رنده
لعل
گاگا
##35
گونههایی
ریچموند
##ادولید
دانشاموزی
گرانادا
موریسون
للطب
مجارستانی
تومیتوز
مزدیسنا
بي
کاور
##led
##ارایی
##ونم
التم
بیاس
اخلال
هندوانه
بیتهای
کامپیوترها
ادواردو
کراچی
نکتهی
دونتسک
للنشر
his
id
تارا
فاب
ولید
اوستی
کارنات
استفانو
اجی
##مانیا
##ازیس
اشتر
##ثباتی
حلوا
دعوی
##iver
250
نینوا
تفرج
لفظی
bas
نگرد
پوي
پولیس
امنی
فیجی
ندای
سکون
کومو
158
بزرگترش
##مجید
ساوجب
برمیدارد
ونیزی
للطباعة
شرا
گوب
##68
کارفرمای
پیانیست
پذیرد
پاسخگو
اولیور
لمسی
##over
بفتای
پیشنهادهای
فلاندری
دستاندرکاران
سگی
شوارتز
انتیب
همپ
##بدن
ملکشاهی
ساقط
سوپران
شاگردانش
04
شغ
ضی
##oy
##وساک
نشیمن
##وکروم
##ابیطالب
##نتین
کامو
هدفهای
امرار
هلنی
پرتابگر
بوردو
شاهرودی
دوسلدورف
لادن
کردار
توبی
تراست
تاریخهای
وارداتی
گریخته
امیگا
اسکارلت
قطبش
راداری
قفقازی
##اندیگر
منفعت
فلويور
پولیتزر
افی
خندان
##پیه
اربیل
اشاعه
سهگانهی
اسپیل
فرودگاهها
ستود
نابغه
غلامی
تمدنی
میکروار
لولهکشی
عامر
کوکو
فسخ
eds
ادلاید
modern
بدبختی
بهبیاندیگر
حصر
لاد
چاب
##خاک
##we
##ابیت
یاغی
ارتی
##ومیان
شهابی
ناوشکن
حجاج
هیدروژنی
reg
گناهکار
زندگیش
اسکلتی
بودیسم
mel
چرو
##اهان
امیدی
##اسون
دیون
دورافتاده
کووال
نویسندگانی
افراز
بازارچه
پیکاسو
##rew
پرچمهای
تروتسکی
##مردان
اوبونتو
زاگرب
صدارت
دایان
غازان
پالت
##ستاین
امسال
##میع
##ابراهیم
سنه
رنگرزی
پایهریزی
وسوسه
درخشندگی
دربرمیگیرد
الپاین
کندهکاری
السالوادور
ps
جویس
هایشان
##شدنی
سردی
##جعفر
##کریپت
پنجاهمین
واتفورد
متقاطع
بداف
پاگ
##شاسپ
##المع
برهنگی
##شتم
ادینه
افکاری
زیور
شدنش
##نتا
برخوردهای
تورج
ویرانههای
سرخپوست
دوستدار
کلمب
کوبه
##وشیمیایی
li
خرا
زمرهی
##li
##چهره
برایتون
شهراورد
ایلیا
شمش
عبدالملک
نداشتهاند
محرکهای
باکره
رالینز
ترمودینامیکی
سهیلی
کینز
یق
##نک
##اندیشی
دیام
کرانهی
##ریکا
##راتورهای
استرپت
تایرا
موقتا
رخنه
کلماتی
شدیدتر
ویکتوری
زمستانهای
خمسه
امانالله
ویتنامی
##iction
کوردوبا
متاکریتیک
جزیی
غمانگیز
گیربکس
شورت
کدر
##تک
درنهایت
فرشید
بیخوابی
ابرد
پردهی
##رفیلد
هیيتهای
تراجن
گرافیت
امیدواری
شستشوی
متجاوز
act
ساندر
مونا
وینگ
گالات
##سیدن
توشی
اعلی
##عیار
محمدکاظم
جوخه
پدرخوانده
##icle
شوقی
خلیفهی
رادیولوژی
ریاضیاتی
1913
کرومات
قضايی
ابادیهای
بهاءالدین
قاتلان
مکینتاش
پوسیدگی
english
جرات
خراش
گارف
##لة
محمدبن
سانچز
ذخیرهی
دموکراتها
بدهیم
تبعیدی
##منظوره
کليوپاترا
کمیساریای
غایب
ادیت
##بتوجه
##وکش
سوختی
اغوز
##ese
درجهبندی
میرزایی
بستهاست
##ental
کرکس
نزولی
وداع
مکانیسمهای
بکنند
william
سردرگمی
مگان
واله
##هد
فراد
##وزومی
کوثری
تماسی
مترمکعب
لیان
گلولههای
فارم
کاشمر
کوشان
قصران
تمدنها
اسنودن
سهروردی
شدهبودند
عالیرت
هیجانانگیز
عصبانیت
عالیرتبه
kar
سمع
##بلاغ
##خمی
متلا
نوای
بیع
##اکین
تحصن
علیال
تراشیده
##ama
فیلیپینی
##ریزاسیون
دایناسور
نمیخواهد
امپدانس
##زیل
بازدار
کوين
هیوم
##شاهیان
خوردهاست
گالیله
ژنریک
مظل
جبريیل
حفرههای
بویایی
حوضهی
فانتوم
ذوالفقار
ساوجبلاغ
aut
##لری
##چیا
##اختن
کشاند
سنگسار
فقها
سیاهرنگ
##ush
##میرزا
دربرگیرندهی
سوییس
رباعیات
سمینار
منافذ
حری
##خس
##دت
درامی
مداد
بیثباتی
ابیرنگ
بوق
فیصل
پلک
بیزانسی
سي
پسا
##ناکی
##دیل
استریت
##یاورند
ابوذ
##وکرات
سوگواری
##پیس
فقرا
بستنی
ملکهی
بشارت
عیوب
سنجر
فریدمن
نبردها
اورتن
عامهپسند
ماکسول
ناسازگاری
اسکیزوفرنی
##ric
##وردها
##لیش
مسافری
رویاها
رویترز
سوزی
لیث
##inus
عبداله
سونامی
وحشیانه
لامرد
میمیرند
دسر
##قدم
##سکن
##nd
اتیل
اعظمی
##واگن
نورا
خوشحالی
نیویور
زدگی
اسفندماه
انحطاط
##ower
march
هوافضای
کاتالیزور
لاشه
کارناتاکا
dia
sa
دمیت
زیت
ساطع
##98
##بانان
خوانش
##ويو
مرتبا
مفاخر
خوشههای
جعف
تازهوارد
انزیمها
ترومب
north
غزلیات
الاهلی
پیغمبر
تیش
دپورتیوو
رمی
هتر
##بانه
##کاو
##ارمونیک
##یتد
ایاس
##ونیوس
اتات
کلب
ارتفاعی
هیجانی
ژانگ
سلطانیه
تهمت
پاوه
ناتان
گراش
نپتون
واپاشی
##اندواب
وصیتنامه
جاکارتا
لبنیات
لوند
وصول
کتان
بها
بیار
کامبیز
اردوان
##انگاری
مایور
کرمانجی
متنفر
ایمپل
پالم
ماتری
فرانکن
صدرالدین
همدلی
ترینیتی
زیاناور
لپ
مبین
##عبد
ازنا
روض
اسو
##ناپذیری
کلکته
شورایی
برگشتی
اسلح
مشخصا
##ola
بابایی
تالکین
ویتنی
اندازهگیریهای
##کلیف
عقلانیت
دستورالعملها
وودز
ساندویچ
کپلر
التواریخ
##خدمت
مکارم
##یلهای
سالهاست
##شیان
اغاج
هوف
عبدالمجید
ماریان
سرودهاست
##omys
میگذاشتند
ریشهها
چالدران
فازهای
ارسالی
اسپارتاک
یغما
دستبهدست
بونی
بجنگ
فایر
برشا
ویار
##باله
پرایس
##ولیتن
نورانی
سارتر
طایفهی
مارد
##مهی
##دس
انریکه
ارتمیس
حمص
مخر
مینسک
پاسدار
خصوصیسازی
صحنههایی
جمالالدین
ضایعه
حنفی
گرایانه
باقیماندهی
instit
cult
لکس
یقه
##حض
##ودیک
فراس
الاد
هرن
##وارههای
##خیزد
مارکت
جاوه
استیونز
تنگستن
انصاف
مشایخی
ساتراپی
ناظران
دلقک
hel
جوب
##حانه
##ker
شدان
محتو
##یشکل
کرین
##نامهاش
اذان
##مراد
مالایی
اینتراخت
ضدعف
##ents
خطیب
##بابا
ابعادی
پاشنه
معصومی
زندگیشان
خورشیدگرفتگیهای
پشیمان
همکلاسی
تینا
سدی
عاد
##wn
انیس
##گرانه
نیستی
بازپرداخت
رایس
رایلی
شکستهای
پاسگاه
مفاهیمی
مناسک
کویینز
ناهار
زمامداری
june
میاندواب
##یلها
الحسین
##شکلی
##وسر
##بینانه
تیراژ
نمیشناس
لباسها
پترسون
جابز
بلکبرن
الامارات
توربینهای
تخلفات
شمیرانات
##نورد
بهاره
براتی
انر
سازها
قدری
دستیاران
دیدهاند
##ریشیا
دانشاموختگان
offic
باتوجه
علینقی
02
##شیدی
##31
توپی
کارم
بالعکس
##اخانی
بهداری
هندوها
مبارزهی
جرارد
نیروهایی
بروزرسانی
پیشرفتهتر
واتس
میوزیک
پرافتخارترین
تسلیحاتی
بویز
وودی
##خاری
##عاملی
##داده
امدی
فراص
معاص
مدنظر
مرفه
ناممکن
##ناء
##رفورد
بالدار
سبزه
جشنها
مهرهها
والش
##ides
پراو
بلغاری
thom
تاتار
بشکند
جالبتوجه
برنی
اموری
سرریز
دوبعدی
##دیث
کوفته
شنونده
هوازی
##ناسیم
##ويیک
مسلما
هواپیمابر
امیرالمومنین
عزالدین
جاودانه
تاختوت
فرگوسن
بیرحمانه
عیار
لونا
لاستیکی
پویش
##دندان
##ze
استروژن
هموط
التون
کیلووات
ولگرد
دیرتر
ste
عباد
نوکتیز
عشاق
cro
طمع
مرید
پچ
##قال
##so
##ober
روک
موع
اهانت
مصون
سنایی
راهبان
نهال
یونجه
پاسداری
دمش
باغملک
عرضهی
کاخهای
الحق
ثروتمندان
پورتال
mart
ستیزه
افشاگری
غربالگری
پارینهسنگی
حومهی
منوچهری
انتیبادی
##خلی
##گای
هرسین
سنگنوشت
نورونهای
کورس
گریگ
بسنده
شاخهها
هیدر
خیراباد
##ودینامیک
پهلوانان
کرایسلر
چکاوک
ایمپلنت
دث
##لنگ
##زرا
##لیوم
##وکاری
##انسور
کتابدار
شاهراه
پوشان
##ures
سانتیم
##فالن
نگارههای
وسیعتر
گلدمن
طایفههای
انفلوانزا
وگرنه
long
دکم
وتر
##بخت
##بلو
##صم
میایست
مدولاسیون
فهرستهای
مشاج
بازدارنده
نقشها
##لسر
مردمسالاری
پسرعم
پوشاندن
جیپ
اصلاحاتی
هلنا
قیمتگذاری
ویديوهای
اونیل
سفیده
ناپیوسته
mal
سمیت
صمدی
راپ
##وتای
دیان
مخمر
جدیدش
بدنسازی
##ole
ویلیس
توپولف
شورشها
1912
اتوبان
لورنزو
تقیزاده
پرشور
گيورگی
هلمند
دسی
##رونی
##بلند
##ژک
##چوک
##انیدن
ایون
سرشت
مسب
بیعد
ساختههای
##وکراسی
بازتو
زبانهایی
اورینت
حکیمی
دلبستگی
ستد
موفقیتی
اسکادران
سورانی
##کشها
پاپهای
واکسین
##berg
موضعگیری
اندریاس
پاستور
time
دراویش
تويیتر
پستمدرن
اوقاف
ضدا
قاط
ملو
##فلر
##uch
##صال
برروی
همسو
زیره
تصمیمی
پیرام
جهانیان
امپرسی
اشتعال
سوروس
118
بایزید
edit
کنیز
جونیورز
ویسکوز
غفلت
بادنو
دوسالانه
شستن
قولی
یود
##عارف
##صح
##ایستی
##ویست
##کنر
اندیکا
تمپل
راهراه
یونها
##وپول
جیحون
تکنوازی
ماسوله
وانمود
بیانیهی
سمیعی
هورمونهای
##خارجه
بالتیمور
المعارف
مومیایی
ساخ
یوسی
دراگون
بیث
شدهم
تنتن
مدالها
بناپارت
مثالهایی
اضلاع
##وتیپ
بدینسان
اروپاییها
معدودی
میاندیش
south
کابینهی
رودریگو
درحالی
برمیگرداند
بوتسوانا
تکوین
##یدار
##وبرد
بارنت
هنرها
ماچ
فروتن
امدادی
ماریجوان
قارچهای
تستهای
ریتمیک
بیعدالتی
دسیس
وخیم
##ril
##ندز
باارز
کهیر
فیلارمونیک
اجناس
##گرید
خبرنگاری
زمینهساز
داروهایی
ضربهی
سفیران
ليونید
ویرانگر
کشمش
techn
بیخبر
imdb
یلدا
مشگینشهر
وسواس
یارد
شدگی
معظم
ارگانهای
سیانان
ترون
هستیشناسی
مرداوی
اندازی
فرمانفرما
ناشنو
##وحش
سوراخهای
سربیشه
ایبیام
فیورنتینا
ara
ایندهای
نمیم
متس
دهلوی
##ورتون
اولتر
اندود
دلتای
##وفو
سنجیده
املش
اجتنابناپذیر
کوخردی
معترضین
ضربالمثل
شبهنظامی
بشقاب
نکشید
متلاشی
حقی
ساگ
ساقی
فج
##ودریا
یاي
ارنج
دوجانبه
گرسنه
عمید
معما
سنگنب
بردلی
مدرسین
روشنتر
خروش
صنعتگران
170
ماسال
کازینو
سونوگرافی
فواد
one
گواهینام
انتزاع
حمدالله
october
mem
گاند
##ject
بیضه
دهنو
کلونی
اقسام
شیز
ماهشهر
نورعلی
##ars
گزارشگران
بستهها
فداکاری
قارچی
الاسلامی
فهمیدن
سپهری
منازعه
ازدیاد
mit
red
غش
لد
##ناب
همینگ
توکل
کاران
عمری
بینتی
پرانتز
تجریش
##ane
هلالی
تنظیمکننده
چهلمین
صداوسیما
میکروارگانیسم
ابوذر
gran
ورو
##24
##ux
باهاما
##لیز
دیزلی
##نیاز
جهل
علیبن
وایادولید
رومیزی
شایانی
گویای
جاذب
وراثت
قاس
##گشا
ایسک
اندریا
اخرت
جامعی
خارجهی
عبدالم
صحبتهای
دریاچهها
نیترو
استثمار
peter
رور
لباسی
هایل
##90
استم
سیست
##وزر
کنز
بوکر
شهیر
##aria
ناجی
##یکاوا
مخاطره
1332
قورباغ
حلزون
##ique
جگوار
البالو
بیرانوند
بادنوورتمبرگ
جاپ
رله
هس
انیل
##ابدی
##وانات
##یمانی
شددو
اوسی
سرر
مجریه
##وکت
سلفی
کنگاور
رامبل
ادعایی
دیسکهای
کانیشناسی
دربرابر
کاکاوند
کمپرسور
out
یکبهی
کاراموزی
اقاج
میراندا
##hes
اعتص
بریز
رستمی
قاينات
لیبرترین
پروندهای
اسرارامیز
زبالههای
jo
lo
مندی
میام
##وندو
بیماریزا
ann
کلمبی
عضد
دیوارهی
مقایسهی
##گرمسیری
شارجه
همجوشی
یگانگی
زايران
میاندازند
micro
مزایده
سزا
شالی
##ارمی
الویس
شهرنشینی
توتون
موک
گرون
سپردن
##ندیده
بارور
نورپردازی
استادش
بیتلز
سرمایش
##گفتار
مقتول
richard
یکبهیک
هاتس
##ایون
میسپ
استیت
بیولوژیک
تنزل
هیي
اسپرت
ماراتن
سامرا
تحلیلگران
تاراج
فرزندانشان
قصاب
نامیبیا
فشردهسازی
prof
میبینم
ژوراسیک
سنگفرش
da
جثه
فزونی
لوزان
نراقی
##la
##lag
##امال
اینو
##یتسو
نیلی
گراس
رسد
اسپرین
سیندر
عربهای
قراردارد
هلمز
وینس
زیباست
قیف
امادهی
str
کوبایی
لنکران
پارامترها
حریفان
کایزر
چریکهای
مرجعیت
برشمرد
are
طارق
ممیز
##کشن
##فتاری
روژ
##کنند
دوکنشین
نقدین
اتاوا
##ناسیونال
وزرا
همراهانش
ابرهای
سامانهای
برجک
اچامای
فریبرز
الحاقی
باریکه
کاستیا
فرانکی
دگرجنس
فایده
public
انتیوخوس
پوزیشن
کانتین
##لستون
##تال
##فشار
موکول
##وردا
مردها
شهود
ماونت
کاظ
صدوق
هاوانا
سادهی
کمیتهای
متوسل
مشروبات
وایس
جانورشناسی
لوتوس
زامبیا
comput
راهحلی
خفته
خمر
عارض
امپر
##وتسی
نوو
اشیک
ملتی
افزونه
##ini
تمامعیار
ماهیچهها
##پروت
کوارتت
صابری
عریان
لنی
گاور
روه
میشکند
معابر
اتا
نظرش
صفاریان
مونو
میناموتو
mark
ابزیان
گزیدند
james
جراحت
غاری
##aj
##lo
##red
##ابیم
الاستیک
بیور
قرارند
##نجار
مطهر
##کردها
ندیم
توصیههای
باریسال
شاهزادهی
کابلهای
spec
شادمانی
##کوتاه
جوکر
دي
نولان
##ساخته
##las
##ونک
کارنگی
سیده
خطه
##اواتی
اورارتو
اردوغان
ماساژ
پختون
میکشاند
میگذرانند
زندگینامهی
جیبوتی
##وسترون
کیلیکیه
همپیمان
نامحسوس
ماریجوانا
ذاتا
سیره
غله
##پتر
استریم
##ریج
امون
##نگرد
منن
گرانیت
پاین
سوگیری
مرکزوار
جزایری
مولتی
حملههای
بستهی
زندانها
تپهها
العل
سلاحها
پستاندار
بالاخانو
میشناختند
هوکایدو
تراموا
اچامایاس
sel
ریتا
##تیل
##يوم
باپ
##ترانه
فراست
منیر
تولیت
##يیست
پیزا
##اوو
کلیدها
مطالبات
فرمانروا
وعدههای
شهابالدین
white
لقاح
##ملیتی
اقامحمدخان
publishing
متروپولیتن
dem
اویس
تمه
فوگ
مظاهر
چوسان
گابن
##خیری
اوگو
منکر
نامهایی
افکند
مهناز
اندو
جمهوریهای
مغال
کاهن
دمیر
اسمبلی
##اویماق
رتبههای
##ماندگی
ساسکا
سرمایهگذاریهای
خرابههای
برگزیدگان
عاطفه
introduction
##vent
بهزیستی
شدنی
##اشر
دوخت
ویزا
بوفالو
چندملیتی
لیبرت
فولک
اختلاس
زاغه
لیتون
کرکوک
فرشاد
ابخوست
نقدینگی
خا
سوه
یانی
##جربه
##اتش
الفر
اصناف
کمنظ
اقرار
پلیموث
حسینقلی
سکولاری
155
کاستل
پیشبینیهای
انتیژن
خیالپردازی
استریپ
ماخذ
العربیة
تجمعات
##36
نمازی
افات
مخبر
بریتنی
روششناسی
فلمینگ
اسمش
اشترا
فاصلههای
سرمایهی
تدابیر
فیزیوتراپی
رابرتس
اخترفیزیک
یاسین
توانستهاند
تزیینی
میبندند
سینماها
یبوست
خداناب
مرداویج
award
دلاو
قوطی
یوه
یکچهارم
توسی
معضل
مدونا
تجزی
گلوت
سیستمهایی
حراست
نظریهها
فولر
لولهها
نمکهای
چشماندازهای
گهگاه
شنیداری
feb
برجی
##زیان
##هیا
اواس
مدرسی
مردود
دومش
اورو
فعالیتی
هفتگانه
لوور
چاپگر
بیرحم
مالاوی
ازدحام
وبگاههای
چارلتون
سایهی
نرون
کاستن
ايرو
1338
نبودهاند
شریعتمداری
محکمی
گجرات
مدیترانهای
توباگو
بینتیجه
port
فوي
نيون
##قاره
##لیگ
همنام
##هیب
کشفی
مجریان
مشی
ترومن
تنسور
گروپ
ترکمنی
مکدان
سنگنوشته
همانا
بنیامیه
نیمساعت
جیاس
چاراویماق
##شینند
پورن
گرافهای
عنصرهای
##کینسون
طباطبايی
الزاما
امبروز
واکسیناسیون
لولا
پانی
چرد
##رنگی
ایرو
جهادی
کشورمان
ارتداد
##ستهام
##any
چیبا
مالدیو
##نسکی
تامس
##phal
کیکاووس
بارتون
بهروشنی
##پریشی
##hemat
دغدغه
بغلان
نتیجتا
نماندهاست
ساسکاچوان
##gr
پایا
##ano
##پاژ
رودز
موجوداتی
اکتاو
یوگا
کاشیکاری
شناختهشدهی
اژانسهای
معیاری
الفاظ
سیلیکات
ترانزیت
اونگ
قاد
هابل
ایرن
ارده
جایگاههای
##پروم
رایدر
نبوغ
باندی
متحدین
درخواستی
بیدل
کاردی
محرکه
عبدالعظیم
تجمعی
bel
رفر
سلا
فهر
چدن
##47
باوجود
##ومیش
معناد
ویگ
##ملو
سلح
میداده
کانتر
یونیک
شاگردی
روسری
alb
وامهای
گاردنر
فرقهای
رزمندگان
ثانوی
گروگانگیری
تکواندوکار
فرورفتگی
فيودالی
تهدیدهای
مارمولک
ااسرم
خیم
رزا
سونیک
غشایی
فاس
لسلی
هشی
وگ
چینه
کونت
گارا
##سیستم
بودنش
خودسر
ارنو
دورگه
پیس
دریاهای
هیولای
جزوه
##کوههای
اروند
##نزاده
بیماریهایی
اریست
لولهی
پلیمرها
بمیرد
لیتیوم
سندروم
mov
بفروشد
ننه
بربری
##اتار
##ربا
چندمنظوره
شخصیاش
ترکیهای
##بورا
عنوانهای
تورس
##معنی
گونگ
نگهدار
تبلیغی
اوازخوان
##ode
نشانهگذاری
ارایههای
استایلز
دوقلوی
وشمگیر
اققویونلو
september
زحل
قلا
گودی
##فانی
هیز
##ايف
##پاگ
پشتوانه
ویلم
حادثهی
خاطراتش
اندیشمند
کمربندی
ذبیحالله
wr
ساید
سگا
فتوای
روث
##وتور
تاجی
##ونیای
پرسیده
نسلی
انگلیسیزبان
جهانگرد
سبیل
هنرنمایی
108
رمض
لایهها
هالک
کنسولی
بلاش
طبرسی
مصاحبههای
app
گوساله
تورت
##گزی
احد
محلاتی
##ript
پرستو
غیرمسل
لارس
خطرناکی
کاشیهای
ناهموار
سفالگری
کلارینت
##وپلاسم
تایتانیک
غوطهور
bre
city
vers
دنگ
دادی
عشر
عدهی
قونیه
لخته
##view
ازسوی
اوکان
الاخ
سرحدی
سرپیچی
##وسفر
ارتوپ
باروت
##طیف
عرفی
مامایی
سورا
خوانندهترانه
سمندر
پالمیر
جلبک
دیلن
مدعیان
ایزدبانوی
انبارهای
زهک
زرهپوش
کلنل
معاشرت
رجیستر
تسنن
دریاسالار
رونده
کویل
##جوری
##بیوس
میکل
اشارات
بینا
اقاب
علیقلی
سلم
ایتم
##عتری
کنتراست
هشترود
تلاویو
طرحهایی
نمیگیرند
محلولهای
کرسیهای
محافظهکاران
ناقوس
social
لگد
انارشیسم
تمرینی
ec
ضیافت
نانی
بهنمایش
##اختار
دستمز
اشرفی
کمالی
تحولی
زیربن
پیپ
اسپیس
پاران
بردسکن
##its
برجها
پاکت
کشاورزیزرا
خلعت
##وگراف
مریض
پانچ
موثرترین
زخمیان
سالیوان
لورنس
کهکشانها
##روهه
ماتیاس
کشاورزیزراعت
bur
pra
فصی
##ویرا
##48
بریل
بروید
برنجی
##گرین
##نینی
همچین
انجل
پیسی
گلوریا
ملکم
نوراباد
##چیو
هايی
سختترین
اچتی
هاربر
عباسعلی
مشارکتهای
بریتانیاییها
لیتیم
ببینیم
کاریکاتوری
لجستیک
خداداد
سرکنسولگری
800
aust
هسن
یالهای
##ایجی
##لیدی
معراج
کارساز
پرندهی
مستاج
مینواز
کامین
اوتار
سکایی
اسفنج
مبتکر
بندپی
پیادهرو
پترو
pres
جلالاباد
فمینیست
اربابان
گین
گیره
##دوش
##ied
##ردار
سالاری
روبان
افشان
لوچ
کوته
کنارههای
ابنبات
کالیفرنیای
سعداباد
class
انهمه
وکیلی
uk
ممد
##قهی
##سابی
##جاب
##ha
##ثور
کمخونی
تحمیلی
تولیدکنندهی
مستشار
##گوشت
خرمد
چونکه
چشمهی
لیگهای
سختگیر
تومورهای
##وچین
رژیمهای
هکتور
الگوها
شوکت
مفتخر
استثناء
times
july
muse
خاردار
نغم
##پیا
##ستوی
اینور
##ولم
مساوات
جمیل
##دیان
کنشهای
ماهنامهی
مسابقاتی
##جاوه
مهرجویی
سروستان
##کولن
گالن
اعطاء
کانیهای
disc
اسانسور
دربردارد
بالاخانواده
بپر
هولی
##15
##تروپ
الرژی
##کنها
کارو
##وسکوپی
##شمن
##شمال
منتش
ریوند
اغا
بیانکه
مروج
شتابدهنده
عیلامی
گارفیلد
طالع
##صف
الفی
##کنیک
بازیباز
##ونیس
##انسر
کالایی
موجبات
ریشهشناسی
مستندسازی
نشستهای
گامبیا
##نمود
ارگومان
##السلام
فراموششده
##یکننده
وخامت
باقیماندهاست
iv
##امار
انریکو
##ویاما
روندی
##احمدی
بازل
جامهای
رایزنی
فرزان
تخمینی
105
سیلک
تفاوتها
حیواناتی
اودسا
تریبون
work
خصی
خوسف
##ایعی
##گرس
کارنا
هرمن
بالابر
بارگاه
هدایتی
ولادی
##تاوی
بهمنزله
بخوانند
برادفورد
سربداران
پمپهای
الفردو
جایزههای
webs
خوداگاهی
سکی
شق
هیتی
گوي
##چوبی
بهسازی
استنش
##گرسیو
حکومتش
رواندرمانی
زاغ
لشکرهای
العرب
بقایی
واقعیتهای
کیتس
سوپاپ
کاراکترهای
mathemat
human
##راین
میابد
##ریبی
سرامد
نقده
اشیل
عمدا
نشن
اکری
سومر
##یدیگر
مهرهای
سختگیری
تابستانهای
کبالت
درخور
روبه
##برتو
نوترین
##وکات
##ینیوم
زیارتی
بنتون
فعالانه
##ولیتی
پنجشیر
میرجاوه
اذین
ارماویر
عواط
اخلاقیات
گاردن
انتقامجویان
دیتالیا
century
اتانول
زول
نزه
چارهای
ژيوپ
##غن
ایشی
##اکش
دستساز
زیرنظر
##زهها
ولور
شعرا
گونتر
##وزید
##تقالات
مشترکا
پوریا
ايودی
##ther
کینزی
چمبر
درجهای
عیلام
sam
اژه
خاخام
##حید
##23
##27
ازن
برست
میشناسیم
مرق
متش
بینوایان
کمودور
اورا
عملگرهای
اهنگر
##وزیا
گورو
بانفوذ
گذشتهاست
فلورس
جامدات
زنجیرهی
پاشایی
پاشیده
نافرجام
تاکتیکهای
ببخشد
اپتیکی
رستورانهای
باواریا
دوتا
پز
پریان
##پینا
بهوقت
##ادزور
##هاشم
فراش
##اردشت
##نگو
هرتس
پیشینیان
انگلس
گرفتم
اذوقه
فلین
خاصه
بادبان
گیتس
خالکوبی
##گفتهی
1911
تفتیش
ارزشیابی
خارقالعاده
##قتی
##ira
##res
##ایدی
##وناس
##ترکی
الاست
بوچ
##وسین
پرسو
سوالی
اسمارت
گریگور
سوزش
الکسیوس
ویراستاری
##aint
الامام
ابرقهرمانی
نقلوانتقالات
princ
بیسمارک
ko
تهم
##پاشا
##ردید
##هیون
##برم
معلولیت
جمالی
دوبی
نامشان
زندی
سازمانهایی
شیپور
اسلم
کورنو
##لزل
نادرستی
یخزده
تخمها
تکنیکها
1909
##وکلي
شاهکارهای
dire
حمیده
فخری
هجو
##هو
##دف
##her
##دهید
اسنو
بینام
شهوانی
هوجو
دلپذیر
بلندگو
شوخ
مبارزهای
168
کروات
التح
کاردیف
اروماتیک
کوهستانهای
کاکايو
1901
ترانههایی
##فروشند
سیریلیک
برنتفورد
فاعل
کهریزک
پتری
##عمر
##let
درها
برانگیز
روباز
منجمله
ایرویز
انجلس
محمدصادق
پروجا
قطارهای
کیج
پلها
شکستناپذیر
##ita
کنترلکننده
اینترتینمنت
ازادیخواه
##بعة
دیوانگی
ماکار
کامپکت
بلاغی
گویندگان
هایدن
3166
ابوموسی
دوان
دکان
سدهای
##دوست
##ta
##اشین
##بهار
رویههای
##اتیسم
فلد
##وستد
معتبری
جبهههای
شاخصترین
مندرج
ak
دقایق
ذکا
زوم
کثیری
##کمی
راویان
الوه
##کنشهای
یاور
بازهای
ارتج
زبانان
شناسا
فرانسویان
غیرمن
پادتن
نوربخش
##ative
عرش
فتوا
فعالیتهایش
سودمندی
ونسان
کامیابی
تکیهگاه
فلسطینیان
بدهیهای
نيوکلا
خوشبختانه
سورینام
همتراز
جشنی
نزن
##ret
درت
باسیل
ادوبی
حموی
خوانسار
اذهان
لوگوی
مایعی
پنل
محدودیتی
کارلایل
کانونهای
مومنان
پلاکت
لیونل
تخلخل
خلاصهای
سکن
##شکنی
##یندا
منبت
اراب
##نیو
دوروتی
کشورشان
گلادی
خواهش
حالوه
ولنت
درازمدت
اندیشهها
هوشمندانه
پندار
جراحات
فاشیست
elect
وایکینگها
فولکسواگن
فرونش
فراماسونری
پختونخوا
رشتی
مله
##استرین
امنه
المی
دوار
اعتمادی
پیشخدمت
هیپر
##گریت
لیبریا
##سترون
میانههای
مارا
مارینو
سردسیر
والف
گیلگم
روغنهای
قنبر
دیدگاهها
مالیاتهای
انگیزهی
ویچنزا
کارلسروهه
اسپیلبرگ
اشیکاگا
net
تلو
##ودون
کرس
بیوتکنولوژی
انتاگ
مشوق
کوبیده
فارو
چشمهها
بهرهمندی
خوابیده
ماشینسازی
اچای
ذخیرهگاه
حجره
پناهجویان
سخنرانیها
پراکنش
پشمی
زايد
الومینیم
اتالانتا
سانتیمتری
عطفی
مگاهرتز
ناقل
چست
##کامی
##gan
##da
##han
##وکینز
بازپ
بلقیس
کشتیسازی
اسکولی
روانسر
کرهجنوبی
ایکسباکس
دادگاهها
لزنر
لیبرتی
دوبلور
##پژوهی
هانیبال
کنجکاوی
january
german
اشته
جب
عجب
##مونت
##خانیان
اوغ
موند
##ورتیک
شاهسون
ممفیس
##inn
گیومری
##itz
مورب
##یناوا
زیستن
لایق
##وتروپ
##ago
فهمیده
منزلت
کبودراه
دوگانگی
چامسکی
شتافت
گیلگمش
pdf
تونگ
خصل
##نوردی
##fl
##اکرت
##افون
سازان
اندرا
قبطی
اسلوب
هنگامه
##گزینی
نسبتهای
رنگدانه
میخوانیم
اصلاحیه
لینکولن
سایههای
موشکها
برونيی
1907
برخاستن
نورتون
کوهنوردان
استمرار
ثانیا
هب
##صریه
درفش
کویری
تقدم
دولة
اطرافش
سمور
وینیل
فدریکو
میپردازیم
عقبماندگی
اندامها
ادرسهای
توالیهای
نواوریهای
کرتیر
اسپانیول
زیربنایی
west
ناکس
یم
##دوریا
درنتی
##یکار
##اختیار
##معنا
سرمایهای
موزهها
سخنانی
نعل
هتلهای
رجینا
اویو
قناتهای
سایهها
استعدادی
مصوبات
میشنود
نیازمندیهای
ورونیکا
تبانی
##نوک
##الج
استرداد
سالخورده
توش
نووی
اتیلا
بلای
##اخلاقی
اثرگذاری
##eral
##انکوه
پدرشان
##زشکی
قراردادها
دیواندره
العین
کوششهای
پدیدهها
هرکسی
ترکمنها
1337
نخلستان
ناهنجاریهای
ke
ذکری
پونه
میشوید
دوطرفه
##بالد
سیونیک
انتورپ
نسوز
دوما
سریهای
ماوس
هایپ
##وپلاس
##مندانه
ماندلا
##roc
قادرند
النور
الجزایری
اگزی
گردنبند
حوضچه
ساندرا
بریتانیکا
mad
russ
حت
ظن
نکوه
گاوی
##گش
تودهی
##لاء
بیزار
سیجی
میبد
##اوردها
##باوری
##باغی
دلب
شمالیترین
هایده
بخوان
وسايل
##گارا
دوچرخ
العابدین
مضار
استعاره
کمالالدین
بدیعی
زنگبار
هویتی
تجربهای
شالکه
چکیده
ir
سیش
##حمدی
##اسن
نظافت
شمایل
افضل
اکیرا
##اخور
ملکان
یادگاری
##وزیان
ناتل
1910
علاقهمندی
یارسان
اشعری
april
فلاش
تمثیل
chem
جاو
##تیر
##واقع
##اليون
##ولوم
الزمان
توگو
محصل
جمشیدی
##التس
جایگشت
لیب
تعادلی
##کتون
بهترینهای
قابلدرک
خلج
ضراب
مخالفتهای
ذهنیت
اشوریها
اشنویه
مشیرالدوله
philosophy
os
جایش
وستهام
##نبی
##ننده
##ثنی
##11
میپذیرند
الپی
شهرتی
ادراکی
کمبل
##اخوردگی
فاروق
##کانو
##صدرا
رودلف
فقید
توانستهاست
لایف
115
نانول
موثرتر
ماکسی
قصاص
پورتس
اعتبارات
فایو
بومشناسی
لطفالله
##ization
قاعدهی
عواطف
اهی
بدا
صع
##ینههای
میپیوندند
برنه
یکت
البا
ابگیر
مرکل
شیخی
تشکیلاتی
اجرهای
هدایای
حیفا
نمیپذیرد
دانشمندی
سارای
شرطبندی
زیرمجموعهی
1908
نوشیدنیهای
مرتفعترین
بپزد
نارنجک
second
rh
##لاد
##جوش
##95
سرایت
بازهم
تنفر
احسن
زبانشناسان
کیلوب
##کراس
میکردیم
دیدارهای
پلاته
##arch
مورا
ناا
فضازمان
گاهشمار
ناگوار
کولون
غلامان
رویدادهایی
ماموریتی
کماندار
نايینی
سرگش
رقیبان
##وايد
تاختوتاز
تمهید
iii
ربودن
راکول
امبول
سردهای
کارپ
متخاص
کلاله
اکسون
بزرگنمایی
طبخ
##ویتسا
فرزین
تبصره
ویژوال
بستهای
برتراند
اختلافاتی
مسافرتهای
نازکی
کنفرانسهای
بولیوار
law
سرگرمکننده
miss
جباری
حف
خض
ساشا
گینز
ینی
میبریم
کیوب
##وتیان
بحثی
اگاتا
اتوبوسرانی
مودنا
چوگان
تبلت
poa
بالیوود
بورکینافاسو
hand
رصدی
سمل
چیا
##پشتی
منجم
ادمیان
کلاردشت
شاهنامهی
صنف
فیبری
کلاژن
پیمانی
##شهدا
##بیاء
تولدش
مرغابی
اسفالته
پايولا
یاسوج
اتوبوسهای
اتروپ
راینه
بچرخ
عمادالدین
great
مدرنیسم
واداشت
فطر
##بح
##صاف
##ندار
فرغ
تايو
نیوپ
دوجنس
سیطره
##اپا
##انسان
خرابه
اجرايی
anal
رضاقلی
جرگه
فیزیولوژیکی
spiro
بارباروسا
بنفیکا
سودی
نکا
کوکی
اینسو
##وندن
تراس
##سرعت
سناریو
ناپذیری
چوبین
بدرفتاری
عاشقی
یدک
لحظهی
فوکويوکا
منسوجات
ضیاءالدین
هاتسپر
بتر
کسان
استا
##اسونیک
موجه
ایری
نیوت
نمرات
بیق
ادمرب
##انسه
##ینیوس
اسپور
##جرالد
##اسیایی
##olution
پیوستهاست
##فایده
بمپور
خاوران
سرماخوردگی
افسرده
ردیفهای
دشوارتر
بازگردند
مجلههای
گذارده
شاپرک
house
جیووانی
مطمينا
رمضانی
##ثیه
استاک
اعاده
شکایات
شکافی
بنکس
میلیونی
طریقه
دینور
پایینتری
خلخالی
نابسام
چرخان
ناگویا
سوارز
نمایندگانی
فرقهی
مزدور
راکتورهای
حسنبنعلی
num
فخ
کمت
یوکی
##لیکا
روایاتی
اوند
تنبک
ارتاش
مکش
بارباد
##کرون
راهبه
اختت
جنوبغربی
شمالغرب
##اکیس
حملهور
سیمپیچ
پارکها
مطلقه
ویتوریو
ملاصدرا
##وکاوا
غزلهای
یوشین
کافکا
official
febru
قصی
هولد
وندی
یوا
##طوم
##ضویت
ایوانی
##اکوف
پرگ
جنگیدن
هیده
باربد
##ايوس
دلش
کاونتری
اسلامشهر
پولاد
قراردادن
وینچستر
##عملی
تصورات
دالاهو
جستجوگر
لهستانیها
جانورانی
مکررا
نوردراین
##پوستی
##ژوازی
نمیتوانید
زمزمه
islamic
سنسورهای
عند
هارا
##yle
##min
##ستوس
##ولتا
ایای
ایبار
ایبیسی
##فرهنگی
اشراق
پیشاور
تمشک
##ايم
ملای
تعدد
##انکاری
##اگه
ابتدايی
فیلمهایش
کمپبل
##اندرول
هندیها
انحرافی
علفهای
دندانی
ناارامیهای
##gyra
کرگدن
حشمتی
فنا
واو
کوشی
براش
امرا
امونیوم
##برایت
داوکینز
بازیهایی
میباید
ملیتی
کوستا
هیزم
فیب
دنور
رشتهکوههای
روانهی
گریمز
روزنامهای
الحدیث
خوابیدن
رادرفورد
میشناخت
اکستروژن
فیتزجرالد
هالووین
دگرباشان
spirogyra
ori
sil
##کوک
##خز
باگر
انوری
##ازپین
سالت
منفعل
##وشیا
ملیسا
چهارگاه
دورهها
مارون
تحتالح
##سلت
الیکایی
صدری
عبدالر
پیامبری
فرایندهایی
میرفتهاست
یارانه
##گموند
پلیمریزاسیون
سمپدوریا
ممیزی
san
##حص
##غز
اینت
اسانی
خودرا
نیوا
گرنت
کمیل
ترفیع
منطقههای
گروو
گوژ
##ital
##وینده
پوشید
خوشمزه
باغبان
سورههای
مارکوف
ترانهسرایی
باندهای
صادقانه
ترجمهای
خزش
دیکسون
استدلالهای
محتشم
چلچ
یادداشتها
مسافتی
بیخطر
اپیدمی
کووالانسی
##فة
##ینشین
کردید
کارازمایی
دادیم
بلوتو
##چهار
ملانی
اوران
اوراکل
برگن
ولیالله
پژواک
مامان
اتشبازی
سرزمینهایی
سانتاندر
حجاری
ساروج
گفتگوها
نعناع
کامیاران
تاجران
february
گوند
##سلام
##چاک
##ابار
##روزه
پایبندی
اصلیاش
نشانده
لوپ
بههمپیوسته
قلعهها
امورخارجه
حریری
سلولز
نمیشن
مدارکی
صنعتگر
بیدگل
فرایبورگ
راکاندرول
متحول
ايورت
تظاهرکنندگان
مانیفست
قاسماباد
عراقیها
ناامنی
لنفوسی
پیرامونی
how
king
mid
اونت
قندی
##ij
تواریخ
پرقدرت
شمرد
کمکه
اقایی
بزرگوار
نیرنگ
داستای
میخوان
بیرویه
سفرها
جیانگ
خوشاب
##ias
سورس
متعصب
قتلها
افسوس
پیترز
اندونزیایی
رباتهای
رکابزن
##خطاب
ثقفی
##ارای
امودریا
##وتان
نیفت
نماهای
##متن
دانهای
کیونگ
نورونها
مسیرها
خواری
##asc
معلومات
ارجح
1906
دعاوی
بسطامی
پرینس
بافندگی
year
تثلی
خیاط
##هوا
##iation
باوندی
استونه
انند
##ستانه
ایرانشناس
قرارگرفته
بهعضویت
خطاها
میدانید
اورانوس
دلگان
##امدترین
تيو
فولام
رونوشت
##سفیلد
رابرتز
##اءالله
ناوچه
1333
1336
گوتنبرگ
فالکون
بنزینی
صهیونیسم
بازمیگردند
پیشدرامد
فابیو
زحم
صاری
ازنظر
##یرس
مسینا
گربههای
نوزادی
##اکسن
سیخ
سطل
میرفته
نیمکر
کلمبوس
مونپ
ابشارهای
نکاح
نوشتههایش
1905
ایندیپند
برچیده
##وباکتری
europe
کمنظیر
کبودراهنگ
زکی
کخ
##لول
##گوا
##یناپذیر
##السلطان
قرارگرفت
بلات
مماس
هندوکش
مشخصهی
سیاهان
سختگیرانه
تسویه
فنیل
##idae
کوبهای
انتقاداتی
کوکايین
مشروطهخواهان
میخواستم
افسانهی
نادیا
منقول
پروانههای
امیدوارم
هابسبورگ
کالبدشناسی
شبهنظامیان
البلدان
خزان
ساه
هولو
##هه
بهقدر
همزمانی
ارتر
اقاسی
جنگو
ولادت
##وزیه
دنیوی
ونسا
ستارخان
شریفاباد
منیژه
bal
ناع
کراف
##چرخ
##الل
##سیز
یکسری
الاز
##کنتر
مرغی
متا
##اطت
##ایتون
هیپن
سنبل
شوراب
##ماج
مارها
فرمانداران
لوزی
خرمن
##اسموس
##وانید
##ave
لطفا
عزیزالله
ناصرخ
کارکردی
یکنواختی
صخرهها
انجیلی
پرهزینه
عجله
##formation
چرداول
خاوی
هلیل
وور
##وض
##37
##ble
##امدن
##اشه
بوي
اوریم
پسزمینه
ناچیزی
تسمه
مقایسهای
117
سرکشی
گالوانی
پروندهها
ادعاها
spring
1335
رباتها
ایزوتوپهای
متقاضیان
ازبکی
خرافات
vir
نابه
هوب
پوسی
ژوزه
##فصیل
ازرده
مدفن
مردهاست
مقعدی
##بانک
پایور
کردهاید
راههایی
سبحانی
ماضی
ستاری
ولتر
شمالشرقی
ترانهنویس
اصلان
پايیز
زمرد
پراگرسیو
خریده
island
نادان
فرخنده
ریهها
جاودانگی
روبهروی
ابرکوه
ur
حسرت
شوپ
قوز
لچه
مگا
چیم
##قندی
بریم
خودار
##نیده
محمدجعفر
مارن
##ink
دریغ
المس
دقیقهی
اصلانی
##ida
گشودن
سهره
کنفوسیوس
فراهان
پلاژ
ولورهمپتون
tv
توله
شفاع
فوکو
لیکس
کتل
کپور
استپان
برگی
##سیلین
##اشده
##بالدین
بیسر
انجمنی
مکلف
دیدگی
اهنگهایی
عبارتست
فتوسنتز
طلحه
##بلیو
بیکینی
مقیاسهای
طالبی
اوکیناوا
هیملر
داوودی
ناصرخسرو
diction
حارث
اوینی
الکو
ایگن
سرجیو
کرمل
میلههای
بلدر
مکاش
سلما
##کوژن
امپراتوران
هشتگ
تیربار
##ington
داروخانه
هالند
مخابره
وصال
هندويیسم
ارادهی
کیانوش
series
جاجرم
جوم
نن
##ساختی
##چهر
##65
فیلترینگ
شمشیری
کندو
تقریر
امارگیری
موتل
نمیگردد
تفسیرهای
راسینگ
بتدریج
طراز
کویین
کراکوف
مزیتهای
تماشاخانه
ندادهاست
##سیمیلیان
ناکارامد
اگزیستان
نول
##پتا
##بارد
##ثقی
مناج
گرگانی
##عیب
وبلا
سقفی
پایتختی
امیخت
حجیم
والتون
رزمارا
1329
نقیض
ارتعاشات
فدايیان
گاومیش
women
تانی
##بنی
##گوشی
##حله
##ضلات
کرال
سپیدان
شیو
##گزین
قانونگذار
سامانتا
مارکز
سادهسازی
قاجاری
کودکانه
پوستهی
صحنهها
چرخههای
باریکی
کوچکترش
that
معیوب
نورثهمپتون
اوپانی
پپتید
##مرتبه
بشه
قطور
کتون
##99
##ابنی
موزی
سرشناسی
دیزی
##اکشن
انتالیا
##بارز
سینهای
##نظرم
هادریان
ess
مجرمان
قرعهکشی
علیبنابیطالب
tom
اونا
جینگ
جریکو
رقیه
صاع
هگ
ورید
کولا
##وودی
##الاصل
اوشن
نمیاورد
دستنشان
بورژ
سیراليون
دانشگاهیان
فعلوان
مینیسری
تدارکاتی
who
هراکلیوس
مایورکا
هوری
پوران
پیشگیرانه
اندورا
##التا
بنو
##رسانهای
بالون
##era
اذرین
موسیقیهای
هفتههای
##ماندنی
معتقدم
فرانکها
نتوانند
rep
بلاغ
مانیل
مهارکننده
بردارهای
لشکرکشیهای
اشیایی
هلموت
عدنان
ly
طوال
##ga
بهگفتهی
منوی
سرجو
پردههای
فلاندر
##سونز
دستگاههایی
بورژوازی
تاکدا
مونتر
اهدافی
اریس
لیکرز
پلیمراز
ژیزمان
عتیقه
لوزالمع
اشنایدر
متافیزیک
ضامن
نگو
##سرد
##زبی
سربار
بیابند
ابکش
##گانا
بینگ
##وارهی
هیسپ
کامن
صفاری
پلههای
##ison
کربوکسی
حوادثی
شایعاتی
کبرا
##uck
خشنود
امتحانات
مینواخت
فریتس
سزاوار
دالتون
زوار
##67
##41
میمند
بافق
انوم
راغ
##فتهاست
همزن
الاف
اللهی
پیشهوری
اجدادی
اکا
تقصیر
جنوبشرقی
لغتنامهی
تبحر
مادرشان
سخاوت
##سوکه
سیمور
عرفات
مایکروویو
نجفاباد
count
ایسلندی
قرصهای
ندهند
ساردويیه
بعثت
استهبان
چهاردانگه
هیيتی
والفجر
تثلیث
ben
high
اگار
حنج
رزی
سویه
سفتی
ضریح
دوخته
بیسیک
اتاری
پرولت
ترنج
اولگا
کندتر
ابتهاج
##کافت
جداره
دوستت
الفبایی
گوربا
گستردهتری
غارها
علامتگذاری
صندلیهای
تقلبی
هنجارهای
میگریزد
محتوایی
ba
میدر
انژ
##یموس
##ادیز
ویولا
مرثیه
بیسک
دانشهای
سهماه
سلامی
بیشاپ
گریبان
##unic
بهراستی
انواعی
دربردارندهی
محمدهادی
بیاسدی
website
rem
جینا
##پک
##روان
##cc
بهانهی
بهنظرم
##نگتسا
ایدهای
ادار
دادوستد
اکبات
ریوز
اسپرز
جانز
##ani
گیس
تخلی
نمیبین
هارپ
خامنه
سونیا
پارامونت
کاترینا
الاغ
رستورانها
کتیبهی
تفرقه
مقبرهی
گلاسگو
مکالمات
نکوهش
ha
بژ
دمو
سلو
پولو
کیری
##پانی
##شیت
انکش
کارلی
دیابتی
##داون
عمربن
افسی
##کارلو
لیبل
##فهان
شیپ
سمنگان
سرکار
مقدسات
##erson
##پوشان
تستوسترون
صیقل
مايوری
متابولیک
عسگر
معرفتشناسی
صلحی
نمیماند
درنتیجه
est
ta
لاست
##وجی
##چری
بهمدت
امینو
دوا
##میوه
مجلهای
بدمین
گردا
غیراخلاقی
طبابت
پلکانی
نوشتههایی
##els
صادرکننده
##پلاس
ویکس
ریزپرداز
هورمونی
لارو
سیگنالها
1903
مداخلات
##خوردگی
دلاوری
بیباک
verlag
خیاطی
ty
گغ
##لج
##ستاگ
میست
##ومیک
##اساکی
منجی
موعد
##گیس
مرلین
مرقد
سیوند
فیلمش
دورا
انجاست
بارن
سیاستی
شهرداریها
افتابگردان
اتومبیلهای
اولویتهای
استبدادی
معافیت
سیهنا
دراورند
اوربیتال
متخاصم
بلوتوث
بمان
داند
بردارند
دیور
##الیستها
بلف
حسنزاده
##وبیا
موساد
کورا
##عمق
##adem
غرض
ابوبرق
موافقتنامه
اسایشگاه
november
دهلران
پلیتکنیک
موقوفات
ولنتاین
استونهنج
مونپلیه
hen
mas
تکس
تارهای
جدار
شپرد
قوری
گونی
##السی
##اهت
امیت
##ترها
ایوا
سرنا
##گیان
دارلینگتون
جنگیدند
##ابلانکا
ملز
وساطت
هواگردهای
رزولوشن
ادیبان
ادمکش
##لاندو
ناپایداری
یوشیج
ساترن
یخچالهای
سیندرلا
تجزیهی
بدمینتون
ضده
##فههای
##ho
##ظیمی
درازی
##نیهای
دوور
کلفت
اغازی
انتخابهای
اورال
سفالین
شروط
پایهگذاران
تایوانی
دینا
ماکسیمیلیان
علايمی
الساندریا
پلاسمای
نصیحت
نامعلومی
اطلاعیه
hyd
بشناسد
خربزه
خبی
##امینی
بادا
باچان
علام
چهارباغ
##ونتون
شیرها
گیوم
##وپیتر
گرمسیر
باغستان
شدیدترین
شهرتش
تنگستان
دونفره
##محله
نگرشی
iss
leg
سخنگو
صیفی
الواح
نینجا
ماخوذ
انارشیست
میهمانان
هنرپیشهی
کنکورد
مستضعفان
اشتراوس
امبولانس
اگزیستانسی
چنده
##way
درانی
##الکتریک
باسن
بیج
اولریش
شرمن
بنزن
مترقی
##جیف
##ony
ویلفرد
توپوگرافی
##العمر
اریاییها
واکه
تپش
گرگها
هزارهها
مولیبدن
1334
فاضلی
بیگناهی
جنگافزارهای
خازنی
پراوازه
لوزالمعده
700
جارو
سستی
یمنی
##جس
##بث
##32
##ینر
##ینین
##امامی
راسی
##سیونی
اوکی
گرهی
دهن
مصنو
علیشاه
کوهپای
گیو
##بلدون
تابو
اشکوب
مهاجرانی
فریبیاسدی
##یدرمانی
طوفانی
بوسنیایی
##ازدگی
بلومبرگ
تلی
دیتا
وایر
میوهی
##ولوف
##ومنت
سرایی
ابوتر
موردنیاز
##کتومی
ایتالیای
ایجاب
دلکش
همینکه
مبادا
فضاها
اینتراکتیو
بستکی
نمونهبرداری
نرود
نرمی
ماسهای
اندیشیدن
بهمراه
نابودگر
پارامتری
بلکپول
فروشگاهها
##فارس
##ویروس
منقرضشده
##نواختر
دلاویر
گورباچف
هجا
پوس
##نری
##کرک
درق
براب
برداشتی
##اتیکی
رواد
اوکل
یاش
کاراموز
کرایه
بیورن
نامیدن
بلال
لیسا
##eri
##ایجان
##کردنی
پسوری
کاتالیست
ازادیخواهان
خلفا
مزاج
برداشتند
گرانترین
دیکنز
مجوزهای
ناهمو
کاکل
کتیبهها
توتال
سوالاتی
مادامالعمر
مژگان
قوامی
استافیل
تعزیری
پورتسموث
sun
tel
حلو
دویس
عفت
گزن
##پولیس
##za
##یرهای
اسامه
کارامدی
کلرم
##ستهاند
گروهش
مارتی
حقه
دریافتکننده
توزیعهای
فنیقی
مستندساز
الکال
مشکین
گوسفندان
الرشید
پازل
کیسههای
ساندرلند
بلدرچین
رفل
فص
کیرا
گرک
درنگ
همرز
شهرضا
##راپ
ارسی
ابدان
##ونیها
شنوندگان
انتقادهای
کاملتر
ساختمانهایی
سفرش
مقرنس
##emp
گشنیز
مظلوم
خبرگزاریها
بسترهای
بدرود
تذهیب
فورتونا
نخواهیم
بنشیند
##پرستانه
باربادوس
gold
تابیده
چمدان
##to
سرژ
معتم
کرباس
علوفه
اکتیو
سلنا
دستیاری
چینهای
مسلمانی
نجار
##ايیان
ارایهی
نوشابه
کردهبودند
##وپنجه
باارزشترین
پلید
گرید
##وظ
باطن
بابیان
اینقدر
##اریها
الرس
سیسیلی
##مینه
فعالسازی
##کرت
##انتان
##کوي
##وستفالن
حکومتها
تیرههای
کاتار
تکنسین
سمتی
فریدن
167
ژانرهای
تیتان
فتوولت
زانکت
تراشههای
احمقانه
george
فراصوت
فرغانه
خودارضایی
mr
تغیر
فنگ
فیک
لاما
هابر
##رژیک
##فها
##97
##ینان
براندن
انوار
##ونیل
##شتدت
##یمار
ارزر
شدهام
##ناج
افست
چنداهنگ
صفوف
ابرنواختر
سبکوزن
##گینز
حسابدار
گذشتههای
چرچ
پمپاژ
فالز
news
appl
توحیدی
ویمبلدون
هیکل
انیمیشنی
فرنچایز
ham
liter
جاها
کايو
##cus
##gram
##ستهاست
اناند
فرقی
شماست
شنل
##ايید
ماروین
##صیان
خانهدار
##وینا
کاملترین
سنتها
باغوحش
رنجبر
استدلالی
تپانچه
کرومیت
یونیسف
1330
ایپد
عاشیق
یواخیم
sum
غرفه
##نفری
##عفر
استي
اوزان
تاي
جمه
شدهر
دهات
اصوات
اکین
مککارتی
جنوبیترین
رنگدان
لوسیا
ازمیر
بابلسر
خلدون
امروزین
بیداد
ونک
مخاطی
معاهدات
توهینامیز
رفراند
کارناوال
direct
حیا
رامی
##دوم
##vin
##طهی
##ودری
استک
##یدانی
دستوپنجه
##افات
بنگاههای
جغتای
سويیت
پاچینو
##تبخش
کریستوف
برادرز
شگفتزده
هماهنگکننده
دگرگونیهای
زیمنس
محدودهای
لطیفی
راشل
امبرلا
حاضران
بهیادماندنی
thomas
نيوکلاسیک
شفاعت
طوالش
مصنوعات
river
اریت
بتیس
گهر
##گما
بهانهای
المهدی
سروری
گراب
بیض
میکا
##اکتور
کلینت
تجمیع
پروتي
##نهایم
النصر
سلسلههای
##ساختار
اشتیان
قالیبافی
زارعی
اکسپرسی
تنکابنی
##ights
about
رسلمانیا
الترناتیو
ویسکوزیته
museum
land
tre
tri
سایل
وبه
چور
##قو
##چنین
ازلی
سرخاب
دیارب
ابنیه
##زرویس
ترند
ملیگرایان
بدخیم
رسالة
دریاچهای
مکک
جانبازان
##گوو
تکفیر
ترکیباتی
خبرهای
##وگه
مسافرتی
قرهسو
##خواران
رولزرویس
واسطهای
عارفان
##طبق
قاعدهای
اراگاتس
ارتوپدی
ip
طهران
##یها
##قری
بهجت
انارک
کرتیس
مدارا
ابدار
اشویتس
کتابچه
سوژ
تقلیدی
مستبد
مردمش
برنامهریز
تابناک
##ature
##ساء
تیس
فرزندشان
نابار
روایتگر
لاگران
انیشتین
ایديال
مودم
گرامیداشت
پشیمانی
ترومپت
دلیجان
نایلون
##ference
december
دیاربکر
bet
##هراسی
توست
ایفل
اعشاری
گلدهی
غیرانسانی
هوو
##چیها
پسرها
تشریحی
کنترلهای
اتشگاه
پولهای
راستهی
عبارتنداز
گذشتگان
هیلبرت
نیترید
فایرف
کاراکاس
همایشهای
نشینان
مکانیزمهای
کرافورد
az
ثم
لانا
هولت
##فام
##mp
##ایین
کهنوج
برشت
امرسون
همایند
براید
مجرا
##عداد
شمر
زیرنویس
علیمردان
##کتوری
اسیبد
ندادن
کسبوکارهای
جدیت
اشکالی
وضعیتهای
محافظان
مقالهنویس
ماکايو
میگرفتهاست
تمرینهای
فرازمینی
میمونها
باتلاقی
لاهیجی
دایرکتوری
طریقی
فیم
قلیان
لونگ
هاکس
گامی
##پزی
##gen
##ادیق
مرام
بیام
##اعلی
##قلم
تکواژ
تیان
انگلوساک
مورس
سرمایههای
نیمهگرمسیری
مراسمهای
وایز
الیاژها
برانگیختن
ساعاتی
##mann
##ذهبی
هرويین
نوردراینوستفالن
dictionary
بپذیرند
حور
فانک
##جونگ
##باک
##اسکریپت
دهنه
##ورتا
خانههایی
بزرگمهر
لیف
لیژ
شوراها
قبضه
اثرش
ابتلای
##خانم
معرق
پیشرونده
متعالی
ماریوس
یافتهها
قالبگیری
مریل
ماتریسی
موزهای
همسایهها
تولستوی
نايومی
عالمی
خوارزمشاهیان
خفگی
شعبده
بالادست
نمیگذارد
قایل
لزلی
واند
وجد
##cer
ازل
میپر
برسیم
##ومندی
اسکس
اسوده
ارمی
قرینه
دوو
بیاموزد
پیشگفتار
شهیدان
معروفیت
اشکان
حاصلضرب
پیکسار
سوختوساز
کنسرتی
همانطورکه
نعنا
1898
فرضیات
بگذاریم
میداشتند
تسی
لیدن
##پام
##بلا
باهیا
انیتا
##ریتی
##ومیا
سالک
معمر
##وفون
صدفی
پرداختی
درگذشتند
منصفه
107
امیزهای
گنجوی
هفتادمین
صمص
صریحا
ملوانان
فرگشتی
cur
god
تاه
##سینه
فرسنگ
دیانت
نوینی
بیپرو
ادلر
##بارت
اندروم
چندضلعی
شورلت
شیط
میانهرو
اتفاقا
سماع
165
story
##ives
1331
برهمن
ماورای
اقلیدس
کربلایی
کفتار
کارفرمایان
نیوپورت
انگلوساکسون
ra
مفتی
##وکه
##جیا
##ney
##91
اوجی
معضلات
##اپزشکی
کلنگ
##ارتباط
الممالک
الفونسو
سیروان
##ولیتیک
ماجرایی
کروس
مخاطبین
گودرز
ترافیکی
پیشتازان
مژده
بیایید
خوششانس
اگنس
عمربنخطاب
alex
ot
جازم
سولا
گنا
##حک
##ویلا
همانی
اواری
##اندخت
کارلا
جمجم
##نیفه
ابکاری
بلوکی
زیگموند
منتج
فعالین
شبدر
پایانههای
تباهی
ازمایشهایی
کنگان
واژههایی
امیزی
هیدروژ
رابرتسون
گرانتر
ref
کلاهقرم
سوءت
روحیهی
لرزان
play
دیهگو
بورگوندی
اپارتاید
جعفریان
مینیسریال
شاند
چات
چخوف
##يم
##ایص
##اییک
اراد
ارچی
دوسر
مدعو
مروی
بیفایده
نامنویسی
زنش
کوچههای
حوزهها
رقبا
جامعهشناختی
اسمال
##ille
ولایتهای
ظرفیتی
ماکزیم
حاجب
میافتاد
کراولی
پارتیزان
لوسین
article
ادمربایی
best
list
رفق
شي
ظالم
ودا
میتون
##یلین
میشوم
مرغان
علامتی
بنر
##ینگا
اسپید
گفتوگ
افرود
میدانها
تیرگی
##بازار
نسخهها
##فعالات
##وجاج
پاپیروس
عقبی
ارزشگذاری
فتحاباد
خطیبی
end
انیماتور
انفورم
مگابایت
##کانیکی
زايده
منازعات
نصرتالله
جاشوا
سالواتوره
هیبریدی
نواورانه
jon
صان
صلب
##کوش
##گها
##ایایی
##الکتر
##انیاهو
همتی
الود
البیان
سریر
دیات
1320
اخن
##ery
سینوسی
مارگون
میرویم
##کلان
ابتکاری
جلوس
بخرد
فضولی
درختچه
والس
سانتو
##cher
سرکوبی
تنشها
ماهوارهها
اسپانیای
الرحیم
الاصول
##ledge
##وپلاسمی
سملقان
بعهده
رخش
میاموزد
##ازاد
##متا
رویس
بدگ
بنویسند
فارل
##اجرا
یافتهی
پادکست
یادبودی
المح
تفویض
خصمانه
نصاب
نمیخورد
کریستالهای
بازرسان
ایدل
161
بهتفصیل
تانکها
همتایان
زراعتی
غزال
پروانهای
دمکراسی
قریبال
تبهکار
واقف
lar
pop
بزد
جوک
عابر
فنوج
##اییل
##ستور
میدا
##اسار
دوایت
کنعان
##اپت
مصراع
اغداش
##ايیت
پروپاگ
ملموس
میدل
ماهید
##ادلانه
خوشایند
رزون
ارکید
پریدن
شانون
معیارها
لیتوانیایی
مکنزی
##خدایی
دایناسورها
برشمرده
یکهشتم
العدل
کلاهقرمزی
وتو
##iy
##روده
منوط
معیری
اتین
میلهای
ارته
هیس
##ینگام
اورلاندو
ابرسانی
##ico
مالاگا
عبدالناصر
محبوبه
راسهای
همدست
سیتوپلاسم
طلبانه
پنتاگون
موتلفه
but
var
yo
تودی
زلاند
عدی
الکان
##گرل
قرابت
##گیاه
گربهای
جنید
مصادیق
جانستون
پارسه
##ويین
انتشارش
##فظی
1500
راکفلر
تخمگذاری
کاردار
##اموزند
سیارههای
persian
ناجا
هیدرولیز
سلاج
##پیت
##رتی
دراکولا
میازاکی
تاور
دورترین
##واها
ریون
مصلی
پروفیل
##جمهور
پادوا
البات
امریکاییهای
میخو
کالچو
اکتفا
نتانیاهو
کاردان
یاسمین
ایندیان
دوبیتی
زعفر
اقدس
مجسمهی
والنتین
پیشکسوتان
حواریون
group
گوادال
اکباتان
ضدهوایی
gall
بیدی
لولو
##چکی
##برج
نیگ
بوف
##وسکا
پرسه
دادسرای
مشق
کلای
بازان
کیوی
قدمی
موضوعهای
جمعبندی
phot
دروغگو
گاوس
کولیها
میسرود
سايورون
ast
جویان
##پف
##کود
##work
میسن
کهولت
##ولاک
##ترود
##یدم
##وهد
پرزیدنت
بازافرینی
مغرور
ایستوود
کاربردهایی
فشارها
کلاک
جرثق
تلویزیونهای
ورودیها
کاپاد
اولیویا
همسود
انیون
سیکلو
تیپهای
اترنت
اوباش
هرمزد
فشردن
frank
lt
بونگ
لورک
چرت
##نق
##نمی
##دانی
استو
اینف
برایت
##گرامی
ابیک
تنبه
##بردن
سینث
##ونتا
پارسونز
همینجا
ارزهای
##والا
##انگلیسی
##ila
نیمهکاره
وینر
سیلوستر
ادرین
نرخهای
ابواس
بروجن
شناسیژن
مکتبی
بههیچ
حالوهوای
جازموریان
بپیوندند
جهر
فود
قاری
نشتی
##burg
امپی
##اریخی
##بیس
##گانو
اکون
مصايب
تلوی
غیرواقع
سیاحت
اسکیم
##سکایا
جوانا
بادکن
گورجیف
تارزان
شاهزادهنشین
کانالها
ارسنیک
ریختشناسی
گزینهی
متفرق
سارگسیان
دغدغههای
she
ul
تدی
لکل
چاوز
##حهای
میره
اوتا
الاصل
الونسو
##کنهای
مدون
زیرب
1300
برگمان
قلندر
##ستیز
دلنشین
تیزر
دینام
حوثی
اظهارنظر
##ینتس
##چشمه
نمیشدند
خیرهکننده
باسواد
قریبالوقوع
شیت
صبور
ظال
لجن
نگردد
##حلق
میوز
##اسنج
فرامین
ارضا
نامس
پراید
شمردن
تشکلهای
##فقه
پاساژ
کورتیس
خواستن
احساساتی
##سفال
اراکی
تختخواب
دندانپزشک
بازدیدکننده
ابدیت
مباحثی
برگرداندن
تایتان
پیشنهادها
استوریاس
نیدرز
بگریزد
سکولاریسم
لف
نویل
وانیل
کدها
##ych
ازبورن
بابال
##روند
تاش
اراست
دارسی
##يیدها
تنفروشی
ارتریت
زیبد
سهگاه
تولیدشده
نورالله
مراکشی
کاهنده
عبدل
ابرش
مورسیا
نمیبرد
کالیاری
ایزومر
قیصریه
بندرگاه
ارسباران
##ally
مومنی
پوتس
الزهرا
لازمه
انتیبیوتیکها
موعظه
ارزروم
sar
ماکیان
نذر
##پوم
##رند
##زرد
استیر
اسماء
##برای
سرایان
گرگین
نامور
##ورتس
کلوز
سوسیس
تعرف
##مایهی
پارانژ
کوچکش
کرید
مطالبه
ساموا
##ished
گرمتر
کاتلین
نمیباشند
همانندی
ناوهای
یونیزه
گوتینگن
مزدوج
شالوده
guide
پرورشی
فیاض
گونزالس
بیمعنی
الباتروس
دابل
سزایی
قاصد
##شاید
##سیست
املاح
نوشین
مقید
##درامده
چندلر
شاهپور
محمدامین
##ايیم
##سیداد
اقتداری
افتادگی
طیبی
توسعهدهنده
##وعة
سکینه
پیمانهای
معتصم
فرمولهای
توضیحاتی
برداشتهای
پاتریشیا
سهامدار
نابرابر
چوپرا
فاحشه
کلمبیایی
کمکهزینه
2nd
hall
von
##ex
##ox
##ندیل
برویم
##ابطی
فرشهای
اوف
اوتیسم
منم
تاچ
دیسکو
دواب
باشندگان
مشیری
پیو
بازخور
##ایتو
رسايل
علیخان
دلال
اموزگاران
دامغانی
فشارخون
عبدالغ
نمیکنیم
گشتاسپ
استانداردی
مریلین
جورجی
نشستند
##جنوب
بگویید
بیتیاس
گلوگاه
زنبورهای
نجیبزادگان
گورکانیان
محکمه
archit
##جلدی
جمادیالثانی
اپارتمانی
استرپتوکوک
نمیشناسد
بندان
سورت
فاخر
##پسی
##شیمی
##ثانیه
##یموتو
دومن
دولتشاهی
دیدیم
پلور
شعبهی
استرابادی
پهنا
سیمها
بخیر
اسفار
شاعرانی
صادره
نفوذپذیری
مارتنز
اویشن
لوتون
جودیت
دوشس
مهرهداران
الرژیک
پرستشگاه
انزوای
گوانگژو
درویشی
انفورماتیک
page
طحال
##قصد
##رگی
##ونیکی
ارانی
ویگن
نووا
اشباح
##جهانی
##وارک
همهجای
کریتوس
##یندژ
##وپاس
الکتروشیمیایی
نبش
عبدالج
ماهیگیر
خلط
برمیخیزد
التاریخ
مهارتها
حفرهای
##ious
##ctions
مجتهدی
ذاتال
اسکوير
جبالبارز
حنجره
far
na
ماله
##فاصل
##زاک
##rict
##by
انسی
همکف
الاق
اسنای
واقعهی
بوقل
قلمی
##کووا
مغربی
دخمه
پاسپورت
رومرکز
ارکیده
111
فرارود
کازرونی
سولفوریک
میترسید
روتردام
الخاندرو
تناسبی
صمغ
libr
نایج
هلیم
##بسا
##ua
##اتای
##اسلامی
##روو
روحال
تاکس
نیپون
ارنت
داغی
##وریوس
نمیافت
پرشمار
اعوجاج
اولاف
زیاری
شهبانو
سلین
دلفی
حقانی
تکهای
##وپروتيین
عبارتهای
پسکارا
بورو
اونو
کازابلانکا
ساقههای
فریدونشهر
برمیش
فلاور
طعنه
serv
two
الملوک
مسبب
روادید
نیدرزاکسن
back
den
over
جده
لخ
##ژا
##ژها
##لیب
##یتور
املا
اسراف
ارایی
افش
پییر
رسولی
لیانگ
تعرفه
##جران
ماراد
توره
اپارات
بخورند
خلقی
وینسلت
زرگر
قطرهای
سرمق
پذیرفتهاند
جسارت
##وژان
قهوهخانه
لاریجان
نگاشتهاست
سیگما
فوریتهای
سارایوو
معتمدی
mur
meth
##جیل
##الغ
امارد
میشمارد
تاویل
ایرون
دويل
ابگوشت
مقال
##کیج
مککی
ریگا
هوابه
##ision
اشتها
##ets
ایتالیاییها
چپگرا
رامش
گردیدهاند
زرافه
بارزترین
نرسه
مینوشتند
resear
منچوری
ابونصر
تیه
گوتی
##شود
##خطر
##طین
##روژ
الوین
منتفی
قطبالدین
##صدایی
دلبر
سوماترا
پادوس
لوسیوس
نیمرسانا
ارزنده
پسرب
سیاهپوش
تیرداد
اسفناج
نتها
##فروشان
چرخاندن
چوبهای
غنیسازی
ارگاسم
باکجه
میسوز
اکسپلور
##ضروری
لوسیفر
بهنمایشدرامده
سابر
اوور
شمول
افکت
زیرد
##وبیان
کلیتر
خوانند
انجمنها
نتایجی
جرق
شبهقاره
ویکیم
تارخ
اخترشناس
خمپاره
شادمهر
سرورها
گلوبال
میفرستند
لیوینگ
علماء
پارادایم
ساینس
کروماتوگرافی
institute
گریمزبی
صاعقه
fer
زي
عابدی
فلاحی
نینو
هذی
چیدن
##بولیت
##صوف
##شتههای
##ترهای
سالنامه
کردان
مواظ
دوج
پرای
سوغات
راهبری
سازمانده
##وقفه
سبلان
میروم
فلای
فلورا
گیلی
نوشتارهای
گوگوش
ازادکار
پلیاف
مانا
ایمپ
بابونه
121
گشتن
بدینمعنا
حاجاقا
الکیل
نامیدهاست
گلدبرگ
اقلیتها
##ودینگر
میپوشند
لنزهای
engine
مبالغ
سرگشاده
استافیلوکوک
رغ
ساکی
قویا
قارن
ونس
##جاه
##ایة
همار
همدم
روورز
الینا
بلایای
هیگ
##وطه
ورمانت
کدکنی
##بلر
تورینگن
کاتانیا
سفیدپوستان
گیاهشناس
ساینده
زردی
وظیفهای
##وفیز
کاکایی
افلاطونی
نکتهای
گریگوریان
بازتولید
sn
شایر
طنین
عقیم
مونه
گمار
گایا
##lor
##انلاین
تاکی
##لاش
##اشویلی
##گیو
اجارهای
علنا
اندرانی
علیپور
صاحبخانه
وارزه
ابوالعباس
کوبین
اولیس
گرهارد
##ander
نشریهای
ریمون
شمساباد
وصلت
ژاکلین
پیچیدهاست
نمیدانستند
بیحسی
تنبهتن
تبیان
جرد
دکن
##میا
##پولی
##بگ
##باند
##حاد
##غناطیس
##ژاک
##چات
##چسب
یکش
##تیوم
کارسون
نسا
شهداد
ماهگی
جوینی
دیدبان
مالتی
بدنشان
جستار
النبی
کروگر
قصهی
##ste
بیهق
منشاء
فایرو
نهنگهای
بیندازند
دیالکتیک
غیاثالدین
انیمیشنهای
تویی
زولا
هپت
##خوی
اینا
امشاسپ
نیاید
بسیجی
سهیلا
##اشیان
طیور
الیگ
ردبول
کنگر
قبیلههای
بیاط
##irl
میرویند
فیروزهای
راندند
بارزانی
قریببه
تحرکات
ظهیرالدین
عتبات
بوید
##رمانی
##شنگ
##گله
یکجان
اوکس
منثور
اسوش
موشی
توسلی
پردهای
پیگیر
کلت
اکرو
ترکزبان
سلت
اسلامیه
##ona
انقلابهای
وسایلی
پریسا
موسسهای
const
form
ترجیحات
نانوایی
قاچاقچیان
استیناف
تیغههای
##قعده
نرسیدهاست
اشکارسازها
ایزنهاور
متکلم
اودینزه
گلادیاتور
گرداگرد
سکت
پینی
کراک
##قاب
##چس
میتاب
برافت
##وموری
مهل
رسانای
میلیار
##پرایز
مولود
مطلقا
تياترهای
##osh
پوستان
چرخد
الهلال
هیرکانی
1904
ببینم
دهکدهی
صفیالدین
بفرستند
##book
بدافزار
مضارع
ماکزیمم
قریببهاتفاق
power
بمانی
شناوری
فتق
لپه
لثه
هشتی
براده
امول
بودجهای
منقب
موذ
جماع
بیوقفه
کمانی
ترای
چهبسا
تاثیرپذیری
سیمونز
ایمون
##opter
##ipp
قهستان
کاساندرا
نیتریک
خمش
همجنسگرایانه
معیشت
عسلویه
خندهدار
پرکاربردترین
district
bdi
tal
ژوپیتر
کلاف
##دنی
##34
##ger
درنده
##اسکن
متمدن
دستخط
##شکان
##امیس
پرندگانی
جهشهای
##ینیسم
سنبله
قبادی
فاروج
##سانو
پیرزن
فروبست
رودر
دخترها
مایو
اپیت
نیکلسون
پولشویی
جروم
عثمانیان
کتابهایش
##لانتیس
ریمان
منتهیالیه
لیزرهای
سجده
قشرها
calif
دربردارنده
جوهری
پطرس
ماسیمو
مظلومی
gh
اوانگ
جوندگان
عصیان
##نبورگ
##جوق
##go
##یتان
روپرت
التن
نوده
گلبهار
محمدابراهیم
##اوغلو
کاماکورا
قدسی
لیگاند
پسندیده
اپاد
فضانوردی
##ریشه
##اسرار
تراویس
مناسبترین
خیلیها
ریشارد
کانتور
فقیهان
اینچيون
رگبار
مسافتهای
پارتیز
بنزودی
##ological
درایور
جاکوب
میجنگیدند
ببرید
هیولاها
پسوریازیس
لورکوزن
research
day
vo
جید
لاکی
کفن
##کلید
##استری
تاکر
داویت
بینالود
اعصار
انجاییکه
بالله
مککین
غیرضروری
اصلیت
##کتاپ
صورتش
##مزاده
##als
پولاک
پرتال
راسخ
کاتولیکها
245
##گزاران
مزدوران
میپنداشتند
اوارگان
بیاعتبار
هایتس
هنگکنگی
log
فوند
ناله
##سط
اینهای
##سیاسی
کمعمق
ترابی
بازشدن
بیشترشان
خطایی
شعلههای
ابرنگ
کمیجان
نیکون
خردل
ردپای
چرایی
العالم
دیمون
فرسودگی
مباحثه
کشمکشهای
پیچیدهی
america
ضربالمث
سرطانهای
وبلاگن
rock
تاتا
##خورک
##گد
##گسی
اوستر
برایند
الوز
محارم
کارین
کربی
##وکسیل
نیروانا
المانهای
ارواره
ماگن
##ومتریک
##اگوس
طرفهای
سکسی
عبدالسلام
##انتینو
بایسن
زیباییهای
اکسیدهای
ايوسن
مگنت
شکافهای
هانسن
berlin
وارک
یاما
##فید
##گستر
##rat
سالین
دیبی
قرط
دهانههای
بدارد
##رهار
##رسند
گلای
##erv
جهانبخش
هندسهی
کوتی
کالوین
نفتکش
هاروتی
##انشهری
##لانژ
def
لنون
همدستی
1890
پختوپ
rob
interview
پروانهی
تاتیانا
خجالت
assoc
حریص
هموطنان
architect
لوقا
##شیا
درجا
متدهای
دورن
انجامی
مهریز
اقامتی
##واجی
##سترین
ملودیک
شبستر
نمایشها
پردر
احمدخان
مدرسههای
دههها
سیمانی
نیمهتمام
هلاس
بادغی
والیان
پرچمدار
مگاواتی
مندز
نگذاشت
فلامینگو
چاووش
طومار
##واحد
جویا
رضای
##وویتسه
##عن
##ونن
مناقب
ارشم
قرقا
بهعمل
مقار
مردوک
بازخ
اغوا
##کرفت
تعوی
هوابرد
##پیو
##اگوا
تیزی
جامعهشناسان
عبدالص
حوقل
رشتههایی
نمییابد
قاجاریان
هیدرات
سندرز
روندهای
راموس
برنلی
همکارش
نوردیک
فرضیهی
نوکليیک
برومویچ
green
حکمرانان
سامرست
فوجیوارا
فاحش
مننژیت
فهرج
نیواور
اندرانیک
نادو
پوکی
چلو
##نوری
##جلی
##wood
باارزش
##سیزی
##رکزی
اربع
گرش
تقوایی
فارادی
اسپاگ
انسانهایی
نیکلا
نظامالملک
فولبرایت
گوشهها
##شیرین
##پلکس
زرق
##مارند
خاورشناس
فاطمیان
پیتزا
ساکسون
نمیدانیم
زهد
1325
design
موازنه
هنجار
epis
charles
text
متغیری
ابردین
همینگوی
ملزومات
جاست
ضدان
کابر
##یسم
##زنگ
##يیک
##ضد
توجی
میشدهاند
ایرس
دوربرد
اجیل
ملیحه
اورليان
نماییم
بیشینهی
##ژنیک
شعرها
##جانب
اعتراضهای
نوریچ
معلولین
بولز
میهمانی
1902
مینیاتوری
پیچیدگیهای
##ناتسی
نوترکی
لقمان
ذیح
پومپی
##میشود
معجزات
عبدالمطلب
مناجات
انومالی
بوقلمون
منقبض
تیا
جولین
سکا
##جال
##ren
##یلاک
اسلاو
ارادت
ویسکی
نووارا
##درز
##اینت
تمای
##ربیگی
فیبرو
ایمانی
چرام
دوربینها
##جنون
عمیقترین
توتفرنگی
سمرقندی
نیایشگاه
british
سهماهه
ماهیدشت
gar
vi
قراق
##29
##ool
میگر
برطبق
اینی
اوبی
الاستی
اسما
##فرون
سرچ
##لاخ
دولی
گرلز
اندروژن
حدفاصل
غیرار
نظرهای
تشکیلدهنده
میزانی
فروکش
المریا
صدمین
جوانرود
مولن
تیران
##علیخان
ماهیانه
information
تهذیب
علاقمند
مازو
ناتاشا
##سفات
مینامید
ارسنجان
زادگان
کارافرینان
ناهمگن
زاکانی
تحقیرامیز
اسکورسیزی
بوخوم
اکسپلورر
post
ساج
طوق
ووشو
گبر
یمین
##sa
##اشیر
ویزای
گرینو
سیحون
همچو
بینجامد
##لسن
##کارانه
##کرانی
کلیف
کانوی
سیستمیک
##وستا
غربت
نفتخیز
##ional
پولدار
پژوهشهایی
خورناتسی
سوداور
جستو
خلیجفارس
دودانگه
ریشهکن
دردست
اقیانوسشناسی
کنتس
خمیری
دهیاری
الاوس
لرزهای
فوکوشیما
رحمتی
اربابی
هیدروکسیل
وثوقی
گمانهزنی
بیسواد
معاصران
پختوپز
bank
civ
راما
رباب
رجوی
زیدان
صربی
##سوق
بهش
میردام
میگرن
کرند
ادانا
کلانشهری
رسالههای
مکبث
##جیانگ
اثارشان
##سباخ
انسانشناس
مرتد
دخترک
##انوو
درختها
ادارهکننده
##ulus
هتلها
1324
اتشفشانهای
ارغوان
الکترودهای
کریشنا
کربوکسیلیک
بههیچعنوان
نایجل
californ
رادر
##لایت
##یریت
رابه
##مانهای
الفت
##نیع
مقیاسی
##عهدهی
گرفتاری
میدهید
ریانا
مردمک
مموری
کاناگاوا
##ورشیدی
##اگونا
وبستر
کدخدا
##icum
امورف
والم
بیتس
ردینگ
بدهکار
دفعه
دبیرستانهای
الکسیس
##طبیعه
کیناز
هرکه
شرکا
پرسشنامه
بهواسطهی
توانمندسازی
میورزید
ساچمه
گناوه
مارادونا
اسوشیتد
lou
night
زکات
فویل
لله
هیرو
هوهانس
انشاء
##ومب
الاحمد
مواج
ابومن
مقاد
میبایستی
گردشی
میدزد
فیگور
دلمه
سیارکهای
صدایش
مدلینگ
نمونهگیری
عروضی
فیزیولوژیک
مخلوق
پردازشگر
مهدیشهر
1328
دیپلماتهای
هردوی
زیرساختها
سپاهیانش
چاوشی
مزاحمت
جلگهای
محاوره
دریانوردان
یکسره
نابینایان
صاریغ
الازهر
song
ثمره
زاری
شوه
هلاک
چچ
کالت
یای
##ks
##49
برکش
##ولایت
التق
الماسی
توکی
سربند
ریحانه
شهودی
##شدند
##توگرافی
اسکالر
تشنگی
تیول
##قباد
##زنبرگ
روانگردان
درمانگر
خوابی
##ream
تولدو
انحنای
کینگستون
قدمگاه
برمبنای
گرجیها
شهابسنگ
فوکوس
گاتهام
مارچلو
خودسرانه
رندر
زسکا
طفل
قاف
هونها
##شف
##الاش
دیاب
متذکر
##شکار
تیمبر
بلار
##قلوب
شوره
شاهدی
فارن
هیچچیزی
رایو
##تاژی
نیمهر
مشکلساز
دینو
طلايی
شاخدار
طلبان
گورهای
قیمومت
نرفته
171
تابستانها
##ema
محتاط
پايولی
اریکا
کالاهایی
##گرافیک
لیلیوم
ربیعالثانی
جاجیم
ننگرهار
اشنایان
پیزوالکتریک
ترنتینو
سندیکای
میدرخش
mill
##لاب
##وبرگ
##26
دراگ
برعهدهی
##یتاس
##اندان
دستغیب
دورانت
باشگاهها
کلوت
تیمسار
لیچ
لیفت
ورت
کاهشی
##کردی
هجومی
ماندارین
صربها
زردشت
اصولگرا
خاتمال
devel
بزرگراههای
چگنی
میچسبد
سیارهها
پردازندهها
مقتضی
واترلو
فاشیستی
حجتالاسلام
چزنا
##خواندگی
لوایح
بمدت
لنس
ودی
##طاع
استلا
برجا
##هاس
##یدرو
##ختار
موکل
ایار
بوسان
اکتا
گلولهای
مستثنی
ممالیک
ولزی
میراژ
ماننا
شوکه
امپراتوریهای
##پورا
ابنعربی
متوسطی
تدریجا
بیاح
کتف
بازنشستهی
بیگدلی
منشوری
سمیه
دوریس
پدال
چیرهدست
جداییناپذیر
##رفتو
تسنیم
مکدانل
develop
دفت
شاب
پف
توفیقی
میشمرد
بیوم
##ونیو
##وبان
ملازم
اولینو
فیوری
مدیرهی
##یتیو
اقتصادهای
نورس
یادگرفت
هفتتیر
میخند
بردیا
حالتها
خوشامد
نامزدان
فنیوح
همسطح
درخشید
##جنسی
عطایی
##طلبد
طرفدارانش
تفنگهای
بسطام
پودری
max
ومبلی
پاسیفیک
ضدعفونی
گاراژ
پرسوجو
فنیوحرفهای
bib
pan
بوانات
زبرد
##فکت
##طف
##uel
ارپ
گرمه
بیارزش
نامجو
کنارک
کمد
تجویدی
شهمیر
حقشناس
فرمانهای
افتد
گیبس
جهتدار
تایباد
تلاوت
استادانی
دسکتاپ
امیرعباس
مدارگرد
زیستبوم
کودکیاش
کوبیدن
فلزیاب
گرانروی
دیلمیان
بازمیگشت
ریاضت
اشتراکگذاری
الودگیهای
پاشید
سوپخوری
کورتنی
چشماندازی
##قایقی
پربار
مورتون
شکیبایی
نوکليوتید
سوپرانو
اسلحههای
مغالطه
هیپنوتی
دنت
مپ
دردی
##الگو
باي
همستر
##وتل
دوانی
##گیه
##شمس
##وکلس
شرارت
مصوت
##اخه
سلتی
اسپارک
دولتشاه
موسوعة
المر
طبقهای
وزارتخانههای
وقتها
درامدن
##شاگرد
خشونتهای
عطارد
هویزه
ساعدی
جوزجان
بیابانهای
مادربزرگش
لنفوم
دوزیستان
تاریخدانان
اسپاگتی
مقادیری
dra
جانس
حامله
غصب
لانک
##نف
##خیل
بهايیت
##ادزه
##یاکسید
کارنی
##نیوز
نوپا
انگشتر
شرودینگر
##سراها
گلین
ملون
ایتالی
دلیری
##پیوست
کیث
استرنج
میلیونر
شناساندن
اچام
زیباتر
ریچاردز
کمپانیهای
رولان
کورتیک
تلهفیلم
نرسد
بیچاره
بخواهید
اربعه
مفرط
حصیر
found
هلاکو
تاندون
wind
سوا
شوان
شفر
طره
لودی
نزاری
وکس
یسو
معبدی
ادسا
پایک
پایکوبی
نقشش
2022
حسگرها
قبور
##گوي
سباست
اروس
پاراگ
تخار
نداشتم
تياترشهر
معمولترین
نعیم
اموختگان
چلبی
ساندنس
ext
جاهطلبی
گیجگاهی
مجرمانه
پاکیزه
ببریم
جمهوریت
900
تطه
دها
دینگ
شوار
کایت
یلو
##زایند
##39
##يونی
باوری
باقل
##ونسب
فیلمز
نظاره
##منیا
نقشهایی
بلوند
بنان
بالگردهای
تکالیف
##سنر
اروپايی
اسکوشیا
تفحص
ارزوها
##نزن
سابقهای
باورن
متواری
فیلمنامهنویسی
رمزهای
ریشهدار
خسروانی
نازیسم
شباهتهایی
دیاگرام
لورنت
مبدلهای
1899
بنتلی
تانکر
میسوزد
ژيومورف
jean
تراجنسیتی
خروشچف
باپتیست
ایروینگ
bab
لنا
لنج
لوا
یاتاق
##بولت
اشراقی
نشویل
گرداند
##رزفیلد
##گریو
##فهیم
شاهیندژ
##هماهی
جزای
خارپشت
##ines
خوانندگانی
صفری
شعبههای
شعرش
##ily
درامدهاند
پاسخگوی
شناورهای
گنجهای
تصادفات
رامان
مرغاب
مشکاتیان
کمونیستهای
محوطههای
کاندوم
اندرونی
تظاهراتی
فیزیکدانان
گزینشی
ابتکارات
حیثیت
لنگرودی
برامدن
##قرمگی
مغایرت
نمیخواهم
early
میسپارد
کشفیات
bus
eg
hill
lim
ny
دژی
عیس
##ky
میطلبد
استقر
بروش
انسو
##ریها
##اتسی
##ویکی
کارخانهای
داکا
##اکردن
دهج
عموز
بدفورد
نسبتی
گردوی
##رسن
چهارمی
اسپت
مخچه
مخوف
سبحان
افزودهاست
##وفای
تایسون
##ويیدها
بزرگیهای
متوازن
##وترن
دایمل
کاشفی
شاخصی
میتوانی
چارچوبهای
باباجانی
چسبنده
چشمانش
برانگیختگی
فیدل
گرداورنده
التماس
چسترفیلد
حتمی
jac
بولت
صايب
ژوک
##نویی
##حزبی
درر
میاد
باخته
همیاری
##فرج
کارتل
واقعگرایانه
بوج
پرسرعت
هنک
هیبت
ریالی
بارب
تعص
سفالهای
سرداری
تیرول
کاتو
موقعیتها
##oma
زردشتی
غلظ
اگیل
##iant
میخواهی
کنسرتها
لورل
تدافعی
یکپارچهسازی
فهد
فاجعهبار
چسبان
ببندد
مخرج
اعتصامی
jap
rume
دقایقی
صوف
مانس
ندی
چقرمگی
کعب
گبری
##یابی
##ایفی
میسیون
انزمان
اینزات
امانی
##تراشی
مقبول
نشستی
##شدهای
##بافت
##اجا
سنگری
هزارج
دریچههای
بحبو
اپولون
لایبن
کنندهها
درهمان
کولر
chap
مالیاتها
خبرگزاریهای
مناسبتهای
منحنیهای
استیلای
بیخدایی
رشیدالدین
سوانح
مخملباف
مونوکسید
شراکت
جهرمی
rumex
east
men
##گویان
##well
امرز
الچه
اسون
کشیدگی
هرس
تربی
پایگاهی
اقلیتی
بلین
بزرگانی
ریگی
لیپی
جامپ
##ويیت
نگاتیو
کوهسار
##اداوری
اشکاری
نظاممند
توپولوژیکی
##العلوم
پردازشی
حقیقتی
سراسی
##رونیا
بچهدار
الومینا
رعنا
رولز
گزیدهای
گایوس
iranian
afr
ندانم
شامپان
مادلونگ
سرنخ
فارماک
ابواسحاق
بایند
صراحت
عینا
مانک
هریت
پوکر
##قم
##زیر
##ior
##غازی
##46
راي
##ابیا
##ترک
##اسلام
اوغلو
رویهی
##بداری
جایگذاری
##شدهاند
محمدزاده
شیان
##سانگ
فیس
گرمترین
فضایل
اهداء
##chan
سیلاخور
نوریس
بلغور
اولیهای
منظمی
متالیکا
میرسیدند
جواهری
کنستانس
استعمارگران
تلسکوپهای
پامیر
فلاندرز
بنویسید
مشاجره
یکتاپر
fam
gal
بویس
گالیا
##قامت
##جذب
##ny
دراج
بهث
##ندن
میعان
باده
التا
دوده
مهستی
جهانشاه
جوابی
مدیرمس
فلکه
پاراز
وزغ
خوشخیم
دیدهبانی
بوروندی
نمیب
عصار
سودابه
سریعال
سکونتگاههای
تقدس
دیاکون
لطمه
بزنیم
لحظاتی
گدازه
کاویانی
پرانرژی
تنگاتنگی
کرملین
بنزودیازپین
dig
mult
ut
بدهم
جاسم
لهر
لارن
##اچی
##بة
راول
##یشاپور
پیشاهنگ
ملیگرای
اکتی
تنخ
##اتیس
هواک
دنس
مجموعههایی
##ench
##یندل
امپول
بازارایی
جدل
عروج
نهادینه
ماکیا
وستمینستر
کرمها
academ
شادمان
کاندیداتوری
کاوال
حفاریهای
میسوری
زاير
ولوو
شیفتهی
گانگستر
دلسوز
اناستازیا
پروداکشن
مصحح
بندگان
جریب
حشر
لینه
##ژون
##هایان
روژه
##نگاره
اسکوپ
ویسنت
مجانی
میدوی
میانکوه
فلچر
مناظ
نباتی
تکنولوژیکی
حلبی
وزنهای
زنجبیل
نارس
##وکیان
خردادماه
عطاران
زنجیرههای
ساکورا
ساکرام
قشنگ
درمیاورند
1895
1896
چاقوی
میفرستاد
لعنت
لاپلاس
ital
مصطفوی
صدابردار
اوستیای
ضیایی
چروکی
عضدالدوله
اچایوی
میلیاردها
اوانگارد
bill
kl
que
ذیر
وفق
##وامی
##جنت
##گالی
##چههایی
##ستههای
##ونام
##فتامین
##ترسانی
توج
سروی
تحفه
پیوتر
اکانت
تنومند
احشام
کندوان
چندنفره
قطبن
##اجلو
بعثی
حکمیت
نگاران
تیفانی
خارجیها
سرعته
##urn
تکنفره
نمیگ
سایرس
سرکردگی
148
تاراگونا
##ودرمانی
لاکرونیا
پیترب
تاتارها
هیپوفیز
جنایتکاران
رحیماباد
coll
اوبراین
اجمالی
تندرستی
relig
قدیسان
original
html
اراگاتسوتن
سلاجقه
fun
بجستان
یث
##هاب
##دوز
##mar
##الوس
##هیده
اساماس
فیلمنامهای
مشایی
مهبانگ
تمبک
شبستری
نگارهها
ولینگتون
چینش
تایپه
وسیعتری
##olf
سربازانش
قالبها
مقالهها
برنولی
قصاید
تیتوس
محمدیه
ترجیحا
برهانی
asp
مثلثاتی
عاشور
کنشگران
##ماهیسانان
کشمیری
پیوندها
doi
فرانکنشتاین
زحمات
همارزی
داز
دونا
واره
##پوینت
##کاف
##ستید
استاپ
امای
اوصاف
##وتوس
ایزی
ویست
نووگ
دهساله
##دنبورگ
##فاء
کاهو
سامن
تورکی
اشتقاق
خوشبو
نیکوتین
درختچهای
حواص
پرتگاه
ماریانا
هارلم
نکاتی
رستگار
هیلتون
تپوری
گرگور
هولاکو
بلاغت
وامواژ
حفرهها
صالحاباد
طنزامیز
میتسو
تصمیمگیریهای
ناشناخت
سیلیکونی
کریستیانو
اسپینوزا
mach
الشباب
رکنالدین
لازار
میکشیدند
مساعدت
استارتاپ
طاقتفر
مینوازد
اختتامیه
بلفاست
jack
نپای
##ریشن
اواتار
منهای
##فرهنگ
قرارگرفتن
مقبولیت
اتلانتیس
بازشناسی
اورگان
حضار
طبعا
##وفسک
علمیهی
جوانب
حسابداران
دودکش
لذتبخش
محاسبهشدهی
کامپوز
محتاج
نمازخانه
کیتون
مندل
رییسجمهور
##فیروز
ظهیرالدوله
صفراوی
شگرف
لمباردی
کاریکاتوریست
غیرواقعی
بادغیس
fin
was
زاخ
##42
##ارنو
میوهای
یکجانبه
خودنمایی
شکستی
گردنی
پلوتو
مغازههای
الیسا
ارزانی
تایگر
جدیتر
داماش
فناوریها
زنجیری
عبده
نمایشنامهنویسی
جلبکها
##cept
نشریههای
نیکولز
فوکر
پروانهها
company
بنگاهها
تجهیزاتی
ژلاتین
نشیب
ترکت
حنیف
زالت
شلم
عاید
##سههای
##زک
میف
میپرد
##امدهای
برل
امراض
ابلیس
اشکن
اتشد
##افیل
اختلافی
##لبن
میخک
استرابون
امرالله
چارچوبی
##وایز
تالارهای
دنبالههای
کاشاتاق
چرخها
نیلز
مذاکراتی
قاين
انبارها
توریست
کافمن
منزفیلد
پلهها
گوهرشاد
استریل
انزال
برخاستند
موازین
ترکمانان
بربرها
بیرحمی
دمیتری
ایندیپندنت
نامساعد
لیلیومجنون
جویم
شینگن
باشت
##اسور
ابقا
روستوف
##ورتاش
کلور
اقصی
چهارت
ریسه
شیيی
زندگیام
##ality
بخشیدهاست
الفونس
حاصلخیزی
جریر
سیراف
معتزله
ناگفته
syn
محجوبی
گرویدند
ce
its
بوتو
سوش
هادر
پاو
##غیره
##ورنو
ازو
##یریک
روبل
سرنی
ویگان
دستم
فیلوژ
##اصلی
مهوش
اکراه
##اینس
گلم
پیریت
کودتایی
##وارهها
امپایر
اسکورت
تيوریک
نااش
مسیه
##پهلو
کشتارهای
سرمایهداران
توصیفات
بحثها
##osp
کافیست
پانل
رامسس
مردادماه
زمستانها
هلندیها
شصتمین
شیشهها
imp
مفعولی
زامبیها
دوهزار
##ومایسین
متصرفات
برافراشته
دسیسه
معنادار
ناعادلانه
رفلکس
باورنکردنی
lan
mass
sem
مولا
##پتور
##ja
##دهد
استواری
همزاد
موثق
ایور
اشا
اوله
مهتر
##ایدن
تنریف
علیت
اسپرس
نظراباد
##گزیند
پدرام
##جمع
طبیعتی
ماما
کاتدی
خدمترسانی
anth
منصوره
145
شهریورماه
بختیاریها
جولیوس
program
ماژولهای
محافظهکاری
جماعتهای
پدیدارشناسی
لوموند
اشرفیه
فرهیخت
ذینفعان
بشاگرد
دکارتی
رانت
هنینگ
ژيود
گوریو
##33
میلا
فرع
الاله
اسنی
نمد
بیانسه
نقاره
سازوکارهای
##دنویسی
##ایرن
اورس
اپراتورهای
قلعهنویی
سپاهش
##asi
نیمهعمر
اچمی
پیامک
جورجو
گویشها
کاباره
##ike
الکامل
نصراباد
##iff
ازبکها
هالیوودی
نکنیم
کاوازاکی
دهلیزی
rout
ربیعی
گرامافون
##chen
ویولنسل
کلارنس
اگزوز
تفریحات
کامپوزیتهای
پرطرفدارترین
محمدرض
arab
انتاگونیست
فعلوانفعالات
تریف
ریکو
صاب
##غناطیسی
##ذات
ازی
میدن
بریدگی
انکس
رواقی
اسرا
##اندوز
##ناشتاین
##اپین
پرشی
پرومت
بالاب
کلیش
اردکانی
موسمی
الماتی
الیکان
هدفگیری
##گنشتاین
##eton
وینچ
ایزوله
دشتها
اتوموبیل
بیکران
خمیدگی
دودمانهای
اندرها
رازهای
طاقهای
ایامسی
صدیقه
برامس
کژدم
خودبهخودی
open
لطفعلیخان
ابلیمو
یکشبه
ساکرامنتو
sup
زلف
غروی
فلاوی
هاور
کودی
##پد
##پوت
##ria
##الق
بهادری
بابان
امرداد
##مانان
تاچر
هراتی
کمه
تیمورتاش
میدلز
##ایلد
اوربان
##ering
مینای
تکریم
الباسته
افرادش
سویل
##ities
پوشه
مورینیو
##rey
امیلیا
##ime
افتابپرست
جویدن
برهه
درجههای
کمیکهای
کافيین
اوپک
##الامپور
راشدین
بفهمد
رهیافت
دارالعرب
##وبرداری
دویسبورگ
california
دبورا
##ning
کرالا
نوستال
ابول
مقلد
اعلای
چندرسانهای
بالههای
مربا
##ala
البومها
اکتین
گرمایشی
ازدواجهای
خوشگذ
کاربرانی
نیکیتا
متعال
جعبهای
بیاع
تخمهای
بدیعال
پارسها
میچسب
اسطورهها
گراوب
درمییابد
اسپارتا
فرورفته
خجسته
دربرداشت
ادینبورگ
درویشان
##سلاوترن
پرخاشگری
ویاريال
میایستد
تطهیر
حرب
پلام
ژرار
گنده
انشان
توکان
تايید
کراتین
سیاق
دستگرد
بلدیه
بنوا
بنیتو
بالکن
شیوخ
صنوبر
##کوویتسه
گفتیم
هندریکس
گیگاهرتز
##یندون
تباه
ارزويیه
استرن
##وپت
##eder
رادیوگرافی
الگوبرداری
ذهنش
پریست
united
##اکاوا
اعتبارسنجی
دانشمندانی
برگشتپذیر
بایرون
ماتریسهای
همتیمی
##ysis
درهمسازی
سحرگاه
جراحان
مرجعی
صهیونیستی
پلینزی
طهماسبی
کایزرسلاوترن
کورنوال
انکشاف
اندرومدا
ذیربط
گراوبوندن
بپذیر
خفر
ذن
شوینده
عبرت
مگو
##خاست
##ظار
بادیه
امیره
النج
##یاکی
داوین
##بالی
اشپر
اولتیم
خانلری
پیوس
کلاید
کوج
سنتا
راهزنان
فروشان
شمالگان
##چیچ
اردلانی
الیزا
بنابرین
مباه
##ونگرا
109
پیمودن
هفتهها
##بورگینی
##ument
بایاس
##ival
حیاتش
قومس
اسمانها
کتایون
هولناک
this
بینیاز
صیادی
شوماخر
حبابهای
پویای
هاگوارتز
فریتز
کبریت
میکروفون
فايق
historical
ناشنوایان
یونیکد
هگمت
اونز
زوی
شیند
گدا
##ماید
##شری
##hran
میگرفته
یکنمونه
سالهایی
##اختگان
متوکل
بیزی
روستايیان
لیخت
تقوا
اورن
میران
##ونتال
رودس
سیدمح
چشمک
اکتسابی
بحار
##انزویک
جعبههای
گورانی
##otus
بزاق
شایگان
عامری
کسایی
رجعت
##ows
پیشرفتهترین
لامبورگینی
what
مورتال
بوگوتا
اشاراتی
چرنوبیل
##حیدری
mos
ros
wes
نگذشت
ژست
##لایی
##نوش
##زدا
اینههای
##ازید
امجد
محس
ایاتی
معبر
ویفر
دستبند
انگاشته
سناتین
ملح
ملاز
اسپال
شیرخوار
الیانس
کالو
موران
هواوی
چراغی
ویلز
خورنده
گورکی
نامزدش
تابعهای
ایستگاهها
انتظاری
گرافیتی
معلولان
چایکوفسکی
گرگومیش
الههی
نگارنده
پاملا
انتونوف
نوکليوت
پریشانی
کلوچه
نپایید
عذر
##لمی
##yt
##دهزار
میونگ
##ویتی
##اساز
##گرگ
جمیله
ابوج
دستشویی
##ونیستها
بینقص
سنان
پنجرهای
مینودشت
نمایشگرهای
تعدادشان
صدرا
##وسیتها
تفریق
حملاتی
دینهای
ویلیامسون
ماتيو
بایک
نایروبی
درهشهر
رهاسازی
فولادوند
گندالف
بولدر
پراکندهاند
سقفهای
جوابهای
مجروحان
crit
چنگیزخان
##ruct
متضمن
general
پلوتارک
##ischen
انضباطی
متزلزل
فصیح
austral
نیواورليان
oper
pm
اکن
فوندا
چاهی
##موم
##بدا
##کاسی
##ko
##اقه
##برفی
سرپ
##اشم
سیای
بازوهای
کوف
گلوی
اورارت
پنجابی
کانبرا
اخته
ولدم
موسسین
خدشه
اجراء
هنریاش
وسلی
##گارو
ارامبخش
##ility
معماریهای
##سکوپ
star
قراردادش
repr
فورس
یهودستیزی
الدو
باخرز
لیدیا
تناسخ
معجون
مغازهها
هراکلیت
هاوکینز
بیاعتنایی
رضوانشهر
کاندیداهای
کوالالامپور
براندنبورگ
girl
sin
تشنه
حرا
خفت
دتر
دیره
سوهان
سلاحی
غوریان
فریک
نيوپ
ورب
چرای
##پاپ
السد
اراس
دوین
گرایان
بیوت
##خشن
کنفران
روزگاران
اندامی
##بدل
زمینههایی
##ودیو
##فاظ
اسپایک
برگههای
لغز
##سالا
##مرگ
##بلور
بنیهاشم
##ating
نداره
تورمی
##قرنین
تاییدی
سفرنامهی
بخور
پالپ
لبهای
فداییان
بهرهی
میلیاردر
بتپرستی
القدس
خواندنی
ژنرالهای
استونیایی
وعدهی
فلسطینیها
1889
جغرافیايی
قضایای
نیگاتا
جيو
جزیه
طوط
فایت
قیا
گیش
##زبانی
##ولس
خودکش
ارگو
##ایدار
کوپن
گردانند
تلگرافی
خطابه
##صلح
تبعات
##وپینگ
موریک
وسکر
عقبه
##ثیلی
کیلوگرمی
نهادهاند
##ada
شایستهی
پاشیدن
محاکم
هادس
نعمتاللهی
بکشید
سپیدرود
خستهکننده
دیهیم
الکترودها
جمادیالاول
صلوات
اغداشلو
دیاکونوف
کنفرانسی
ib
lat
lab
خولیو
پتو
گتی
##اوان
میپذیرفت
میوزد
##سیلا
##هاپ
##اردز
اسبان
کارب
گرومن
دستبرد
دستنوشت
ملویل
سیستمز
وقایعی
نورماندی
تابان
کنترپ
احمدزاده
##حدودی
درونمایه
برزخ
ارامگاهی
##ason
پادشاهیهای
هارالد
قیط
##illa
لقمه
دستبهکار
هکرها
فولیکول
بیتفاوتی
لوفتو
فایرفاکس
library
dar
sing
بزی
لابه
نونه
##کرس
##دونگ
برگیرنده
انزو
##ویدن
بیوان
شدهباشد
##گذاشته
اکسان
##اوود
##ero
مسابقههای
پیرسون
سینسین
اسکویی
تیای
پرداختهای
الکترواست
پهپ
دکترایش
پاکدام
شرقشناسی
ساسکس
دودمانی
ملکالشع
سوزا
دبستانی
##وساوا
تودهها
ریختند
ورشکسته
هرکولس
super
دکوراسیون
مینیمم
سیناپسی
تفرجگاه
پرولتاریا
رشک
قت
لینا
گید
برشهای
##لیتر
انتیاکسید
زیگلر
شهامت
کلیهها
مدلهایی
ضدت
مدارج
کاپی
147
ونوم
##میلان
انگیزهای
یهودیه
سرچشمهی
دزدیدن
یانوش
شطرنجباز
هادرزفیلد
گذارند
ساموراییها
ندارید
بورنموث
سکانسهای
شغلهای
خاتمالان
بدیعالزمان
sat
vide
زاگ
وانو
ینگ
##چور
##یلان
##یداس
فراق
معدل
داونی
##ادیه
متک
ابباز
کنست
##فیلی
انتال
افخمی
جهنمی
ترسی
انگلو
کودهای
زبانزد
باریت
فرودو
ملغی
اسپاتی
هنگفتی
##پاول
پارو
کالسکه
اپن
جداکننده
خودروساز
صفحهکلید
سایتو
##amb
زیباک
اعدامهای
ردیاب
نیلسن
edited
کاردین
تماشاچیان
رفعت
طنزپرداز
زخمها
کایاک
اسکنر
roy
نخواهم
عروسکها
میگذرند
سرامیکها
لیندسی
وولفسبورگ
دوبرابر
شیدایی
صدابرداری
چنداهنگه
pass
ختل
نجد
پانس
گاف
یین
یوست
##ماران
استاجلو
انباری
##لاص
هربار
##مداران
##وکال
گردانهای
##کتین
مخاص
پیره
مارو
مینیا
##دریا
نبردناو
گازويیل
##سکیه
ناپسند
##پارس
ملاط
زرینکوب
اسپرانت
کپیتال
حلالیت
emp
شلوغی
زمینلرزههای
پیانوی
بازنشر
استنشاق
لوفتوافه
bern
اوید
تانت
تالب
ثقل
چتری
##گولا
##field
##62
بهاه
##یدیا
##اندرت
دوگ
دوبرو
دوزهای
##میوم
نوکر
مجادله
اته
پیشنمونه
##ارکا
##ارکونیک
گروت
رسانهی
روستاهایی
دادهبود
فیوز
کلیفورد
دیدگان
ازدواجش
##اشترا
نظامالدین
##سایزر
##شناسانه
##حلول
فریدا
##وواتس
شهرتیافته
پواسون
کاپیتانی
چمپیون
قشری
هیپوت
کهکشانهای
درخشانترین
نوترونی
مکاتبه
الاینده
ناکامورا
پابرجاست
کاتیون
بیگلربیگی
نگردید
خصلت
پیتربورو
هگمتانه
cry
بلیس
ثواب
خرز
ضایع
للم
لادیز
هاز
##یی
##کتیو
##rol
##44
##اهند
##هروی
##ولة
همنشین
توکس
خودک
نیقیه
سرین
سرایند
کارور
کارام
دهباشی
هرجا
بدبینی
بالین
میناس
##یریس
##ences
اسکول
کاتوزیان
گیران
##ویلر
فراگرفته
حافظههای
وظایفی
درخواستها
مسافرین
##ips
سیتیاسکن
الکتاب
conc
دهندههای
##کوسه
گودمن
شینتو
att
مصاحبهی
ژرمانی
پارتیان
پارتو
محافظهکارانه
علاءالدوله
غضب
پیریزی
نوبهار
فاوست
رفراندوم
mak
top
فاست
لانت
پیله
ژوان
##وندهای
متل
اهوی
توسکانی
اعیاد
پیشگاه
اکسیر
زنون
##ايیکه
مانندی
شیعهی
قلات
واچ
البوس
##رحلهای
یووه
نبض
میرزاده
incl
زیستکره
پیمود
مونک
پیامرسانی
مهدیه
مهدیاباد
هوشمندی
همانندسازی
درگیریهایی
غذاهایی
پرسشی
خاطراتی
چاینا
ايور
قدرتمندتر
مکملهای
موزیلا
حالیست
یاسمی
گلدوین
جمالزاده
کشیشی
لوسمی
اسکناسهای
الشیخ
کربلای
هپبورن
یوبیسافت
ناباروری
son
تازهی
سمو
فوس
لوط
ماکی
پوندی
##موک
##نة
##نار
##واف
##کرو
##va
امو
##ترامی
اسجی
ارگیل
افعی
شکافته
کوژ
تمثیلی
علیهم
گستردهاست
همراهش
گرمابه
برزین
گشتاپو
سیلزی
ent
اگوستا
سختیهای
شگفتانگیزی
متقابلا
گوشهو
لقبی
مییافتند
برازجان
عنایتالله
peop
متافیزیکی
بریزبن
گغارکونیک
گمارده
ژيومورفولوژی
نووگورود
cd
cre
good
hom
si
ساره
صراح
نخی
##رشتهای
##گشتی
##حمل
##وندها
راث
امجی
اوکت
ارال
ارورا
بیوتیک
سیپی
پیشوایان
گرداب
##ویتری
گیوه
چاپهای
انسانگرایی
شروین
دمام
تیوب
جدولی
وضعی
محدودکننده
اصطخری
زندهای
ارژنگ
بیکلام
چاهها
همسفر
رابینز
گاود
هندوایرانی
نياندرت
franc
استوکپورت
ill
cour
سویت
لنجان
##قار
##dle
بادر
##ادون
##ادیم
##ولوی
محبی
ایرندگان
جمی
بیپی
میکلانژ
ابگیری
اولدهام
رسانش
مسکون
##ساندهاست
اسپانسر
مارلون
ورث
پاسکو
بیانکننده
##اویز
خداافرین
نجاری
anci
لحنی
سمب
ویتگنشتاین
##وترا
بشرویه
##پلاستیک
بایستد
زاوه
تنگهی
sex
نژادها
ژاکوب
عسکر
لعنتی
انضمام
ازبکان
گنبدهای
اسپایدر
پوتسدام
هیپنوتیزم
call
ey
fri
جرب
رگی
شادر
شاکی
ویشی
کومی
##سول
##تاج
##جون
##عانی
##ster
##چاپ
##الدی
استتار
##یرات
روسل
پیشاهنگی
بلن
##طورس
تعدی
حکایات
کانلی
کیانیان
گوام
##تنویسی
گزارههای
دماسنج
بخوانید
اشتون
فرزندخواندگی
مشغولند
عملیاتها
والرین
زیستشناختی
سایتی
تیرهتر
وارطان
موسسههای
اوازخوانی
تنگنا
خلافکار
نیاورده
عشقب
پرسشها
کورتس
ناهمسان
ماجراجوی
مجسمهای
هاوکینگ
لابرات
ابطحی
مافیای
version
مستاجر
کیلوبایت
اریتمی
گوشهوکنار
field
جولان
شوپن
ووت
گابل
##mb
##ثوم
##63
##ومها
سرشان
##تیها
سیو
سیامین
اشوت
جنسیس
##نجد
بارانهای
دورهگرد
غیرح
هوستون
اورید
مینگری
دنیرو
پلازا
هدایا
تفصیلی
حرفها
بخود
دامها
سینماگران
تکنواز
ویلای
نابالغ
کوبریک
رامبد
ولتاژهای
چراغها
##ماهیهای
هاینز
##غدیر
ابوعطا
قریشی
بگذراند
پسرعموی
editor
خبیث
صانعی
bell
gn
حصاری
زدا
یوکو
##جیک
##طع
##den
##یلای
##اسمیت
روابطی
دیونی
گرز
کنان
بخشنده
##وشند
شکری
بازپرس
##راتورها
مکلن
باروز
میدلند
مارگریت
##سبزی
##icago
گیاهخواری
اتاقخواب
151
خیرین
فدرالی
نکروز
dev
درخشنده
جسدش
##que
عروسکهای
کارامدتر
بیحس
##مینگتون
زکریای
secret
هدیهای
ساترلند
اسمکداون
جرثقیل
dom
kr
win
way
جیش
ریتر
سدها
شازده
فجی
ندر
##قوه
##ساید
##ري
##فایر
##ژیل
##صالح
دراس
استیم
##ریچ
همنوع
##کنت
سرایش
معار
بیزاری
تحلیف
مهریه
بلده
زبانشناختی
اندوت
واگ
رومانو
ویلر
تهید
نمیفه
##eter
گذرگاههای
##cha
واقعیات
فرارساندهاست
نشدنی
لااقل
مجسمهها
مجتمعهای
غیبی
ونزدی
حوضههای
1893
گذراندهاست
mouse
##وسوکه
پیاچنزا
بيات
بیثبات
لیوینگستون
نمیبیند
بولد
بچهای
لگو
ماپ
##عالی
میپیم
برانسون
راسم
الکر
دوون
افام
مربعات
فیال
##پرویز
کاهنان
خودروهایی
تراک
دنیپر
عاملها
تریستان
قابلیتها
خروجیهای
تغذیهای
اعتبارنامه
بوتههای
پاییزی
سرنوشتساز
چسبناک
مرورگرهای
شترمرغ
وزارتخانهها
center
خاچیکیان
میکروبیولوژی
زمزم
ابرشرکت
عبدالصمد
ماکیاولی
das
شوسف
لست
لکو
کینت
یالها
##ven
##ming
##صفهان
##ویچی
##استانی
##اقری
ایاو
یاح
ارژن
کارگزاری
ویور
کشیشان
نوسانی
مجال
اهدایی
ساختهای
میلین
##کیس
تنظیمی
جنگاوری
بارا
میانبر
پیرمردی
سیدال
خدایا
اپوکسی
شیخالاسلام
نمیگرفت
تواناییها
ضربت
ضرباهنگ
کاخها
ابانماه
پیمانکاران
خیراندیش
##ense
atlas
شعارهایی
سرگرمیهای
لالهزار
فشردگی
مسوولان
حقوقدانان
سويیچینگ
بیبهره
طرقبه
مادلین
انفلوانزای
فروزانفر
martin
ارتجاعی
گوژپشت
نیمکرهی
ولدمورت
ah
اچی
راید
چیه
کاتر
##خای
##الطبیعه
اینگرید
امه
ارچ
ناموس
##اعدی
بخشبندی
تروما
ملیگرا
سازهی
##ویسان
تعبیری
ایتن
سینگر
کمککننده
مرتع
کنترلر
برزو
راستش
خدمتکاران
بیتها
تامینکننده
کریستو
محافظتی
عناوینی
چهرهها
states
کشیدهاند
برناردو
ذراتی
کریماباد
املای
سولفور
هادسن
##طلبانه
بچگی
mont
هیستامین
اهنربا
مانگای
میانسال
ماتریالیسم
civil
doc
نوتس
##جوهای
##رودی
##فکس
##گشای
##ling
##حیم
##اینده
ازون
میمه
برار
##ابال
##یمو
##مانس
المنت
توین
##اندس
اهورا
##عیه
کلسی
زمینهایی
##ارتفاع
گذروا
مارگار
کیز
کیقباد
نسبتدادهشده
ساختمانسازی
رشتخوار
پاسخها
نمیامد
زدودن
حکمتی
کفپوش
##پلینگ
زرنگ
step
خریدن
علامتهای
سوسکهای
مهمانخانه
تردیدی
برملا
گیمپلی
فرسخ
گرداننده
1894
ارنستو
وردک
معنیدار
add
عاجز
مگسگیر
الوارو
یاختهها
صمیمیت
ایندیاناپ
سازماندهیشده
گذرواژه
if
mu
تترا
جره
دزم
وضو
پریت
یالی
درف
##ویله
##انیس
##یدیم
شهربانو
نمرهی
نواده
مجیک
چهکار
سوخ
گردون
مارهای
کاخی
ایلنا
رمانها
وابستگان
سیراب
سربازانی
گشتو
ابراهیماباد
فرارسیدن
نرماندی
شارما
فلورسنت
اونس
افریقاییتبار
کمالالملک
شلدون
لمبرت
اکسیداز
ایزدبانو
##گروهی
خطرناکترین
پرکاشن
لوییز
ساندرز
وهله
معاهدهی
##پرواز
نورثروپ
فرضیههای
حبشه
قاطعانه
میپنداشت
گریفین
بازمیگرداند
منتشره
ic
litt
جیت
خوست
داندی
شوارت
قاق
ووهان
پسون
یورت
##gra
میفرو
براندو
##اریوس
##ومار
منور
العم
گرترود
بیولوژی
##وکشی
فعالترین
خطاط
کوچی
اروتیک
پاسور
##وپای
جوانمردی
ساگان
دهدشت
مادورو
والسال
پشتونها
##وگلی
کوبای
پروژههایی
بنامهای
کاغذهای
کانیها
چالشها
کمپینهای
شرفالدین
هتلی
اسطورهشناسی
طایفهای
الاتحاد
دایمیو
علامرود
سایلنت
جوری
غرف
فاسی
##خشک
##خاله
##hi
درهها
##الون
برایانت
ایها
نیوف
ارادی
بوشهری
زیاریان
راهش
چهارط
ملازمان
اوروک
اسلاید
شعور
مبنایی
وسعتی
جعبهی
اعتراضها
پیشرفتها
دراینحال
معاونان
##رایس
قنطورس
##رودین
فدراسیونهای
مرغها
فلزکاری
کرافت
پتانسیلهای
مالزیایی
برچسبهای
یاختهای
بستاناباد
مبالغه
خلعتبری
سیشل
داوینچی
صراحتا
bir
خزه
قازان
لوي
لوتری
مملک
یيو
##مرکز
##دامی
##ایندی
##ابروک
توقع
کرز
متصور
##ربنع
##اپیش
##اپوس
ادمیت
پاینده
هوور
برگامو
جهانگردان
مخدوش
هندوچین
##مرده
مایرز
مورنو
میراثی
رابطهاش
نبشته
بابای
اصطبل
حلالهای
##rian
حقیقتا
تونلی
فرامرزی
صلیبیها
تپوریها
دژهای
ریواس
پرکینز
1897
صیانت
مايويی
مناقشات
ناکارامدی
ترفند
غشاهای
نمیافتد
اپادانا
nig
تردی
رنی
ساندی
نلی
##قادی
##رل
##کده
##خاط
##ki
##ودای
برونی
الار
گرج
دستنوشته
بیناب
##وکوس
کلایو
احدی
وجودش
سوسیداد
زمینداران
اخراجی
تلقین
حداقلی
ملودر
کلیمیان
خرقان
##بلت
سردترین
استانداران
##انزل
مونومر
کیفیتی
بدینترتیب
نژادپرستانه
cons
انگیزش
کانتو
کیتو
دبیان
##وتنیک
رگها
قالیهای
گوشهگیر
plan
کراسن
سمیرا
سمپوزی
تلخیص
محاورهای
لنفوسیتهای
مینیاپولیس
تالبوت
hal
light
تونگا
زلال
کچل
##چکا
##یروز
راسال
الاج
مسواک
##یشدن
کرانی
کرفس
کمابی
رویی
اقوامی
احقاق
نخودی
ماهنشان
اورول
##قیقت
جزا
##چیانو
##ویته
نسخههایی
##iae
جذبی
مردانگی
اسبسواری
عروض
جنگلداری
کیمبر
دروازهها
فورست
شباهتی
نادانی
لورین
مزرعهی
مصریها
نهنگها
360
کیسهای
ونتزیا
##وبلاست
سمندریان
زیتونی
سلحشور
کنترپوان
squ
ساعی
##باکس
##کربن
##غون
##69
میخانه
باتن
استینگ
##اشرف
دانتون
نفربر
مککل
##اختر
اخری
اسپیت
دولتشهر
دریابد
رقه
تفضلی
سیلان
کرمانشاهان
پانکراس
سرویسها
ماکان
کولچستر
read
بیهوازی
کونکاک
تماشاچی
موزايیک
سوپرمارک
کرکی
لیورنو
مکتوم
منزلهی
##زندگین
فرمتهای
کالینین
متحدانش
براندون
بلعمی
هراکلیتوس
جندی
جیره
ذبح
زلی
زعم
غفار
وگا
کتو
کاکی
##ror
##صطفی
باو
##ادیا
##فرت
گرگی
متورم
نوبهی
##اکها
نامهنگاری
تریر
رسا
ریزد
دادهایم
کامبت
شمالشرق
جهتهای
ابرار
قدرتش
تبعه
یوگنی
مشترکین
بحثهایی
پورحیدری
قناعت
سارق
واکاوی
تیتو
لزبین
براوردن
منزلش
عمومیت
فالک
سهرابی
بسازیم
استعفاء
شبانکاره
ذوالقدر
smith
هیجدهم
نامتعارف
التیام
سماوی
سناریوی
هرناندز
غیرارادی
سریعالسیر
کونکاکاف
تومی
حوت
رگن
رگه
فاگ
قاپ
لیدر
پوب
##مش
##شریف
میفروشد
بردهای
##اتیر
اهریم
##وبازی
انگاری
##هنگار
مکلین
لیزی
##ودیان
مخزنی
مخملی
پیرایش
دخول
##ats
پایهها
الکترولیتی
پسار
مانش
##پهن
تالس
واسکو
کاستلو
اشغالگر
اوجگیری
برمیانگی
استنادی
اوییشن
##app
برگشتن
بایرام
شیمیدرمانی
رولند
چربیها
وردر
رادیکالهای
ماینتس
پلوپ
گرنادا
وارونگی
##کیرشن
اچتیامال
اسپاتیفای
hu
ايو
بندگی
رضو
زشتی
غنایی
گاست
##لقی
##نید
##گوز
##چینگ
##انل
بهحساب
میسی
میپیچ
استورم
##اهنی
راسپ
المه
کارتی
سیگاری
ابمیوه
بالن
تعریق
سینکی
کانا
تحتالشع
دورانها
رایزن
رایانهی
##لندر
الیه
قانونهای
##گنبد
##گونهی
ضدیت
پیچش
بمبی
سودای
ایزوم
الحک
دونکستر
موافقان
مضاف
احترامی
فورستر
وحشتناکی
چربیهای
سرهنگی
ترانمره
راینلاند
اسیابهای
حاشیههای
لاهوتی
##وبرق
صحیحی
دلفینو
فروتنی
psych
رزونانس
یسوعی
تحتالشعاع
bbc
ka
ng
شهی
وانی
ویدا
ینا
##تسی
##جاج
##بادی
##عروف
##ty
##چت
##وییه
##ازاری
##فتهای
اسلیمی
موطن
بیقراری
بازجذب
ارتز
دومینگو
##ايد
اسپم
نهفتهاست
##یدهاند
امارها
دیدبانی
مراغهای
شعرهایی
داریو
تهنشین
عشقاباد
لایحهی
دعوای
لیستهای
اتهاماتی
عزیزان
الهدی
کشتارها
مجازاتهای
تندیسهای
باکینگهام
کیروش
قمرهای
درمیامد
بینظیری
برامدند
الایندههای
اسپیریت
منوجان
برافرو
جغرافیدانان
systems
تخلیهی
ابوجعفر
بیری
نل
##bor
الشر
ایپس
سرباره
##اکتو
اصله
##وکارد
جنگهایی
زمینشناس
##قلاب
##گریزی
اسپند
کوچصفهان
مخل
##anc
خانواد
شمارنده
چیانگ
کنارش
سبکها
##علیا
ارموی
اقدامهای
سادهلو
الفها
بهارلو
گنجینهی
سوختگیری
سوزانا
پرچمی
میکروبها
دیمیت
نگرانیها
اترک
کپکام
خشنودی
کاراکترها
ذوالقرنین
##پریده
زرندیه
خواجوی
گزنفون
کامپوزیتی
لیختناشتاین
موریکونه
ss
تازگی
ربا
ریمی
صرافی
چوخ
چپاول
ژايو
##سگرو
##بنان
##ینة
میای
برنو
بریس
##ابلی
امرب
اوتی
کشانده
بیصدا
پرگار
پیگ
کلاهی
کواد
##رسمیت
##مایند
##توف
ابروی
دقیقتری
معروفند
پهناوری
پنبهای
نرمتر
شوبرت
ارامستان
بوروکراسی
ins
##row
طلبه
توزیعی
هندیجان
جفتهای
کروموزومی
##ude
نمیدادند
سمنانی
قلیچ
بصیرت
بیحرکت
زوجی
##فورماتیک
ریبوزوم
گرویدن
پریکلس
ترومبوز
اتاترک
بلاروسی
درهمانحال
اهریمنی
wood
داسو
رامیان
صفیه
عنان
قلاع
نزار
##43
